Ġ t
h e
Ġ a
Ġ s
Ġ w
n d
Ġt he
e d
Ġt o
Ġ b
Ġa nd
Ġ h
i n
Ġ f
Ġw a
i t
r e
o u
Ġ T
Ġ l
Ġ d
Ġ c
Ġ he
Ġ p
a y
Ġ m
e r
Ġwa s
o m
i m
o n
i l
i d
i s
a t
a r
Ġs a
Ġ n
Ġ g
in g
ĠT he
Ġh a
e n
Ġ S
a n
o r
l e
l l
Ġt h
o t
il y
Ġhe r
Ġ it
a m
i r
e t
L ily
Ġ u
O n
Ġ in
u t
Ġp l
r i
o w
Ġ "
Ġ H
Ġd ay
Ġb e
Ġ Lily
v er
c e
it h
i g
Ġ o
Ġw ith
Ġsa id
Ġpl ay
ĠT im
p p
ĠS he
c k
l d
m y
Ġ e
Ġh is
o o
Ġ y
ĠH e
ĠThe y
Ġs t
Ġu p
Ġth at
Ġ r
Ġ on
k e
k ed
s t
Ġm om
Ġs he
v e
Ġ I
n t
it t
' s
ver y
Ġy ou
Ġha pp
Ġthe y
e nd
im e
Ġb ig
Ġf ri
s e
Ġo f
Ġfri end
itt le
Ġl ittle
en t
Ġt ime
a d
u n
Ġha d
Ġw e
Ġthe re
On e
Ġs o
he r
Ġf or
a ll
ou ld
Ġn am
Ġ B
Ġwa nt
Ġhapp y
Ġsa w
Ġnam ed
v ed
Ġl i
Ġb ut
Ġ very
Ġd o
Ġl o
On ce
c h
Ġn e
Ġup on
e s
ou t
Ġ k
Ġs h
Ġ M
ou nd
. "
l y
' t
Ġn ot
ĠTim my
Ġw h
e l
id e
om e
h t
a l
Ġ re
Ġb o
t er
Ġw ent
Ġa s
Ġa n
Ġhe l
Ġfriend s
Ġhel p
Ġto o
a ke
! "
Ġwe re
Ġlo ved
Ġwant ed
Ġs m
ir d
o re
a ck
Ġb ird
ir l
r y
Ġd id
Ġ One
Ġg irl
Ġto y
r a
Ġa ll
u g
i nd
T he
Ġh im
u r
ĠI t
am e
Ġl oo
Ġc ould
r om
Ġ j
Ġ out
w ay
g et
he n
t ed
e c
Ġa t
get her
Ġ is
Ġk n
Ġg o
a in
Ġs e
Ġto gether
Ġf un
Ġ A
ar d
ar k
u l
oo d
ĠT om
u e
Ġc an
s ide
Ġl e
i c
? "
il l
a x
Ġt re
Ġas ked
Ġbo y
Ġsa d
he d
g ht
f ul
el t
Ġr o
Ġb ack
ow n
Ġst ar
Ġf elt
Ġbe c
Ġha ve
Ġthe m
Ġc a
Ġc at
ot her
on e
Ġa l
Ġs c
Ġs p
Ġf ound
ĠM ax
Ġc l
Ġthe ir
u m
Ġdo g
Ġm an
r ound
Ġplay ed
h ing
r o
Ġp ark
ĠB ut
i ck
on g
Ġloo ked
Ġsm il
Ġc ar
Ġb all
Ġc ame
Ġm e
Ġstar ted
Ġa re
Ġf e
Ġf a
Ġw ould
Ġli ke
om et
Ġtre e
Ġne w
Ġ F
Ġmom my
Ġa g
Ġe x
s s
ar ed
Ġwh at
u re
Ġdid n
ing s
i e
Ġm ake
Ġ W
Ġs omet
d d
Ġse e
Ġn o
n y
ou ght
Ġplay ing
ri ed
ad e
Ġw or
Ġs ome
Ġh ome
i ce
o p
Ġw hen
ou se
a g
Ġm u
Ġg ot
Y ou
Ġm ade
Ġc o
Ġa way
i f
Ġwa l
Ġthe n
Ġsmil ed
ĠB en
Ġ other
Ġag ain
Ġe very
Ġg ood
t y
Ġl a
k ing
n ed
Ġout side
Ġtoy s
Ġ L
Ġf ind
Ġf rom
b le
a u
a ve
Ġa round
oo k
Ġp ut
Ġf l
en ed
e p
way s
au se
Ġsomet hing
, "
u ck
ig ht
Ġal ways
all y
Ġbec ause
Ġle ar
Ġth ought
Ġth ings
ou d
Ġr an
Ġli ked
Ġsc ared
e ll
Ġwh o
Ġd own
Ġs w
u dd
Ġg et
Ġ J
ĠS ue
Ġkn e
a s
Ġa b
Ġm y
Ġtoo k
an t
re t
Ġd ec
u st
Ġab out
a ch
T im
Ġkn ow
is t
p l
Ġe at
Ġc h
Ġyou r
Ġh ouse
Ġto ld
f ter
it ed
Ġca re
Ġsm all
Ġkne w
T h
ĠS am
Ġt ried
an k
id ed
pp ed
Ġan y
Ġdec ided
Ġb r
Ġb l
Ġp r
is h
it e
Ġb u
Ġl ot
Ġin t
f e
Ġlear ned
Ġs ay
Ġ You
Ġd ad
ou s
ĠF rom
il e
p ot
Ġex c
Ġp ret
udd en
q u
udden ly
Ġt a
Ġ v
is e
Ġs un
er s
Ġmu ch
Ġla ug
Ġm ore
o b
Ġfe el
a re
Ġli ved
nd er
Ġ ke
Ġbo x
i ve
Ġw ill
Ġp o
a ce
Ġsh ow
v en
Ġh ug
um p
ĠS pot
Ġint o
u c
Ġu n
ĠH er
i a
Ġg ave
ur p
Ġon e
Ġexc ited
Ġne ed
Ġwa ter
et ter
Ġin side
Ġh o
ot h
Ġh ow
or t
at e
a p
Ġro om
Ġg ra
Ġt r
d y
Ġp ick
Ġcould n
Ġg re
Ġp e
Ġc le
Ġ if
Ġman y
Ġt ake
Ġloo k
Ġ D
ou r
ĠA nd
Ġl ong
Ġpret ty
Ġp u
Ġbec ame
ĠS o
urp r
ur t
Ġo p
i z
Ġo ver
Ġr un
Ġs k
Ġs urpr
B ut
Ġbe st
W h
Ġb etter
Ġbe ar
b b
Ġth an
l f
Ġ E
he re
Ġm o
Ġ im
is ed
Ġr ed
g ed
le w
Ġj ust
Ġk ind
Ġf i
m a
Ġfl ow
g e
Ġg r
in k
in y
Ġst r
im al
Ġan imal
Y es
Ġe ven
Ġs l
Ġth is
e m
Ġe nd
Ġfa st
Ġcle an
Ġlaug hed
Ġj ump
s ed
Ġcare ful
Ġb oth
Ġwa t
Ġd re
c hed
ĠM ia
Ġl ist
Ġro ck
uc y
Ġ or
Ġn ice
b er
v ing
ĠH is
es s
ĠM om
Ġne ver
C an
Ġcl o
Ġto w
Ġim p
Ġb y
Ġu nder
Ġhapp ened
i on
Ġsay s
Ġhe ard
Ġo ld
Ġf ly
c t
Ġwal ked
p ec
Ġs n
in e
A s
a se
Ġh urt
Ġsa fe
Ġanimal s
Ġc om
Ġ en
Ġpr oud
Ġt ry
M om
The y
i ed
ig h
Ġt e
Ġ ri
Ġf ore
f t
Ġha nd
Ġco l
' m
Ġd on
Ġsk y
Ġlot s
Ġf lew
ĠB ob
Th ank
or ry
Ġd an
k ay
ar a
Ġwh ile
Ġf am
ĠL ucy
Ġbe a
Ġf ood
Ġf o
Ġf ish
Ġst or
Ġg round
Ġr a
â Ģ
Ġl et
Ġe ach
Ġre pl
ĠW hen
ou g
oug h
Ġc he
Ġpick ed
Ġp ic
Ġs orry
Ġre m
il ly
Ġ ide
Ġit s
i es
Ġsh iny
Ġof f
Ġide a
ad y
Ġre al
Ġb ad
s h
e x
f f
b y
ĠW e
Ġrepl ied
Ġc ome
g ry
Ġsh are
Ġt ur
im b
Tim my
Ġcl imb
T om
i al
oo l
Ġimp ort
t ure
Ġwa y
Ġl oud
m ore
Ġany more
Ġsp ec
Ġspec ial
Ġfam ily
Ġu nt
n ing
Ġb ro
r m
Ġbea ut
se lf
Ġimport ant
Ġw ind
Ġthan ked
Ġa d
Ġhug ged
a nd
Ġh ard
Ġst ill
Ġd ra
n n
Ġunt il
il d
e et
Ġsurpr ised
Ġt al
Ġfore st
i ful
ard en
Ġbeaut iful
Ġg arden
Ġhelp ed
ĠT h
Ġlo ve
pec ted
Ġbe ing
iz ed
Ġ qu
Ġne ar
Ġg l
op le
i p
ex pected
Ġun expected
Ġc u
Ġt w
Ġfe ll
um my
v or
Ġc on
Ġke ep
Ġpic ture
Ġwal k
Ġex pl
Ġb ook
Ġa fter
v ent
Ġcol or
x t
Ġne xt
ĠBen ny
A fter
he s
Ġpe ople
Ġg ive
Ġb ug
ĠS uddenly
Ġshow ed
Ġfa vor
Ġfavor ite
Ġn ow
t h
Ġc ry
Ġh igh
ĠJ ack
Ġf in
Ġm a
nn a
Ġf ar
em ber
a k
Ġp ar
Ġst ore
Ġgo ing
Ġc re
un ny
Ġm ag
Ġa pp
Ġsh ould
Ġc ake
o ck
is hed
Ġlist en
Ġc all
Ġa m
Ġgre at
Ġlo st
f ore
Ġst ay
L et
S uddenly
Ġrem ember
Ġw o
u ll
W hen
ar y
Ġs qu
Ġr ain
Ġa c
Ġc ook
Ġj o
ĠThe n
g er
p t
Ġb ra
Ġf r
Ġb ed
I t
re l
Ġp a
Ġ own
Ġop ened
Ġtr uck
Ġbe fore
Ġe ver
Ġstr ong
ag e
N o
o on
Ġst o
Ġbut ter
Ġflow ers
Ġo kay
Ġbl ue
Ġdo or
Ġfi x
Ġwat ch
ĠS ara
Ġwor ry
Wh at
u ff
Ġno ise
Ġw here
at er
D on
Ġd e
Ġpl ace
Ġbo at
Ġdo ll
Ġreal ized
le s
Ġw r
le ase
bb it
Ġat e
ed dy
Ġ N
Ġm or
ime s
Ġstor y
Ġmag ic
Ġad vent
ĠL et
Ġ P
Ġy ummy
b e
t hing
Ġra bbit
ĠE very
le ep
Ġm et
Th at
ĠA my
ĠW h
Ġwa it
Ġle ave
Ġbutter f
Ġhapp ily
a ble
Ġt ra
Ġb unny
Ġcat ch
Ġf ro
t ing
u ch
ow l
Ġm ouse
Ġb re
Ġdre ss
ir rel
s o
Ġdra w
H er
Ġal so
Ġjump ed
Ġm on
Ġfa ce
Ġother s
Ġsto pped
en s
Ġsqu irrel
Ġevery one
Ġst ick
Ġbra ve
ug ht
Ġcall ed
Ġs ing
Ġs at
ir st
an e
Ġk id
Ġfro g
Ġadvent ure
Ġcon t
Ġke pt
ĠB illy
i ous
ĠI n
Ġg ame
Ġneed ed
Ġ R
Ġbutterf ly
Ġu se
Ġso on
ir ed
nd ma
Ġwa rm
l ed
Ġsl ide
Ġsomet imes
o y
Ġwal king
Ġsa nd
Ġri ght
Ġ C
pp y
Ġha ving
Ġfor g
Ġfeel ing
Ġp ain
Ġp ie
Ġd if
Ġflow er
uff y
Ġre st
Ġe y
Ġth r
dd ed
Ġhe ar
ĠA nna
k en
Ġan gry
Ġn ight
Ġwor k
Ġremember ed
at h
o l
d ay
W ow
ĠS ally
u ed
Ġ ice
' re
Ġkid s
Ġ Can
z y
ic ed
j oy
Ġd is
Ġop en
Ġs ure
Mom my
Ġth re
Ġt ri
L ook
Ġ our
Ġsmil e
Ġt ired
Ġme an
F rom
H e
an ge
it c
Ġu s
Ġbu y
Ġso ft
Ġd in
Ġh at
Ġc r
u s
Ġbird s
Ġc ra
Ġu sed
Ġp rom
Ġhe ad
Ġfi re
Ġ K
Ġs leep
Ġloo king
st er
Ġbe h
Ġd el
Ġbr other
n er
Ġf irst
Ġen joy
Ġcont in
Ġb a
Ġgre en
Ġho le
Ġclo s
Ġs ound
itc hen
Ġk itchen
Ġas k
Ġl ady
ĠF l
n g
Ġhand s
ou nt
Ġwe ar
g an
u it
Ġno dded
H i
Ġwat ched
ĠD o
Ġc ut
Ġcontin ued
Ġpr in
Ġey es
Ġma king
Ġ z
Ġm ess
Ġd uck
Ġpar ty
Ġfun ny
ell o
Ġfl o
H ello
fe re
Ġdif fere
ll ow
Ġd r
id ent
Ġbe l
Ġtow n
itt y
Ġta st
Ġd ir
Ġy ell
Ġca nd
a ir
Ġt ell
Ġm is
Ġac c
Ġpie ce
i ent
Ġc ried
q ue
Ġmor al
ma z
Ġtw o
Ġd ro
Ġa maz
p h
Ġnot iced
Ġh id
Ġpo nd
e ar
Ġwor ked
Ġco ld
Ġsw im
Ġre ad
Ġh ot
Ġacc ident
ĠJ o
Ġbro ken
Ġb ri
Ġfo llow
Ġr u
Ġtur ned
Ġfar m
Ġa r
Ġli on
w here
Ġag re
ec t
ĠM r
Ġr ace
Ġc ool
ay be
Ġdad dy
Ġdiffere nt
Ġqu ick
B en
Ġtre es
w eet
Ġh un
Ġcook ies
Ġsw eet
one y
Ġgra ndma
Ġb ag
Ġp lease
Ġtal k
ĠFl uffy
W e
Ġ G
Ġth ing
Ġpu ll
Ġsc ary
Ġh op
Ġst op
or n
Ġbeh ind
Ġha ir
M ax
er ed
Ġsurpr ise
Ġp er
Ġexpl ore
Ġth ink
Ġcre am
Ġhelp ing
Ġclimb ed
ĠF in
Ġs ong
Ġto p
Ġb ar
Ġt all
Ġgra ss
ĠA s
Ġmo ve
h n
Ġlist ened
Ġd ri
Ġrun ning
Ġwr ong
Ġtur n
Ġcu ri
Ġbu ild
Ġfriend ly
Ġd ark
Ġdin ner
ap er
Ġown er
Ġcar s
Ġcuri ous
Ġsh o
The n
Ġta ble
Ġagre ed
Ġsh ared
i ke
Ġcl a
Ġbri ght
Ġcom ing
Ġclos er
Ġlear n
Ġflo or
c ed
Ġquick ly
Ġdan ce
o ice
uck y
ĠMom my
Ġhun gry
Ġan other
Ġbl ock
Ġdre am
s y
Ġsw ing
Ġhe re
ĠN ow
ĠT weet
Ġm ight
Ġdo ing
ĠK itty
Ġaccident ally
A t
nt s
Ġt eddy
ig n
at her
Ġforg ot
itt ens
Ġbro ke
Ġw et
Ġleave s
Ġto uch
Ġsh ar
Ġst uck
Ġsm ell
Ġta il
S o
ll y
ke y
Ġunder st
Ġbr ought
L ater
Ġhim self
Ġh ide
as ure
ard s
Ġher self
Wh y
Ġw ood
Ġle ft
Ġg one
p e
Ġv is
Ġp aper
b o
Ġprom ised
r ot
Ġwh y
Ġl ight
Ġpret end
ic y
Ġgr ate
âĢ Ŀ
Ġy ard
âĢ ľ
Ġfin ished
Ġclo se
Ġdel ic
Ġgrate ful
Ġcand y
Ġfa ir
g g
Ġper f
Ġre ady
Ġpl an
ĠTh is
Ġany thing
by e
Ġv oice
Ġgl ad
Ġtry ing
Ġcolor s
a v
Ġre ally
Ġha s
Ġt ight
Ġ owl
Ġr ide
O h
Ġthr ough
Ġh ill
ie ld
Ġball oon
Ġtra in
ĠA fter
ou p
Ġpu ppy
o om
Ġw ished
r ow
ce ss
Ġwind ow
a ched
Ġsun ny
ĠTh at
Ġsh out
Ġf all
Ġho ld
is y
Ġfr uit
Ġ ve
ĠSara h
Ġf ull
Ġsn ow
bb ed
' ll
Ġpicture s
Ġbe gan
Ġp ink
s et
at ion
Ġyell ow
Ġwor ld
Ġevery where
Ġbe en
ct or
Ġse en
Ġl ess
Ġdir ty
Ġsome one
Ġp are
Ġgr ow
Ġwo nder
Ġvis it
ss ed
st le
Ġj u
c o
Ġmom ent
Ġfly ing
Ġeat ing
a f
Ġro ll
Ġne st
Ġgood bye
ĠM ittens
Ġc ount
Ġla nd
a c
Ġdo es
av y
as k
O kay
Ġon ly
Ġs et
Ġblock s
Ġs it
Ġbr an
Ġst e
Ġse ar
Ġbre ak
Ġba by
Ġm ar
Ġp at
Ġnam e
Ġmu s
Ġd one
Ġhapp en
Ġw in
Ġapp le
Ġa ir
Ġmon key
am p
r ed
on s
Ġbook s
th y
Ġsl ow
Ġ âĢľ
ĠD ad
Ġcolor ful
Ġwa ited
Ġcom p
Ġy es
Ġp re
Ġre ached
or m
Ġcry ing
d er
Ġlaug h
Ġb it
ain ed
Ġa rm
Ġbe ach
Ġg ent
o s
Ġcl ot
Ġw on
Ġclot hes
ri es
z z
Ġre ach
Ġcar rot
Ġpl ant
Ġcu p
Ġhe ld
Ġpu s
ill ed
Ġwas n
Ġp en
is ter
i x
d e
Ġf ight
as h
st e
Ġup set
Ġf re
Ġw ise
Ġp ro
Ġth ank
Ġs ister
g on
ste ad
Ġfin ally
Ġhe avy
am es
Ġpo l
Ġpare nts
ro om
u p
Ġenjoy ed
Ġtre asure
Ġm at
Ġtow ards
S ure
Ġpain t
Ġevery thing
Ġmus ic
S he
Ġb ike
Ġtre at
an ce
Ġca stle
Ġe ar
ow er
Ġal one
Ġless on
Ġj ob
Ġdelic ious
Ġsp l
Ġsa il
Ġn ap
Ġmon ster
ot t
Ġdan ger
Ġbig ger
Ġch ild
Ġget ting
Ġjo in
Ġcl oud
g le
Ġwood s
Ġfollow ed
H is
c le
s c
ĠTom my
Ġunderst and
Ġwo ke
i ch
ĠE m
ar t
ull y
ĠJo hn
Ġho pped
Ġ O
Ġm ix
Ġsw ings
Ġm oney
Ġdo ctor
Ġar ri
Ġe le
ĠEvery one
Ġsp ot
re am
le ss
Ġsw am
ll ie
Ġp ot
f ully
Ġlook s
S am
Ġb ath
Ġwa ll
Ġj e
a st
Ġg ames
Ġe m
Ġwith out
Ġd ry
âĢ Ļ
Ġb lew
z e
out h
a ught
Ġm outh
ĠThe re
Ġf ur
u b
Th is
Ġgra bbed
e y
Ġb or
Ġri ver
Ġb ott
Ġmu st
Ġf ield
ve s
Ġsn ack
m an
Ġb ite
Ġshout ed
Ġca ught
Ġg if
Ġpull ed
in s
o c
Ġarri ved
Ġhe al
Ġtow er
Ġde ep
Ġpus hed
Ġh it
Ġexpl ained
Ġre l
D o
Ġwor d
Ġp et
a isy
Ġch air
Ġt iny
l ue
c y
Ġle g
ĠBob o
Ġg u
Ġpiece s
un ch
s p
ĠA ll
Ġstay ed
le t
Ġthre w
is s
Ġdanger ous
S ara
ĠWh at
S ue
A nna
I n
Ġwa ved
Ġbe e
ch ool
Ġs ide
Ġwould n
f ort
Ġse a
Ġcare fully
ck et
Ġa ble
Ġfre e
Ġwh ite
e ared
Ġs chool
Ġbl ack
Ġs illy
Ġperf ect
Ġwor ried
i et
Ġe l
g ged
Ġbl ank
Ġke y
Ġbran ch
Ġc our
Ġcla pped
Ġqu iet
Ġen ough
itt ing
Ġel se
Ġb owl
Ġblank et
Ġfo x
ock ed
at ed
Ġadventure s
Ġcour se
en ce
c ome
Ġk ing
ĠJ ane
Ġamaz ed
Ġtal ked
pp ing
ou n
il a
Ġdro pped
Ġfarm er
Ġto day
Ġdr ink
Ġ que
b or
ĠB lue
Ġs ec
Ġm other
J ust
Ġshar ing
Ġto m
Ġg i
Ġs oup
Ġa nt
Ġprin cess
Ġfair y
Ġsp r
ph ant
Ġbr ing
Ġsand w
Ġs ick
i er
Ġwe ll
or d
Ġse es
Ġb at
e k
Ġat t
Ġin stead
Ġdan ced
Ġamaz ing
Ġj ar
o g
Ġpo in
y ard
Ġele phant
Ġback yard
Ġrock s
ra ct
Ġp udd
Ġw ish
Ġclo sed
Ġl ate
s pec
Ġdoll s
Ġthre e
m ing
Ġth ough
M ia
ck ed
Ġma il
Ġsm art
Ġmor ning
Ġp ack
i ble
Ġp ig
e e
Ġcr ay
Ġstor m
se s
Ġne igh
re n
Ġdra gon
Ġs uch
e re
Ġs itting
Ġwe l
Ġp h
Ġsa ng
Ġc ow
Ġsear ched
Ġstr ange
i ver
Ġle af
ask et
o lly
Ġl etter
Ġb asket
Ġbu s
Ġl unch
Ġmake s
b all
l ing
Wh ile
Ġmis s
an g
O f
as ed
Ġfe w
Ġcre at
Ġcra b
ro ss
Ġs ign
Ġcut e
in ed
F in
ĠSam my
ĠT o
Ġbar ked
Ġju ice
b ble
" .
ĠT eddy
u sed
Ġturn s
Ġne ck
e ver
Ġor ange
Ġbel ie
Ġmu d
Ġp urp
Ġw ings
ir t
Ġw ore
e se
Ġst re
Ġcar ry
pp er
i re
Ġche ese
Ġwa r
Ġsec ret
Ġneigh bor
Ġh ig
Ġbr own
udd y
Ġpa st
Ġf an
Ġgif t
Ġpurp le
Ġpat ient
Ġb en
ig g
Ġfix ed
itt en
Ġbel ong
Ġapp les
m e
Ġchild ren
Ġhid ing
Ġy ear
ĠD aisy
Ġsm o
Ġta king
Ġe gg
Ġsho es
Ġsp id
a pp
Ġfast er
Ġb ought
Ġw he
Ġb oun
Ġro ad
Ġd ist
J o
Ġst u
Ġr ound
Ġf it
Ġbut t
Ġwel come
Ġsee m
Ġbott le
ve l
ĠFin ally
ble m
Ġcol le
Ġpro blem
b r
Ġs uddenly
is k
Ġsing ing
Ġh or
Ġm il
ĠM aybe
Ġthr ow
is es
i pped
Ġf illed
Ġs ug
Ġj un
ĠIn side
Ġsn ake
a il
bo ard
Ġben ch
Ġhelp ful
Ġhig her
Ġsh ap
Ġmil k
Ġlike s
Ġwa gged
ir th
i an
Ġdis app
irth day
Ġcra w
one ly
Ġl onely
Ġday s
Ġtri p
f used
f ish
Ġtr ou
Ġhear t
in ing
Ġpo cket
Ġco zy
Ġno se
u nt
Ġb uck
Ġb and
em o
Ġfore ver
S pot
Ġtal king
s w
er ry
Ġpa w
Ġm in
Ġan sw
Ġword s
Ġp ers
Ġh ar
Ġstar t
B ob
Ġo b
ug g
Ġin c
ĠEm ma
Ġwh ist
Ġdri ver
isk ers
Ġte ac
a ur
Ġsa me
Ġb irthday
Ġspid er
ĠB uddy
it ch
Ġl ake
Ġst and
Ġmis sed
o se
Ġpr ot
Ġstre et
ĠD ucky
L ucy
a ss
Ġm ist
Ġtast y
Ġm ark
M aybe
Ġheal thy
Fin ally
Ġkn ocked
Ġk ick
Ġe as
ĠTweet y
ount ain
Ġco at
Ġdro ve
Ġroll ed
Ġd es
Ġpudd le
Ġse ed
Ġteac her
ĠB r
t o
Ġa ct
ĠC h
Ġp op
Ġb an
ĠJ ust
ĠG ra
Ġp ill
c ing
Ġwant s
Ġbelie ve
Ġshe ll
Ġbird ie
fort able
Ġgre w
id ge
Ġb ow
Ġh oney
Ġbu sh
e b
Ġv al
Ġco ver
Ġsp o
Ġapp eared
Ġcolle ct
Ġte ach
Ġban an
Ġsp in
Ġgent le
Ġcook ie
ĠSo on
Ġland ed
at o
Ġsh ining
a le
b ow
Ġor gan
Ġdre w
ĠN emo
ĠWh iskers
Ġ -
iz e
Ġl ater
Ġsh op
Ġp ower
Ġmagic al
ĠA t
Ġpar t
ĠBr own
Ġli ving
Ġmo st
Ġk ite
c hes
Ġshar p
al m
Ġf ence
um b
Ġsh y
Ġsandw ich
Ġlaug hing
it al
Ġwatch ing
Ġkne e
Ġw ra
Ġsh r
Ġsee k
Ġlong er
Ġa f
c er
Ġrain bow
Ġho sp
Ġhosp ital
Ġn ut
Ġfe ather
Ġph one
Ġa p
at or
Ġs uc
Ġp ract
Ġsong s
Ġwor m
ump y
Ġmo ved
st ing
Ġm ine
Ġli ve
Ġsh irt
Ġp ile
Ġm ad
u ally
Ġme et
Ġhor se
Ġbu sy
Ġsa ck
Ġli fe
Ġc oo
Ġsp oon
Ġjun gle
Ġca ve
ĠTh ank
Ġbre ad
ep end
Ġch ick
J ack
Jo hn
Ġon to
Ġin v
Ġbuild ing
aught y
n ic
or row
Ġm ed
Ġn aughty
Ġc ou
Ġpic nic
Ġcar t
Ġcray ons
Ġo ven
ck s
Ġjo y
Ġpu zz
Ġm um
ra id
Ġm ach
Ġaf raid
Ġsp ark
Ġal ong
Ġro b
oc ol
Ġ Z
Ġcarrot s
Ġwonder ful
Ġbutt on
ĠL ila
Ġgent ly
Ġtom orrow
Ġch ocol
Ġb ur
Ġwo lf
Ġch ased
ul ar
Ġrob ot
Ġex p
Ġp an
Ġme ant
Ġtast e
Ġfo ld
Ġk itten
Ġsp icy
ad ow
Ġmess y
Ġsc ream
Ġle m
Ġsmil es
i ally
Ġswim ming
ir p
Ġwas h
un a
spec ially
Ġdir t
our n
m b
Ġc ir
Ġpl ane
Ġe specially
Ġas leep
Ġp our
Ġth in
et er
Ġj ourn
Ġv ill
ĠE llie
Ġhold ing
Ġdraw ing
Ġpe ace
Ġbuck et
c om
ce an
Ġo cean
Ġfo ot
Ġro pe
Ġchocol ate
P lease
Ġche ered
Ġsound s
Ġtast ed
Ġbug s
Ġsh ake
er t
Ġsa ve
Ġz oo
Ġs er
Ġprot ect
Ġdri ve
Ġto uc
Ġsh ook
Ġpu sh
Ġst one
Ġprom ise
re ss
oo se
Ġse at
G ood
sh ine
Ġb one
Ġslow ly
Ġgl ow
Ġcon fused
Ġmist ake
Ġw ild
it y
Ġte a
Ġint ere
Ġl ucky
Ġknow ing
Ġnear by
get able
Ġyou ng
Ġsun shine
Ġco in
Ġve getable
Ġany one
ll a
ĠWh ile
Ġwhist le
M y
ll o
Ġs u
Ġso l
Ġsmell ed
Ġv ase
t en
Ġc e
Ġtouc hed
Ġpre s
Ġclean ed
Ġt urt
Ġm ind
ge st
iz z
o ve
ion s
d en
Ġsa l
Ġjo ke
ell a
Ġtreat s
Ġwho le
g ly
um ber
Ġb ake
o st
ell y
Ġf le
el s
Ġstar s
Ġim ag
Ġpa ss
m ent
Ġwa ve
im i
B e
Ġu gly
A my
Ġhid den
Ġre t
oo p
Ġmach ine
Ġvill age
Ġd i
Ġmy ster
Ġgr ay
Ġc alm
Ġhop ed
Ġturt le
ĠJo e
Ġfan cy
Ġt id
Ġsh ip
ĠT V
Ġspl as
Ġw ing
Ġbu bble
Ġshe lf
Ġbe ll
Ġw ide
p a
Ġwhen ever
if e
Ġcle ver
Ġintere sting
one st
bo x
b ar
Ġ ent
Ġwr ite
Ġpres ent
Ġret ur
Ġcou ch
Ġsp e
on t
Ġs our
Ġru de
Ġtid y
Ġgi ant
Ġwait ing
Ġshap es
Ġsu pp
l ace
Ġgr umpy
Ġn et
Ġneck lace
Ġf ing
Ġj elly
am a
Ġs ur
. âĢĿ
k in
Ġh onest
Ġwonder ed
Ġsa ved
er ly
d ge
Ġb ark
Ġfin ish
Ġ ign
Ġc ard
m er
Ġask s
ĠS p
bar ra
! âĢĿ
Ġstor ies
Ġem barra
Ġpill ow
Ġfr ont
l a
Ġspo il
Ġsmo oth
Ġz oom
Ġs el
Ġtight ly
sc ap
He y
Ġbo ss
Ġwear ing
Ġfor get
Ġhe llo
Ġprin ce
ul t
Ġcl own
Ġp izz
Ġfruit s
Ġpuzz le
Ġp ath
Ġsnow man
Ġcl oth
Ġa v
Ġr ad
Ġgr oup
v ous
ĠJ erry
op e
Ġwor king
l ower
ĠTweet ie
Ġpizz a
Ġduck s
Ġspr ay
T o
Ġstr ing
Ġlem on
Ġyear s
Ġvegetable s
p ty
Ġem pty
Ġl ad
nd pa
Ġhug e
n ess
Ġtrou ble
Ġsel fish
Ġque st
o ppy
Ġno ises
Ġche w
Ġf il
Ġpl ate
Ġrun s
ur se
Ġg ather
Ġfight ing
aught er
ĠM imi
Ġf ake
Ġlad der
Ġas h
Ġje w
Ben ny
Ġst ra
Ġpretend ed
e o
et h
w ard
or k
Ġthink s
Ġpoin ted
Ġsleep y
Ġcla ss
Ġarm s
Ġtr ust
ar s
Ġgra b
Ġch ange
iz zy
Ġmo on
Ġsc ar
Ġm ot
Ġexpl or
Ġpers on
Ġche er
ens ive
or s
Ġsl id
Ġac ross
Ġl ay
Ġche st
Ġv an
Ġcloud s
Ġr ing
Ġdec or
Ġl ine
Ġn er
Ġshe ep
ĠB ella
Ġexp ensive
u ce
Ġner vous
ip e
Ġla zy
e st
Ġp ool
Ġjump ing
N ow
Ġsc re
Ġleg s
ĠGra ndma
Ġste pped
w ork
Ġdog s
Ġtw ins
e my
Ġst ep
Ġt ie
Ġdr ank
Ġsear ch
Ġli ft
er a
im ed
Ġha ng
Ġsmell y
Ġeas y
Ġcar ried
ĠDad dy
Ġfeel s
Ġre g
Ġembarra ssed
Ġch ase
Ġbea k
Ġlove ly
Ġde er
Ġso ld
Ġrem ind
os aur
Ġsnack s
Ġd aughter
Ġque en
Ġpol ice
Ġp in
Ġwh ich
Ġclean ing
Ġwe ak
it ing
Ġb al
ĠB u
Ġtoo l
Ġp ri
Ġc ro
Ġball s
Ġdin osaur
Ġy og
Ġh um
Ġsweet ie
gg y
Ġdr um
Ġplace s
Ġstick s
Ġg un
Ġboss y
is a
Ġclos et
Ġunderst ood
Ġrock et
ĠJ en
Ġla st
u sh
Ġla w
Ġgo ld
Ġte eth
Ġmo v
Ġst ir
am ed
om an
Ġw oman
Ġcreat ive
ĠS n
ĠM y
Ġpa ssed
Ġplant s
Ġst ood
A nd
Ġrel ie
Ġpol ite
Ġpower ful
Ġfur ry
Ġher o
O K
Ġhop e
Ġsug ar
la imed
ĠTo gether
er p
ĠL eo
Ġexc laimed
Ġle ad
Ġspl ash
Ġbl ow
Ġm ountain
Ġp ay
Ġse ll
ĠJohn ny
scap e
Ġri ch
Ġansw er
Ġseem ed
er ries
Ġe ag
Ġb erries
ĠBrown ie
erp ill
Ġcat erpill
Ġche ck
o nd
Ġpeace ful
oo f
Ġsuc cess
Ġmed ic
l ves
Ġm ap
Ġg en
ow ed
Ġmedic ine
ro ph
Ġwe ird
Ġsh ark
Ġdan cing
Ġfe ar
Ġs ort
Ġc ri
t i
Ġsp illed
Ġnot hing
Ġwa nd
ĠB unny
itt er
Ġmat ter
Ġte st
Ġmot or
Ġd ish
Ġst ret
ĠF red
Ġcaterpill ar
Ġdis co
he t
ar ge
Ġsp ace
u al
ĠEm ily
Ġfam ous
Ġhappen ing
Ġchick en
Ġon es
ag het
aghet ti
Ġrelie ved
Ġlo ck
ra g
Ġsc are
Ġbor ing
i pp
Ġt ummy
Ġsp aghetti
Ġmyster ious
ĠR emy
Ġg igg
Ġlo se
Ġcle ar
a ving
Ġad m
Ġ On
Ġm aybe
le br
S t
omet imes
oom y
Ġprin t
Ġre c
ar l
Ġce lebr
Ġta ught
Ġsp ent
Ġwh ale
Ġmix ed
Ġd izzy
Ġcr own
Ġmat ch
Ġjourn ey
Ġor d
Ġt ig
Ġr are
Ġas king
um e
Ġgl ass
Ġm ic
Ġp ump
Ġtow el
Ġforg ive
ust r
Ġmiss ing
Ġca ge
Ġorgan ized
Ġso ap
Ġr ough
Ġhug s
p ack
Ġte am
air s
Ġfind ing
n ot
Ġmo ving
Ġpo or
Ġfe et
ble s
Ġh ur
Ġl arge
ĠO llie
Ġno isy
Ġg ate
Ġballoon s
s er
o ot
ĠJ im
Ġsl ipped
Ġfr ustr
Ġn orm
Ġt ick
ĠR ed
p ort
Ġcan not
Ġst uff
Ġpr ay
Ġface s
a king
Ġtr ue
Ġsp end
Ġsn ee
ĠB un
ut e
ot e
Ġnorm al
Ġgl ue
Ġj ack
Ġcom es
Ġstra w
Ġof ten
Ġbor row
is p
Ġsplas hed
Ġjew el
or y
ad o
Ġba ld
Ġh unt
Ġr id
if f
Ġcom fortable
Ġbanan a
Ġcover ed
Ġbec ome
rag ile
Ġgen er
an ut
Ġsho ot
vent ually
i que
il t
Ġign or
Ġg uit
z ed
Ġa nts
Ġfrustr ated
Ġto ug
al ous
ĠB et
Ġmar ch
Ġm ir
Ġun ique
Ġje alous
Ġfl ag
Ġf ragile
ol og
un k
Ġjack et
r or
Ġn umber
a w
Ġbre ath
Ġnot e
Ġfe ed
on es
u nd
Ġm el
Ġtoug h
Ġap olog
Ġl amp
ĠWh y
ĠM ark
Ġash amed
Ġt ent
Ġguit ar
Ġwh isp
Ġ icy
Ġscar f
Ġc one
bb y
Ġde st
im p
Ġbo dy
Ġfeather s
Ġbo ot
Ġbat ter
Ġe ld
ĠC ome
A re
Ġspoil ed
al k
Ġinc red
ĠL isa
Ġperf orm
Ġex am
re ad
Ġmir ror
Ġdisco ver
Ġcreat ure
Ġsw ord
Ġstraw ber
Ġgener ous
Ġre sc
Ġbran ches
Ġsw an
Ġt er
Ġmov ie
Ġincred ible
Ġac orn
f ast
iss ors
and y
Ġbr ush
Ġbreak fast
y al
Ġyell ed
Ġtake s
Ġf ine
Ġd ig
Ġegg s
C ome
Ġsp read
Ġpe anut
Ġyour self
Ġboun ce
Ġth ick
f ic
Ġbu ilt
Ġun us
Tom my
Ġexplor ing
Ġeld erly
Ġle aving
Ġbal ance
Ġunus ual
Ġtom ato
Ġf ill
Ġdif fic
Ġwas hed
Ġt un
Ġf is
Ġfing er
c ient
Ġco st
Ġdiffic ult
l ight
Ġsc issors
Ġbath room
b in
Ġro ar
Ġbl oom
se lves
Ġter ri
Ġfr idge
Ġlo yal
Ġho pping
ĠH ow
c il
Ġc ross
Ġsug gest
ar n
Ġsol ve
Ġa dd
Ġd ough
Ġwa ves
Ġno d
Ġdri ving
Ġtig er
Ġca bin
S oon
Ġta pe
Ġpain ting
Ġpen cil
Ġk iss
Ġsh ore
Ġun l
Ġloud ly
Ġkick ed
Ġoff ered
L ila
Ġsh adow
Ġan cient
ro be
Ġthe se
l ph
Ġdo lph
Ġte le
Ġ ind
Ġhar m
Ġta ken
irp y
Ġuse ful
Ġwr ote
Ġseed s
Ġlo g
Ġclo ck
g round
d le
Ġdelic ate
mb re
Ġf at
Ġu mbre
Ġmight y
ĠA nn
ĠM olly
Ġs que
ĠJ ill
Ġy arn
Ġgigg led
Ġbe an
Ġpain ted
S ally
Ġme al
c c
Ġro de
Ġfl uffy
Ġstu bb
Ġw itch
Ġc or
Ġha m
D ad
Ġpump kin
k n
c orn
Ġwa gon
Ġde ad
Ġstubb orn
Ġbar n
Ġterri ble
Ġcl um
Ġmail box
Ġtr ack
as ing
ip op
ll ipop
ĠB e
Ġno sy
Ġbus hes
Ġe scape
Ġlo llipop
Ġbr idge
ur ing
Ġcomp et
Ġclum sy
Ġfri ght
Ġt ag
Ġst at
Ġpop corn
kn own
i pper
Ġb itter
Ġfi er
Ġp ir
Ġpack ed
Ġmark et
Ġus ing
Ġli br
Ġumbre lla
Ġme asure
Ġbubble s
ĠD on
Ġstu dy
Ġfier ce
Ġany way
Ġtri pped
Ġun known
ig hed
Ġcr ack
ĠL una
Ġoff ice
Ġf ool
Ġwa ke
ĠMr s
Ġwe al
Ġforg ave
y ing
Ġg ar
Ġdo ve
on y
Ġwa nder
Ġcra zy
r ay
ĠS ometimes
? âĢĿ
p es
ĠYou r
Ġscream ed
Ġkind ness
W here
Ġbor ed
Ġli cked
Ġd ull
Ġw is
Ġmean s
Ġfright ened
ed ient
Ġd ug
ĠW ith
Ġd epend
Ġr h
Ġsto ve
ill i
Ġdream ing
un g
f ted
ĠCh irpy
ĠC at
Ġre s
Ġc her
Ġwra p
er y
ĠI f
Ġbra ce
x ible
To gether
Ġfool ish
ur ous
Ġsc r
Ġob edient
Ġadvent urous
Ġwe ek
Ġbrace let
com fortable
l ies
Ġg as
ĠE ven
Ġre spec
Ġun comfortable
Ġcir cle
Ġpract iced
B illy
Ġsa uce
Ġpot ato
Ġcompet it
Ġgi ving
Ġj am
Ġgl oomy
l and
Ġstat ue
Ġpour ed
Ġrec ord
Ġweal thy
Ġfle xible
Ġre f
os ie
Ġwhe el
Ġcraw led
in al
ĠBob by
g u
Ġsleep ing
ic t
Ġnut s
Ġst age
Ġsafe ly
Ġdisapp eared
Ġch ar
Ġc orn
irst y
Ġfl ash
Ġtruck s
ĠF r
Ġrespec t
Ġru ined
Ġbo ard
Ġimp ress
co d
Ġbelong ed
ĠM ary
illi ant
Ġsal ad
Ġh oop
Ġor ig
ĠS t
ia ble
Ġt ank
Ġto ast
Ġsuccess ful
Ġbr illiant
a pped
orm ous
St op
Ġth irsty
Ġgo at
Ġc ere
Ġsun f
Ġbanan as
Ġg um
Ġsw e
Ġsmil ing
Ġen ormous
sh ion
Ġho se
ĠThe ir
Ġh orn
Ġtri ck
Ġsho e
Ġhair y
Ġkn ife
Ġorig inal
Ġc am
el p
Ġgra ndpa
ĠB ear
our s
Ġcoo king
Ġste al
Ġind epend
Ġtw ist
g ust
an y
Ġju icy
Ġh ay
Ġcr ane
co a
Ġbad ly
b led
Ġsh iver
Ġdis gust
Ġcro cod
Ġcere al
Ġis land
Ġdest ro
Ġsuggest ed
ink y
Ġcl ay
Ġche ap
Ġser ious
Ġgo es
Ġindepend ent
Ġgive s
Ġimpress ive
Ġrel iable
Ġa unt
m et
M e
us hed
Ġmo le
Ġp ant
Ġcount ed
is ted
o in
Ġhel met
Ġdepend able
Ġro se
at ter
Ġgra ce
al s
ĠG o
Ġan g
ĠP lease
Ġlove s
ag es
Ġdisgust ing
c les
Ġjo g
il ty
Ġmo der
Ġgu ilty
up id
Ġtra p
in ary
Ġli z
ĠP olly
Ġinv ited
l oo
Ġthought ful
Ġpen ny
Ġli fted
Ġco coa
Ġfor th
Ġra ven
ĠS m
Ġdolph in
Ġm id
ic hes
Ġsandw iches
Ġpar ade
Ġjo lly
Ġrel ax
Ġla b
Ġplay ful
ut h
Ġexc iting
Ġlo cked
Ġcrocod ile
ĠP e
Ġreg ular
Ġkn ight
an ger
Ġjoin ed
Ġr at
Ġsa f
ĠDo ggy
g y
Ġen v
Ġcor ner
up er
Ġmid dle
Ġdisapp oin
c ut
Ġpig e
Ġm ask
Ġw ip
Ġham mer
Ġst upid
Ġput s
Ġblue ber
Ġpri ze
Ġcam era
ĠSn ow
ĠMom o
Ġpop ular
Ġliz ard
Ġey e
Ġsque e
Ġcheer ful
Ġcl ap
Ġj et
Ġremind ed
Ġcray on
Ġgar age
Ġmoder n
Ġsail ed
Ġp il
Ġg oose
Ġf ountain
Ġear ly
Ġdel iver
in ess
Ġgr own
Ġso ck
Ġhurt s
Ġtun n
ht ub
Ġbat htub
Ġchar ming
Ġst amp
I f
Ġg ir
Ġdestro y
Ġto r
H elp
Ġpaw s
Ġsmall er
Ġch oose
aur ant
Ġg em
Ġbe et
H ow
Ġl ow
Ġrest aurant
Ġhunt er
Ġre p
Ġcart oon
h ost
Ġnow here
Ġretur ned
Ġcomp ut
Ġst ri
Ġneed s
Ġcomp ass
Ġmu sh
er able
Ġwar ned
at es
c ream
Ġbar ber
Ġfear ful
Ġp ian
Ġl ed
ĠAnd y
Ġdoes n
ĠR osie
Ġmis erable
Ġmag n
Ġcare less
ĠIn stead
Ġy et
Ġband age
Ġsay ing
Ġhum ble
Ġar row
Ġg host
Ġ er
Ġco ll
Ġspr ing
Ġsqu are
Ġf ig
Ġr ug
Ġtr uth
ĠB ird
Ġcoo ked
Ġpian o
Ġbu ll
Ġharm less
Ġpant s
Ġtr unk
Ġeag er
Ġlibr ary
Ġsunf lower
Ġt ied
Ġflash light
Ġmu ff
at ing
p s
Ġpe bble
Ġfor k
Ġansw ered
Ġs uper
Ġfil thy
an ged
t ime
Ġcre ate
Ġor der
ct op
i v
Ġwalk s
Ġr oof
ent ion
Ġdisappoin ted
op ter
in a
Ġmush room
ic opter
v ice
Ġtw irl
Ġdist ance
l ive
ig ator
Ġca se
Ġapolog ized
Ġstr anger
Ġwra pped
Ġz ip
Ġhel icopter
ol i
Ġbox es
it her
Ġcom b
Ġcomput er
Ġb ase
cc oli
ctop us
Ġtri es
Ġend ing
Ġbott om
ĠS ome
Ġje ep
Ġbeet le
ĠSm ith
Ġv ide
Ġgif ted
K itty
Ġso ar
Ġval ue
Ġpar rot
Ġan x
Ġtor n
ie f
re ady
at ch
Ġs ink
Ġwa ff
Ġwhisp ered
Ġen g
Ġord inary
Ġen c
Ġanx ious
am ond
Ġcraw l
Ġs il
Ġru bb
Ġdream ed
Ġqu ar
Ġgrace ful
Ġal ready
Ġpre p
Ġpast a
Ġcand le
Ġcompass ion
Ġtw ig
Ġpe pper
Ġto oth
Ġtrou bled
Ġany where
Ġhair cut
Ġmagn et
ĠBu zz
Ġo ctopus
ell ig
Ġdi amond
Ġall igator
Ġcry st
Ġcu be
Ġb icy
Ġfr own
Ġint ellig
Ġsand c
E very
at ure
Ġresc ue
Ġt ire
Ġbro ccoli
Ġfl ute
Ġk is
Ġsmo ke
Ġsk in
Ġde af
Ġtri cks
ĠFr eddy
Ġpers ist
Ġwal let
Ġm ill
ut es
i o
Ġco ins
Ġbe es
Ġway s
Ġplan et
Ġtime s
Ġenv ious
Ġcelebr ate
Ġl ying
j ect
Ġj ug
He re
Ġs end
Ġpick ing
ill a
m ost
ĠBet sy
Ġhelp less
Ġdecor ate
Ġpa le
ump et
Ġch anged
op ard
Ġpige on
Ġdes k
Ġrest less
Ġtr umpet
ĠM ama
Ġsc oot
Ġal most
Ġth ief
Ġc op
Ġsold ier
Ġmin utes
Ġatt ract
Ġintellig ent
Ġad vice
Ġst ream
o ld
Ġbutterf lies
Ġpersist ent
Ġt ax
Ġang el
Ġal ert
Ġl it
Ġquar rel
Ġen vel
Ġhar sh
Ġcompassion ate
Ġstrong er
at ient
Ġyour s
Ġv i
Ġmel on
Ġle an
Ġgu ess
a ff
Ġsc ale
Ġnot ice
Ġthin king
Ġbasket ball
Ġs le
Ġquest ion
Ġdes ign
n ight
u bby
Ġsc atter
Ġle opard
Ġbel t
Ġs ighed
Ġs uit
Ġboat s
Ġtunn el
Ġcri cket
Ġread ing
Ġca p
Ġtell ing
Ġm elt
Ġme at
Ġbed room
Ġcoll ar
op l
Ġlear ning
er opl
Ġstret ch
Wh o
Ġm ug
Ġattract ive
Ġhouse s
Ġp urse
Ġval u
c an
ĠT iny
Ġa eropl
Ġm ay
Ġt em
Ġn ail
Ġad or
Ġeng ine
Ġtax i
Ġexc ite
Ġri ce
Ġimp atient
Ġb ump
as ses
Ġv ol
ur b
Ġspe ed
Ġch ubby
Ġpo st
p et
Ġcryst al
Ġcompetit ive
Ġfig ure
Ġador able
Ġstand ing
Ġst ation
Ġca ct
Ġth ose
Ġav oc
ugg led
Ġfl our
Ġlo ad
Ġear th
Ġbicy cle
Ġru bbed
Ġkn ock
eb ra
Ġyog urt
cy cle
ol in
Ġpack age
Ġdist urb
Ġcar pet
Ġenjoy ing
Ġspe ak
as er
Ġbark ing
Ġsh ine
Ġswe ater
Ġc omet
her o
Ġenc ou
Ġth u
Ġp ow
Ġsuper hero
et e
Ġtra vel
Ġun cle
Ġla und
Ġsur f
Ġon ce
an gle
Ġlaund ry
Ġ U
Ġz ebra
Ġre ce
Ġbag s
Ġthre ad
Ġshe et
Ġlive ly
Ġthem selves
Ġd ust
Ġh ours
Ġignor ant
Ġun iver
Ġp ony
Ġenvel ope
Ġwhe els
Ġvalu able
The re
can o
Ġc urt
Ġrad io
Ġac ce
Ġtur key
Ġvi olin
Ġcurt ain
Ġgu ard
eb ook
Ġwhe at
Ġnot ebook
Ġsh ade
Ġent h
Ġcat s
Ġenth us
Ġa dded
b ul
Ġse al
Ġvol cano
Ġshr imp
Ġw ire
Ġpen gu
af fe
Ġcact us
Ġwip ed
Ġquest ions
Ġex t
ak y
Ġscre en
umb led
Ġsa us
Ġunl ock
d om
Ġsqu ash
de st
c ake
c u
Ġplay ground
Ġscoot er
Ġget s
Ġfire work
Ġear s
Ġhapp iness
Ġst ack
ĠA l
Ġhelp s
Ġgather ed
Ġmom s
Ġdraw ings
Ġph ot
Ġbeh ave
Ġboun ced
Ġretur n
Ġo at
Ġch irp
bul ance
Ġp ipe
Ġcom pl
Ġam bulance
Ġc amp
ach t
Ġ '
Ġy aw
a z
Ġdist ant
Ġte ars
Ġra ft
Ġch alk
Ġsle pt
Ġext ra
ub bles
Ġnice ly
Ġy acht
Ġar g
Ġtem p
Ġgir affe
Ġv et
Ġcom fort
Ġha lf
Ġdream s
Ġme adow
Ġspin ning
Ġb ul
Ġpract ice
Ġ 3
Ġmo dest
el ery
Ġin se
Ġpo em
is ion
Ġper m
Ġlight s
Ġv ine
Ġhelp er
ul if
in es
Ġn urse
ce ed
Ġtick et
Ġthank ful
Ġjelly fish
it o
ĠT r
Ġc ity
ac he
Ġkn ot
Ġfall ing
Ġer aser
Ġc elery
st ic
Ġca ulif
Ġcall ing
u be
ie w
ia stic
In side
Ġpir ate
Ġenthus iastic
qu ito
Ġmistake s
Ġswing ing
Ġfor ward
Ġrid ing
Ġlisten ing
Ġsh ut
Ġg or
Ġmotor cycle
Ġimp ro
Ġcow s
n am
Ġv iew
Sara h
Ġrep air
Ġsuc ceed
Ġcaulif lower
Ġmo s
Ġshow ing
Ġcu shion
ot ter
Ġtra sh
s ses
Ġaeropl ane
Ġste ak
Ġ otter
Ġencou ra
Ġbul b
Ġclimb ing
Ġ ing
Ġsupp ort
Ġbar rel
Ġo y
Ġg ust
red ient
Ġru b
Ġing redient
Ġpil ot
Ġh ook
Ġthu nder
Ġshap e
Ġmos quito
Ġscre w
Ġsp ell
st ri
Ġpe e
Ġboy s
Ġmess age
in ation
Ġe ventually
Ġput ting
Ġpoin t
Ġch asing
Ġsh ield
Ġsk ip
Ġtell s
Ġre ward
Ġmar ry
ag ed
l u
nam ent
Ġcost ume
Ġt ube
let e
Ġcarry ing
Ġch ain
Ġtool s
Ġb in
Ġpe ach
S orry
Ġsp un
Ġspl it
Ġhot el
Ġpretend ing
Ġdi ary
l ier
Ġatt ic
Ġtri angle
Ġt roph
Ġcl ub
Ġdis hes
Ġbase ball
Ġcomp lete
Ġst ones
ar ian
Ġf our
Ġpol ish
Ġorgan ize
Ġor nament
Ġun pack
Ġro d
ter n
Ġinse ct
a id
gg ing
e er
Ġshell s
Ġw ife
Ġneed le
Ġm op
h ip
a zz
Ġh ipp
Ġeat en
Ġgor illa
W ell
Ġfall en
p ar
ail able
Ġear lier
a ppy
Ġexcite ment
Ġtr ay
Ġfold er
Ġsn iff
Ġg ro
Ġr ag
Ġfoot ball
Ġm ild
Ġit ch
Ġmet al
Ġinc lu
se um
Ġob ject
Ġn ature
ess ert
Ġtroph y
Ġse par
ut ty
Ġav ailable
Ġhat s
v ator
Ġspark ly
Ġmu seum
Ġd essert
Ġr ushed
Ġgr owl
stri ch
Ġele vator
Ġrubb er
Ġfor t
ĠB ubbles
Ġgra pes
Ġme m
Ġfriends hip
Ġhard er
Ġpat ch
Ġd eter
Ġhang ing
G ra
Ġfle a
Ġu r
Ġdraw er
Ġle ash
Ġingredient s
Ġpudd les
Ġmin t
Ġgl ove
Ġp it
ur ch
Ġshould n
Ġon ion
ĠR ose
Ġdeter m
Q u
Ġher b
Ġrh in
Ġst airs
Ġs ize
Ġgo lf
ri c
T weet
Ġboot s
Ġse as
bo dy
ĠP ete
Ġpo le
Ġe ither
ch air
Ġhear s
Ġk ay
Ġd ive
Ġmonkey s
ĠR ex
Ġit self
ind eer
Ġhipp o
f fe
Ġra ced
ffe e
w e
se ek
Ġba king
Ġche ss
Ġfil m
Ġl end
ĠM any
Ġcup board
Ġyog a
oc er
ĠJim my
Ġgrow ing
Ġhe dge
Ġin k
Ġp un
Ġch urch
Ġwall s
Ġc ries
Ġarm chair
Ġglow ing
Ġsurpr ises
Ġstrawber ry
Ġsquirrel s
Ġre indeer
Ġjourn al
Ġf u
Ġhand le
Ġju dge
Ġfr ame
ke let
ĠW ill
ir it
re ssed
Ġpat tern
pl ay
ocer os
Ġc udd
ĠE lla
Ġpo pped
Ġvide o
Ġma ze
Ġpr un
g l
Ġve st
Ġact ually
Ġmic roph
Ġmu le
Ġbig gest
Ġair port
Ġl ime
Ġgro cer
Ġp or
Ġso c
Ġco ffee
Ġve nd
Ġavoc ado
Ġsoc cer
Ġin s
re e
Ġshow s
Ġst umbled
Ġkis sed
Ġh ive
Ġmicroph one
Ġsal t
ie st
Ġdis play
ir on
Ġfre sh
Ġrhin oceros
Ġt ask
p ed
Ġcount ing
Ġs kelet
Ġpengu in
Ġimp ressed
ĠL ater
gl asses
Ġsun glasses
cake s
Ġoy ster
om es
Ġco al
Ġmag az
Ġres ist
Ġsk ipped
Ġloud er
Ġqu it
Ġvend or
Ġhur ry
Ġre pe
ug ged
en ny
Ġfree z
a stle
Ġfa ctor
Ġdec ide
Ġsound ed
Ġm ath
Ġfactor y
Ġo strich
g en
Ġfire man
Ġsandc astle
Ġche cked
Ġdiscover ed
The ir
Ġc ord
Ġw ool
Ġs ight
ĠN utty
Ġob ser
Ġdro p
Ġkay ak
Ġskelet on
Ġr ot
w eb
g n
Ġrad ish
Ġmed al
Ġmix er
le y
pl ace
Ġstuff ed
ation s
Ġp and
z zy
Ġpow der
Ġset t
Ġre co
Ġsail or
Ġco b
ck ey
Ġho ckey
Ġca ble
Ġs y
he ad
ig gle
Ġtow ers
Ġcraw ling
Ġlight ning
Ġmat t
Ġmake up
Ġsk irt
Ġsk ull
Ġnod s
Ġpe ar
ch an
Thank s
ar oo
ang aroo
Ġsp ear
Ġcard board
Ġpo ke
Ġpro v
Ġgra nd
r on
Ġro ot
Ġpor ch
as her
Ġwe ather
Ġcool er
Ġlot ion
Ġz ipper
Ġhun g
Ġve il
Ġcob web
l ter
Ġre ver
J im
ic er
Ġbatter y
Ġaccident s
ur ed
umb ers
Ġfire place
Ġblueber ries
w asher
Ġexcited ly
Ġshe lter
Ġt ut
il ing
Ġsp irit
Ġfix ing
Ġ No
Ġmatt ress
Ġfis her
ke ep
n ey
Ġbu ry
Ġs ub
Ġst aff
ro sc
Ġspot ted
n ger
uc et
Ġfa ucet
Ġk angaroo
Ġbutt ons
ar ry
ĠTr ue
y e
Ġdish washer
Ġre fused
ed y
Ġh omes
F l
Ġp ine
Ġ ig
Ġig loo
rosc ope
es day
Ġg ear
chan ic
Ġloo p
Ġnap kin
Ġwe ep
ist ol
Ġpoin ting
Ġreco gn
Ġman aged
ĠSnow y
ex t
Ġhop ing
Ġa x
Ġsw ung
Ġcabin et
Ġmusic ian
Ġgr ill
Ġp istol
Ġr ise
Ġmuff in
Ġimag ine
y m
Ġme chanic
Ġla ser
Ġair pl
ĠSp ike
Ġcher ries
Ġta p
im ney
M um
Ġagain st
Ġtele ph
Ġch imney
Ġbre at
Ġgo al
Ġshr ink
Ġte ar
Ġn umbers
e f
Ġfisher man
Ġwis hes
Ġw ipe
Ġdeterm ined
Ġdis ag
Ġax e
Ġtemp le
Ġnew sp
Ġbear s
Ġteleph one
Ġ ed
Ġha ll
ĠF o
Ġar t
Ġsnee ze
Ġpare nt
Ġa ut
Ġo ak
Ġfl ame
ĠP eter
Ġkeep ing
Ġg ym
Y ay
Ġphot o
c ase
Ġsn e
in king
or ted
M ama
Ġcan e
Ġsun set
Ġmic roscope
O uch
st airs
Ġpre vent
Ġan ch
Ġtorn ado
Ġbl ouse
Ġadm ired
Ġp al
Ġwin ter
Ġre sp
Ġpast ry
Ġjoke s
Ġo il
Ġfast est
Ġbur n
Ġblack board
Ġroll ing
en se
Ġsil ver
Ġsh ort
Ġpain ter
Ġb ill
Ġfreez er
Ġpee ked
Ġbooks he
Ġwar d
ĠL ook
Ġpass port
Ġdan cer
keep er
Ġward robe
Ġanch or
Ġpal ace
il et
Ġpand a
ĠF ro
Ġsw itch
h ouse
Ġsw amp
Ġbookshe lf
Ġslid es
Ġback pack
er c
Ġmar ble
Ġmiss ile
Ġmin er
Ġ iron
Ġto ilet
l au
Ġsub way
Ġplan ned
Ġimpro ve
Ġbath robe
Ġcir cles
om ob
Ġrain ed
a ced
Ġwe igh
amp oo
Ġaut omob
Ġtut or
ugg ling
Ġsh ocked
Ġre ef
iv al
Ġso il
Ġsad ly
Ġfing ers
ĠSp ark
Ġch oice
Ġca st
Ġde ar
ĠTo day
Ġbook case
Ġpick s
s hed
Ġmagaz ine
S ee
Ġo live
Ġex erc
Ġcompl ain
t e
Ġme owed
Ġfo g
M olly
Ġri bb
Ġdisapp ear
an ny
Ġspo ke
i ence
re nder
v ision
Ġsh ampoo
E m
Ġcre ek
le nd
Ġt en
Ġce iling
Ġs uff
Ġperf ume
ar m
Ġsa ving
Ġexpl ain
ang u
D id
ĠS h
Ġnewsp aper
h ic
Ġthe ater
Ġve hic
Ġall owed
Ġtele vision
Ġl angu
Ġstar ting
Ġm en
ht ray
Ġtra il
Ġop era
Ġfe st
M r
ĠJen ny
Ġbat he
Ġsh aking
ro d
ate ly
Ġstir red
ict ion
Ġne at
Ġt una
Ġhapp ier
Ġdel ight
Ġr ake
Ġfu el
Ġint rod
ap ers
Ġf ile
iction ary
Ġprep are
Ġtall er
Ġh ut
Ġsn uggled
Ġra z
Ġimag ined
Ġmeet ing
Ġas htray
Ġbird c
Ġcont ent
uck ily
Ġdra in
Ġsepar ate
Ġletter s
Ġcup s
Ġlet ting
Ġbirdc age
m end
Ġcri b
Ġshow er
mb ol
Ġbee f
Ġjewel ry
ĠJ ake
com mend
Ġreg ret
Dad dy
as is
Ġser ve
Ġre commend
Ġsy mbol
Ġc ards
Ġme as
Ġha nger
Ġrem ove
Ġre ve
Ġmust ache
Ġte ase
Ġno vel
if orm
Ġdel ay
Ġlaw y
le ased
Ġca lend
Ġun iform
Ġeas ily
Ġed ge
Bob o
Ġd ictionary
Ġch ance
Ġstrawber ries
Ġsaus age
Ġf ather
Ġwas hing
Ġno body
Ġreve al
Ġo asis
Ġrain ing
Ġlion s
ĠR ob
Ġautomob ile
ess ie
Ġproblem s
ma nd
Ġcalend ar
Ġwaff le
ĠM iss
Ġlemon ade
Ġvis ited
Ġtrain s
Ġm itten
Ġtrust ed
Ġfest ival
eter in
eterin arian
Ġfis hing
Ġknow s
Ġv eterinarian
ĠA re
Ġy ield
Ġatt ach
Ġmar ched
x y
Ġraz or
Ġairpl ane
Ġro ared
Ġrever se
Ġso cks
Ġlawy er
Ġst om
Ġbelong s
Ġpin ch
Ġstick ers
Ġc ell
Ġpan ic
Ġchick ens
Ġsur render
Ġclass room
n it
Ġs ent
Ġacce pt
Ġwindow s
ĠC arl
Fl uffy
as p
Ġinv ite
Ġdre sses
Ġcl iff
Ġbill board
Ġlaw n
nit ure
Ġins isted
Ġdis cu
a it
Ġt ub
Ġcreature s
J ane
Ġsearch ing
Ġfur niture
Ġflo at
Ġcollect ion
G o
Qu ack
Ġplay er
Ġstr uggling
Ġjun k
Ġtr ade
ĠS unny
Ġsand box
Ġpa ir
Ġsnee zed
Ġrepl ace
Ġal arm
Ġho les
Ġblow ing
Ġpre ssed
Ġwh ip
Ġli e
Ġf ive
Ġbu ried
ri ger
riger ator
lau d
G ive
ĠP andy
Ġl umber
Ġref rigerator
Ġp apers
Ġstar ed
n ce
ĠP ipp
i um
Ġcon f
Ġcount ry
Ġwas te
Ġsupp ly
Ġhum an
Ġqu iz
Ġmo d
Ġkn ob
Ġpatient ly
Ġhand ed
ĠW ould
Ġp ed
ac hes
ul u
Ġstep s
B ye
Ġfl a
et ch
Ġspray ed
Ġd uring
Ġap ron
Ġfire f
Ġsn ap
ĠS que
s on
Ġperfect ly
Ġst able
Ġra il
re c
Ġru les
Ġdiffere nce
Ġab ove
Ġc ur
Ġapp laud
Ġarg ue
Ġlangu age
ĠP oppy
Ġch ose
ĠDo lly
Ġli c
ig i
w ards
ĠFl oppy
Ġy ucky
Ġdestroy ed
Ġs on
Ġinc re
Ġbike s
ĠPe ople
asp oon
ĠO K
Ġb et
que st
Ġfeel ings
Ġign ore
R e
You r
Ġadm ire
Ġp age
Ġde mand
Ġsee ing
Ġstret ched
Ġre quest
ast ic
Ġte aspoon
is on
Ġbur ned
ĠGra ndpa
Ġresp ons
Ġbump ed
Ġshould er
Ġpe ek
ay s
Ġhapp ens
rec i
ip s
Ġh ate
Ġpo ked
Ġapp reci
Ġg a
Ġlic ense
Ġbuck le
e or
Ġmar bles
Ġthrow ing
A l
Ġun ite
Ġlean ed
Ġnew s
Ġend ed
h ood
um mer
Ġcar ed
Ġvehic le
Ġfall s
in ked
Ġba ked
ad ly
c ted
ad ium
I s
Ġproud ly
Ġst adium
ang es
Ġf ought
Ġin f
Ġv ac
W ait
Ġwe ap
Ġrest ore
Ġa head
Ġran ch
Ġd igg
Ġscr atch
Ġsp ade
ve st
Ġdigg ing
Ġb erry
Ġm all
Ġmod el
ec ause
Ġmyster y
ĠB a
Ġca pt
ar i
Ġsuff er
ric ane
us ie
Ġcar ing
Ġval ley
eor ge
C h
Ġkn own
Ġj ail
ĠH oppy
ugg age
Ġw ine
Ġex pec
ĠP ip
Ġlaugh s
ĠZ oom
Ġminer al
Ġwin ning
Ġbl inked
m m
ĠHe re
Ġs ummer
Ġsk ill
Ġl uggage
z ag
ĠL ulu
Ġwater ed
r ise
Ġf etch
Ġcount er
Ġm ention
Ġwor th
ĠL ittle
Ġgu y
Ġfield s
Ġprot ec
el come
Ġfl ood
Ġsh one
Ġatt ention
ig zag
Ġold er
ar ing
Ġsun rise
Ġpl astic
Ġbrother s
Ġprov ide
c us
uc ture
Ġtwirl ed
Ġstr ucture
Sam my
Ġgra pe
em ember
Ġra ise
, âĢĿ
M ittens
Ġhar bor
Ġent er
Ġrabbit s
Ġquiet ly
ĠBird y
Ġhur ricane
n oon
Ġafter noon
Ġsquee ze
Ġpo ppy
ĠG ive
Ġshr ugged
Ġse w
Ġkne el
?" .
ĠT ed
Ġp ort
Gra ndma
Ġmy self
Ġeven ing
Ġp ages
d ing
ĠW here
am ber
Ġclose ly
Ġcartoon s
s ity
Ġth umb
Ġd aisy
Ġpro p
rm omet
Ġexerc ise
a ked
uc t
Ġzoom ed
Ġin vest
Ġshiver ing
Ġacorn s
Ġplan es
ĠJo ey
rmomet er
Ġinvest ig
ob y
Ġkind s
i pping
ĠG igi
ĠR u
Ġbreat he
Ġvac ation
Ġcapt ain
Ġoat s
Ġwar n
Ġch amber
ĠM um
i ved
em ent
Ġhor ses
Ġinvestig ate
Ġsquee zed
Ġribb on
Ġpeanut s
Ġle ak
Ġto ur
E x
Ġto e
Ġimag ination
Ġste am
Ġmat ches
Ġbelie ved
Ġhurt ing
v et
qu ake
ic orn
Ġsplas hing
ĠC o
Ġsail ing
le st
Ġmen u
Ġun icorn
Ġthe rmometer
Ġsniff ed
Ġcla w
ĠSque aky
l id
Ġencoura ged
th ank
Ġexpec t
Ġsl ipper
Ġearth quake
Ġe vent
Ġe qu
Ġroom s
Ġslipper y
oop ed
ĠU n
Ġdiscu ss
Ġho lid
Ġoff icer
Ġfirework s
Ġspend ing
Ġp ad
Ġma ss
Ġexam ine
Ġcom f
Ġ Quack
Ġspark led
Ġuniver se
Ġpl aced
Ġup stairs
ĠJohn son
Ġpan cakes
Ġchirp ed
Ġnam es
Ġor anges
Ġbeaut y
Ġbean s
up s
l ow
Ġpo ison
Ġsp ort
Ġr ow
et y
ĠB essie
Ġsell ing
Ġsort s
Ġbri ck
Ġfree ze
Ġtreasure s
Ġstu d
Ġsc ore
Ġen er
J ill
Ġfl apped
Ġinv it
Ġf ut
Ġsaf ari
Ġpa id
Ġfut ure
Ġsc old
Ġspr ink
Ġcol our
Ġo k
Ġchair s
Ġweap on
Jim my
Ġrepe at
Ġfla vor
' d
Ġfrog s
ick ey
ĠT ina
at ched
Ġwa g
ĠPipp in
Ġa w
Ġagre e
r ing
Ġsho vel
Ġl id
Ġbe ep
arl ie
Ġinf ant
Ġ x
ĠB inky
Ġwa ving
Ġrece ived
ic ing
Ġstick er
Ġsaf ety
Ġtal ent
m ble
Ġoff er
Ġt ip
Ġ ow
Ġstom ach
Ġfollow ing
Ġto re
Ġpu p
Ġholid ay
b oo
Ġcher ry
Ġop ens
Ġv room
Ġpray ed
Ġtre mble
ĠBet ty
Ġg ain
B un
Ġuniver sity
Ġneighbor hood
Ġgi ven
ugg les
Ġpl ates
f a
Ġpig s
Ġlab el
Ġsh ot
Ġsett le
ĠH arry
Ġthank s
Ġwor se
i k
Ġplan ted
Ġn avy
Ġexplor ed
Ġreal ised
Ġrece ive
Ġyaw ned
a h
ĠBu zzy
Ġgas ped
Ġcand les
Ġp ur
ĠO w
Ġstop s
Ġdoor s
Ġbu zz
ĠL ucky
Ġgrocer y
Ġpus hing
ip ment
ĠS und
ĠHe l
Ġb other
ch ie
Ġvan ished
Ġord ered
Ġap art
Ġequ ipment
Ġj azz
Ġdr inking
Ġrespect ful
Ġco pper
g es
ĠZ ip
Ġcut ting
Ġhold s
Ġsome where
Ġignor ed
Ġwr iting
ss ible
Ġran g
Ġal ive
Ġclaw s
ug gle
O w
y th
Ġobser ve
Ġcake s
Ġur ge
ĠP inky
Ġscatter ed
Ġtw isted
yth m
Ġwar ning
Ġshoot ing
Ġcatch ing
Ġli ves
Ġbra in
ĠB oun
op h
Ġboun cing
Ġw re
Ġstick y
ĠEvery where
Ġt ide
Ġm ummy
Ġso fa
Ġcra shed
ĠSn uggles
Ġsl ip
in ce
Jo e
Ġspot s
Ġd are
Ġrh ythm
m en
Ġpun ish
Ġener gy
Ġop er
loo king
Ġstre ng
Ġsmell s
Ġmar ried
m are
Ġmin ute
Ġskill s
Ġjump s
D aisy
Ġso ak
ĠC l
Ġstreng th
ĠG eorge
Ġbri cks
Ġforgot ten
st ers
Ġall ow
Ġbright er
Ġmass age
Ġdress ed
Ġp alm
Ġin st
Ġwaff les
sh ip
we en
M mm
Ġapp ear
Ġbet ween
ff ic
Ġto night
Ġprin ter
Every one
Ġfrown ed
Ġst y
Ġjew els
Ġal i
Ġcro ssed
Ġste el
B ecause
m ed
Em ma
ec ture
er o
Ġnight mare
ĠS usie
Ġcla pping
i b
Ġl ecture
Ġre lease
ĠM ickey
Ġcir cus
Ġb ak
Ġtra ffic
M ummy
Ġher s
Ġmail man
Ġteach ing
Ġwander ed
Ġrem ain
Ġle ather
ore s
Ġhis t
Ġpir ates
s it
Ġpart s
Ġtra pped
Ġli p
Ġhist ory
L ittle
Ġappreci ate
ĠK im
xy gen
ĠT oby
Ġtomato es
Ġperm it
Ġrespons ible
Ġprun e
ĠM ar
Ġyaw n
ang ers
Ġg iggle
w alk
Ġru sh
Ġbright ly
ĠFin n
Ġstr angers
n ies
Ġpast el
Ġwe ight
!" .
Ġoper ation
ut ter
Ġpotato es
Ġinclu de
Ġworm s
Ġchew ed
Ġwa gging
is ing
Ġdisag re
Ġjo gged
Ġside walk
Ġcolle cted
om ed
Ġent ered
or ies
ĠH oot
Ġunder ground
Ġwe b
is hing
Ġlem ons
Ġp leased
Ġcast les
Ġsec ond
ĠBlue y
Ġjo gging
un ately
ĠE ventually
Ġbe nd
Ġking dom
Ġch ores
Ġpresent s
Ġpri ce
Ġstri p
Ġwis dom
Ġl uck
Ġflo ating
Ġboun cy
D ays
all ow
T eddy
Ġscold ed
Ġn ation
Ġexp er
Ġblueber ry
Ġincre ase
Ġk itty
ĠHel p
Ġbreak s
ĠG r
Ġstart s
Ġmarch ing
Ġche ek
Ġhe at
Ġsol ved
Ġdeep er
Ġsnow ball
Ġfold ed
Ġtrack s
The se
Ġgrowl ed
D ucky
ag ull
Ġelephant s
Ġwel com
Ġsoft ly
Ġm ice
Ġem er
Ġman age
Ġb ent
Ġbur row
Ġnet work
s ing
Ġgl o
Ġspace ship
Ġra cing
Ġinvit ation
W elcome
Ġpuzz les
Ġ Y
Ġsl ice
Ġblanket s
A ll
' ve
Ġpet ted
Ġmeas ured
Ġd ared
Ġmem ory
Ġbu dge
omed ay
v our
Ġintrod uce
Ġse agull
Ġs ip
b ug
Ġsp ill
Ġmem ories
Ġglo ves
B lue
ĠCh arlie
ĠSund ay
ed n
edn esday
Ġun h
Ġencoura ge
Ġmove s
u se
Ġped al
ol a
ĠN ext
Ġbe gged
W ill
Ġapp ro
es sed
Ġs omeday
Ġhad n
Ġs imp
he ll
Ġbel ow
Ġwre ck
i ers
ik i
d ed
Ġpull ing
Ġstra ight
Ġfa vour
Ġfind s
e ster
Ġmention ed
fort unately
Ġpet als
iss ion
Ġsn ail
Y uck
Ġcollect ing
Ġhead s
Ġo xygen
Ġunl ocked
Ġweek s
ester day
o ved
ĠS adly
Ġdisagre ed
Ġqu ack
ĠW ednesday
Ġperm ission
Ġshout ing
Ġra ised
Ġseas hell
Ġpret t
Ġsto le
Ġfavour ite
N ot
Ġsp ike
Ġrest ed
Ġp itch
Be fore
Ġz igzag
Ġunh appy
Ġolive s
ĠL ee
Ġdoctor s
ĠS pe
Ġany time
Ġb ones
ĠOw l
Ġve l
Ġmuff ins
Ġfood s
Ġrem ained
Ġbre aking
Ġ V
Ġvel vet
ra ge
Ġgre edy
Ġrecogn ize
Ġfl ies
Ġlady bug
Ġb oo
Ġsold iers
Ġis n
Ġd ried
Ġhill s
Ġflo ated
Ġfiref ight
D uring
ĠO live
Ġeas ier
Ġland scape
Ġe scap
Ġcou rage
Ġpe ars
le x
um ble
ĠFro ggy
Ġte asing
Ġrest ing
Ġf urt
ĠB ow
L uckily
E llie
uck ed
Ġsucceed ed
Ġguy s
Ġprin ted
or ed
Ġpract icing
dd y
Ġd ied
Ġour selves
ĠSpark y
Ġshout s
Ġm ama
Ġs udden
Ġsty le
Ġs ir
Ġcra sh
u esday
Ġstri ke
Ġatt ached
Ġga zed
Ġhe el
Tweet y
Ġfurt her
a b
Ġl ily
ĠH op
Ġcand ies
Ġcomp any
Ġpo ssible
Y um
id es
Ġwhist led
. .
Ġbal an
Ġpun ished
ĠT uesday
Ġw ob
Ġwelcom ed
e ep
Ġprun es
N ext
u ry
Ġheart s
Ġsl ap
Ġdrink s
Ġcu b
Ġur ged
Ġpe aches
Ġwhisp er
ĠM ike
ĠCo co
igg ly
ĠJ azz
Ġm ittens
Ġtra ve
ut ion
Ġlaug ht
Ġmus cles
Ġlaught er
Ġmu ddy
ĠL illy
Ġsn apped
p ted
Ġprop erly
Ġgrab s
ĠH ave
Ġsur round
iz ing
N emo
Ġgrocer ies
Ġrecogn ized
ĠC ra
is hes
Ġseat s
ĠR a
Ġpin ched
Ġmix ing
Ġdemand ed
ĠGo d
o sed
e ze
Ġacce pted
Ġ âĢ
Ġemer gen
Ġwa ist
W ould
S h
Ġli ck
a ul
Ġdelight ed
Ġpoint s
Ġpre ss
Ġca pe
ig ned
an ted
Ġdog gy
Ġescap ed
Ġfa shion
ĠB ill
Ġsit u
Ġto ng
ĠSpe edy
oph ie
Ġreveal ed
Ġex it
Ġpull s
Ġs igh
Ġla id
Ġbl ink
Ġseas on
Ġhe sit
ĠB ig
Ġb le
he st
Ġh on
Ġst itch
Ġt ug
Ġgr ant
Ġl ung
a ct
ĠCh ick
am b
Ġst air
Ġdecor ations
Ġp au
Ġmel ted
Ġme ow
Ġim age
M ary
Ġsprink les
Good bye
Ġchew ing
Ġali en
Ġbark s
u x
Ġg ained
ĠFin ny
Ġshake s
Ġpillow s
Ġset ting
Ġcudd led
Ġstr uggled
Ġsho pping
Ġstr uck
Ġgr anted
Ġpig gy
ri age
Ġsl apped
Ġp ies
Ġstr uggle
Ġcolour ful
Ġtast es
ĠS ee
Ġbring ing
ĠD id
Ġbr ings
Ġref re
Ġpau sed
ĠAl ice
Ġtur ning
Ġwait er
Ġsimp le
Ġcont est
Ġbur ning
Ġspid ers
Ġprotec ted
ĠP at
Ġl ux
Ġbre eze
Re ady
Ġide as
Ġfl ap
Ġkey s
Ġring ing
Ġsupp osed
Ġcre ated
Ġo h
Ġz ipped
Ġcr ow
Ġpet s
Ġto es
Ġrid es
Ġchirp ing
Ġpus hes
Ġop in
Ġwe st
E w
ĠI s
Ġpup il
ĠK iki
Ġdro ps
ang led
ĠS qu
Ġemergen cy
cu se
Ġcoat s
en ry
Ġw iggle
Ġch ips
Ġtong ue
Ġslid ing
W ith
Ġfl at
ĠE nd
Ġgold en
ĠO r
ict ory
it es
Ex cuse
Ġdisag ree
Ġherb s
Ġdisturb ed
ĠFo x
Ġinst r
Ġapolog ize
Ġpe arl
iz es
Ġsol ution
Ġsaus ages
Ġbrave ly
ĠG ood
ĠHow ever
Ġappro ached
joy ed
Ġcelebr ated
Ġover joyed
Ġmov ies
Ġp ause
Ġgu essed
Ġag o
Ġsing er
b ies
Ġmon sters
Ġsteal ing
Ġcamp ing
Ġri pped
Ġvan ish
Ġshould ers
Ġsc oop
Ġlux ury
bb a
a pping
Ġsort ing
o e
k ins
Ġscar ing
B uddy
Ġwin ner
Ġstud ied
Ġresc ued
ĠD ave
Ġprep ared
in o
Ġgot ten
re en
um es
ĠWh o
R emember
Ġgift s
Ġeag erly
Ġstudy ing
Ġexper ience
Ġrad ishes
ĠBoun ce
Ġsk ipping
Ġpe el
Ġac ted
Ġsign s
Ġpass ing
ap a
Ġsw ooped
Ġba bies
ĠT una
Ġmountain s
Ġscr atched
L isa
y ear
Ġcont ro
Ġmar riage
ide y
Ġa chie
he art
Ġne ct
Ġdinosaur s
ct ion
Ġnect ar
Ġthrow s
Ġcost umes
ĠU nder
S ometimes
Ġv ictory
Ġin ch
Ġte x
Ġtex ture
ed ding
ĠB l
Ġble ed
Ġf ed
Ġstamp s
Ġbloom ed
Ġnail s
Ġfam il
ĠP enny
Ġr ul
Ġshop keeper
ĠGra ce
ĠAl ways
ast les
Ġcontin ue
ĠZ oomy
Ġneighbor s
To day
Ġres ult
igg y
Ġsandc astles
ĠWhen ever
M ark
ĠSh aring
Ġtre mb
Ġfro sting
Ġeag le
Ġweep ing
Ġwhist ling
W oof
ĠB ee
Ġcup cakes
Ġe ast
i ppy
Ġs orted
Ġn one
Ġzoo keeper
Ġloo se
Ġbr us
Ġpur red
r in
e ath
Ġz ero
Ġsweet heart
Ġrelax ed
Ġreal ize
u d
Ġmark ers
Ġd ire
Ġcontro l
Ġbra nd
Ġtouch ing
A nn
Ġqu ite
Al ice
ust y
Ġb ank
Ġcr umb
Ġcomf orted
n a
Ġw edding
Ġmagic ian
ĠL ola
Ġneigh b
Ġsett led
Ġcomp le
ĠM ummy
Ġdecor ated
Ġwe ighed
is ty
Ġbuzz ing
Ġtwig s
Ġdra g
ĠM andy
ĠRob by
Ġimport ance
ĠS k
Ġunderstand ing
Ġsne ak
Ġvide os
Ġcall s
ĠA lex
ĠR o
ĠT w
Ġb unch
Ġwork er
ĠEvery thing
Ġintrod uc
Ġb un
Ġsh ined
ĠBa a
ch oo
Ġrecord ed
ĠUn cle
ĠD ory
Ġcon es
ara way
Ġs izes
Ġmat ched
Ġbro om
Ġf araway
Ġamaz ement
ĠK eep
ĠCh r
Ġpart ies
Ġwere n
Ġfl utter
ri end
Ġt ucked
Ġwant ing
ink le
ĠZ ara
Ġthre at
Ġact ing
Ġhome work
ĠBu bba
g ing
ĠFo llow
Ġpaint s
me al
Ġcompetit ion
Ġtick le
Ġa ff
Ġso re
Ġmach ines
Ġpour ing
Ġmelt ing
S urpr
Ġlollipop s
Ġyou th
B ella
Ġoat meal
John ny
Ġd ent
Ġbuild ings
Ġorgan izing
Ġregret ted
Ġkis ses
ĠSp idey
J enny
Ġmeas uring
z ing
Ġso aked
Ġbl ood
Ġlear nt
Ġact ions
Ġcudd le
ill ie
ĠT illy
Ġgun s
Ġplay s
Ġex pected
ĠRa bbit
d o
ĠDo g
ad ed
B u
r r
Ġl ined
Ġnap s
Ġtun e
all en
Ġbun nies
Ġhat ed
Ġrem oved
Ġroot s
Ġsil ence
Ġch allen
ĠS ophie
Ġcurtain s
Wh iskers
Ġwhere ver
H appy
ĠE lly
Ġhead ed
ĠThe se
ĠD anny
Ġadm ir
Ġbow ed
Ġfollow s
Ġser ved
ĠD an
Ġso ared
M imi
Ġkick ing
ĠSqu irrel
ent s
Ġtw isty
Ġconf l
g ers
co at
Ġown ed
Ġyell ing
ĠRu by
g ie
ĠSome one
Ġwag s
ri ght
Ġembarra ss
Ġbe at
Ġrain coat
Ġhop es
Ġsitu ation
Ġsne aky
Ġpattern s
Ġcon cer
Ġshe d
Ġli ps
Ġconfl ict
Ġl ines
Ġdest ination
Surpr ise
ĠR ock
ĠS u
Ġstay ing
Ġh i
Ġtree house
Ġrul er
ĠâĢ ĵ
Ġcre ation
ĠQuack ers
Ġt angled
Ġarg ued
Ġpast ries
F red
ĠBe fore
Ġd am
Ġlo sing
Ġp ra
Ġstir ring
ĠP aul
Ġspoon s
Ġac he
iz ard
Ċ Ġ
Ġche f
Ġplay time
Me ow
Ġarri ve
Ġopin ion
Ġpu pp
Ġare n
Ġstar ing
ant a
Ġpaint ings
Tweet ie
Ġintroduc ed
Ġby e
S p
Ġrepe ated
Ġno on
z en
Ġrefre shed
Ġre leased
Ġb ang
Ġobser ved
Ġdec ision
t her
Ġbit es
p lease
m other
Ġour s
Ġheal ed
ĠR emember
Ġgirl s
Ġseem s
j am
ĠP apa
Ġdrag ons
Ġkeep s
Ġkneel ed
Ġbr ushed
Ġcr unch
Ġforg i
Ġte ased
if i
Ġran ger
ant ly
st ed
re at
Ġb umpy
Em ily
Ġcrumb s
Ġfold ing
Ġfro zen
ĠBa by
an es
Ġprint s
Re ally
Ġstri pes
Ġs ince
Ġfire men
v a
Ġwork ers
Ġsh ock
Ġli cks
Ġatt ack
Y ummy
Ġbe lly
Ġw izard
a ved
Ġw igg
ĠAnn ie
Ġhur ried
Ġshadow s
Ġneighb our
L eo
E ventually
ĠA n
Ġgr in
Ġfe ars
Ġru in
Ġpil es
Ġduck ling
Ġfirefight ers
Ġcomple ted
Ġpot ion
e ve
Ġcrack ed
Ġwarm th
Ġwork s
Ġzoom ing
Ġbak ery
ĠS anta
F r
Ġapplaud ed
Ġgood night
jam as
" ,
Ġglow ed
Ġca used
Ġkind ly
Ġansw ers
Ġre aches
Ġprotec ting
ĠGr anny
Ġdent ist
Ġplanet s
Ġmot ion
ur ry
ĠH enry
e ah
Ġsecret s
ong o
or al
Ġn icer
i ately
Ġbuy ing
Ġcomf y
Ġrequest ed
Ġpa jamas
R emy
Ġtw in
Ġs ix
Ġprince sses
l en
Ġachie ve
Ġare a
ĠChr ist
Ġbath s
Ġpr ide
m as
Ġadmir ing
Ġart ist
Ġbed time
Ġsp it
Ġrec ipe
Ġlibr arian
Ġpoem s
Ġdolph ins
Ġy esterday
Ġex act
Ġcur led
Ġticket s
Ġexam ined
Ġmoment s
Ġgather ing
Ġaff ord
Ġon ions
u es
ĠD ino
Ġpar ked
Ġbra very
Ġmis ter
Ġst ro
M oral
Ġtal lest
Ġconcer t
Ġhig hest
ĠW ally
im y
Ġhit s
Ġbed s
ĠChrist mas
Ġpra ised
ĠB o
Ġitch y
Ġga ze
ar th
d ie
Ġprett iest
ĠF ifi
Ġn apping
ĠSnow ball
U n
Ġpad d
c ited
Ġdes ert
Ġwr ist
Ġsit s
Ġst ing
Ġh itting
Ġvisit ing
Ġcub es
Ġs igned
os ity
Ġcolor ing
Ġagre ement
Ġd a
a les
ĠW oo
Ġconf ident
Ġrecommend ed
ĠFro g
ĠMar ia
Ġsto len
Ġchoice s
ue st
Ġhapp iest
Ġtrip s
Ġpol ished
Ġtable t
Ġclimb s
Ġmark s
Ġsun light
Ġtremb ling
Ġspray ing
Ġpebble s
ugg y
Ġdown stairs
Ġvoice s
Ġmar ked
ĠK ing
ĠIt s
Ġfa sc
Ġg uest
pp ers
Ġbleed ing
Ġscr u
ĠA unt
udd les
Ġsm al
ĠT ony
ĠW iggly
Bob by
Ġsmal lest
Ġbe side
Ġs i
Ġphot os
And y
Ġinclu ded
ĠL e
om ing
Ġwarn ings
c ious
Ġp le
ag gie
ĠL uckily
Ġheal th
it ies
aff es
id s
ĠCra bby
ara c
Ġli ed
Ġcrunch y
ĠE ach
Ġfamil ies
Ġspark les
Ġe ff
ĠM o
Ġpow ers
Ġgir affes
Ġprom ises
Ġfasc in
Ġlead er
Ġca sh
ĠS andy
Ġexact ly
d ies
Ġus ual
O k
ot s
Ġmatch ing
arac ter
Ġmouth s
Ġch aracter
Ġinclu ding
Ġstick ing
Ġgo als
ad os
Ġtrave led
Ġsi ren
Ġstr ings
Ġsister s
Ġspark le
Ġav o
Ġtri cked
il ity
Ġim med
ĠS low
ĠC he
Ġimmed iately
ver s
ind y
Ġped als
Ġgrand mother
Ġbalan cing
Ġw ink
U h
Ġla p
Ġpol ishing
Ġsc ra
Ġhard ly
H a
Ġsk unk
G reat
Ġca use
Ġrubb ing
Ġdes er
Ġan n
Ġavoc ados
Ġst are
Ġtheir s
Ġpack ing
Ġlo ving
ĠL iz
Ġpo king
Ġhesit ant
Qu ick
H ave
B ird
Ġbeh aved
Gra ndpa
Ġlet s
J erry
Ġwood en
Ġsl imy
ist en
Ġw id
Ġpre cious
Ġbatter ies
ĠE arth
Ġdoll house
Ġcont ain
ĠB ongo
ĠL izzy
Y eah
Ġus ually
omet hing
Ġeff ort
Ġmark er
Ġbak er
a ster
Ġc ous
Ġcash ier
Ġsn uck
Ġknight s
Ġch o
Ġr isk
ĠD r
Ġsoar ing
Ġgrowl ing
is ies
Ġload ed
riend s
Ġbe ard
P eter
Ġwra pping
Ġgre y
igg ie
Ġda isies
S adly
he llo
ĠM ay
Ġl imes
Ġsc ooped
Ġsn atched
ĠF irst
Ġsnowball s
ish y
Ġsaf er
Ġscru bbed
Ġch op
Ġpocket s
Ġacc om
ĠK ate
Ġe ight
ot o
Ġbec oming
Ġgigg ling
ĠM e
Ġswim s
Ġcon v
Ġcrab s
ĠWoo ly
Ġopen ing
Ġcur ly
Ġaccom pl
Ġdisco very
ĠM illie
ro ken
ĠO ut
Ġpray er
Ġland s
B et
ind ro
Ġshe lves
Ġbe amed
Ġra indro
Ġornament s
e ed
ent y
Ġbrus hes
Ġn i
Ġpast els
Ġbar s
Ġfe ver
Ġclown s
Ġtow els
Ġhe n
Ġtalent ed
Ġrepl aced
Ġbr id
Ġkn elt
b roken
Ġpray ing
Ġwat ches
Ġ 1
Ġdeliver ed
Ġpencil s
ĠRock y
oy s
Ġinstr uct
Ġfair ies
iv ity
Ġal right
Ġfascin ated
Ġsurround ed
us ing
Ġblock ing
f it
Ġgl itter
O llie
Ġle ast
Ġpe ppers
Ġfiref ly
ol ph
Ġscream ing
Ġbrid ges
t uce
B oo
Ġde fe
ence s
Ġsees aw
Ġremember ing
Ġw oof
Ġlet tuce
ĠPe pper
Ġinsect s
Ġst ain
Ġit em
Ġper ched
ri ver
s hing
se qu
Ex cited
e el
Ġcon sequ
Ġhorn s
Ġbe g
Ġheart broken
Ġwhat ever
Ġthr illed
Ġsweet s
Ġdust y
Ġhe av
ĠB oo
gu ing
Ġsurf ace
Ġinstruct ions
Ġtig ers
br ush
Ġscream s
Ġth orn
Ġtemp er
Ġrainbow s
ick ed
Ġseashell s
pp a
Ġrep ly
Ġout fit
n ie
ĠHoot ie
ĠB uggy
Ġbe ad
Ġwander ing
J en
Ġpay ing
Ġar guing
Ġcol ours
Ġwonder ing
Ġcompl ained
Ġsnake s
Ġc ott
Ġsad ness
ĠT oto
o pper
Ġavo id
Ġbloom ing
ĠSu zy
Ġbo dies
f ied
Ġconsequ ences
av i
Ġun ited
bb led
Ġmatter s
Ġcom m
uct antly
Ġsmile y
Ġpro ject
Ġcrack ers
op s
Ġste ep
o or
! '
m el
Ġstretch ing
Ġfa ult
Ġs ides
Ġhug ging
Ġdecor ating
Ġeat s
ĠH appy
Ġimpro ved
ĠA b
b age
Ġpengu ins
M andy
Ġpat ience
!" ,
ch y
Ġad ult
n ers
Ġgar bage
Ġraindro ps
ĠSt ar
Ġtemper ature
R ed
Ġquack ed
ĠJ ul
low ers
ep t
Ġmushroom s
Ġchallen ge
ĠB oth
e en
ĠS omething
C l
ĠO ink
an n
Ġwigg led
Ġman e
Ġhero es
id night
Ġribb ons
Ġpot s
ĠCl ara
at ty
Ġadd ing
Ġo be
n eath
Ġover come
Mr s
ĠN ot
Ġfill ing
av id
om as
Ġsw ept
ĠSlow ly
Ġwa dd
g o
ĠW ater
Ġrel uctantly
Ġrecord ing
at ie
Ġvill ag
Ġprett ier
ĠChick y
Ġc ough
Ġdark er
Ġspark ling
ĠJ ames
Ġd ipped
Ġpee king
Ġst em
Al ways
Ġfin ishing
Ġfl own
Ġdad s
Ġsc ored
Ġclear ing
Ġch at
Ġwait s
Ġbott les
Ġdi ving
ĠSk y
Ġl amb
Ġrespons ib
Ġwo nd
Ġsuffer ing
rin cess
Ġs ings
ĠM on
Ġfa b
Ġfab ric
Ġt im
b ers
Ġremind er
Ġcreat ing
Ġdeliver ing
Ġobe y
ol ine
Ġbead s
Ġwater ing
Ġst ung
Ġscrew d
Ġre un
c row
Ġt ugged
Ġperform ed
all owed
Ġsport s
Ġsw allowed
h ive
Fr eddy
Ġgear s
Ġpump kins
Ġbee hive
ĠBird ie
Ġdream t
Ġt iss
ĠG reen
Ġcous in
Ġquarrel ing
as on
Ġaw ake
Ġrock ing
Ġflavor s
Ġpadd led
Ġinv iting
Ġscrewd river
um m
Ġsepar ated
Bu zz
eel ing
sh m
Ġvillag ers
Ġshiver ed
Ġr ust
shm allow
st ick
B r
Ġrock ed
Mom o
Ġprop er
Ġgl asses
E lla
as hed
Ġhelp ers
Ġshirt s
Ch oo
Ġprov ided
Ġcheer ing
ĠE l
Ġsne aked
T r
Ġcuri osity
ig ail
Ġch ip
Ġco c
Ġgen ie
ick y
F irst
Ġval ued
Ġsnee zing
itc hes
Ġmar shmallow
ĠM idnight
h ind
Ġro ses
Ġsew ed
ĠZ iggy
How ever
Ġwond ers
Ġco nd
Ġbo om
ache l
Ġa we
ĠZ igzag
Ġforget ting
Ġpen nies
' .
Ġhis sed
ĠF riends
Ġbase ment
Ġsnow men
Ġfl ames
pl ash
itt ed
Ġbalan ced
Ġrem em
J ake
amb i
Ġremem bers
Ġscare crow
Ġmill ion
Ġlog s
Ġcolor ed
ang ing
Ġw ound
Ġth ro
o h
Ġmeal s
Ġroar ing
Ġthro at
Ġgrin ned
we ed
Ġfe ast
Ġsc ales
ink led
allow een
Ġmiss ion
Ġa is
Ġrocket s
Ġreun ited
Ġsea weed
Ġdrum s
Ġcudd ly
ĠBun Bun
ĠH alloween
Ġsurround ings
Ġsl ed
Ġrest ored
Ġunder neath
Ġsupp lies
A h
Ġb are
Ġimag ining
Ġsuperhero es
Ġtask s
Ġsa le
Ġa ud
Ġkeep er
Ġcow b
i very
ĠW atch
bb ing
Ġref le
Ġpicnic s
z es
il es
Ġins ist
Ġneed les
Ġs way
ĠFo xy
ĠThank s
Ġth ird
ĠPe ppa
A choo
ĠL ike
Ġk ites
Ġbeh avi
Ġex h
O r
Ġa st
Ġtiss ue
b ur
After wards
Ġpad dle
Ġg ross
ĠBoun cy
O ops
Ġtr amp
ĠC ar
ĠC r
Ġexplore r
Ġpeace fully
st y
chie vous
Ġmis chievous
Ġcomplain ing
Ġpl enty
Ġtip to
Ġind eed
P ete
v ant
ĠRu d
. '
Ġcop y
Ġgem s
Ġvan illa
ĠL ion
P olly
ĠH ope
ĠP in
ĠRud olph
Ġwire s
Ġwin s
Ġcrow d
Ġgrand d
Ġbucket s
ĠUn fortunately
Ġfeed ing
Ġroad s
Ġcross ing
ĠSt op
Ġtramp oline
op sy
el vet
R o
Ġsplas hes
Ġri pe
Ġdire ction
Ġaud ience
Ġhands ome
Ġunt ie
Ġref use
Ġsat is
B unny
Ġhon k
ra cted
Ġswe at
Ġtail s
Ġmint s
ĠP rincess
ĠB irthday
o dy
C at
Ġcobweb s
Ġpoin ty
R ex
Ġm er
Ġfa ced
Ġminer als
Ġtick led
ĠP l
Ġst umble
Ġmus cle
Ġpur r
ut ious
Ġgrandd aughter
is dom
W atch
Ġrem ote
ig ning
p er
Ġwin ked
led ge
Ġreach ing
Ġrain y
Ġr ising
Ġdel ivery
ĠSpark les
Ġknow ledge
Ġfro ze
Ġplant ing
c ers
w h
Ġfirefight er
us hing
S illy
Ġsew ing
Ġarrow s
Ġdraw s
Ġtim er
ĠChick ie
Ġtra ctor
F eeling
Ġm es
og o
Ġhear ing
Ġwind y
R osie
ĠO ur
Ġborrow ed
ĠBe ep
Ġsquare s
Ġjo king
n joy
ĠBe ing
Ġve gg
Ġmarshmallow s
ĠB ambi
Ġca utious
Ġdr own
ump er
Ġste ady
Th ose
Ġflutter ing
Ġexpl o
Ġsad der
Ġlead ing
Ġunpack ed
Ġmask s
Ġlean ing
Ġdec ides
ĠC la
ĠD uck
Ġp out
Ġpat ted
Ġguest s
Ġzebra s
Ġresponsib ility
Ġobject s
Ġforgi ven
Ġmagnet s
ater ial
S ome
Ġm aterial
Ġtr aded
Ġperform ing
um ent
Ġdiscover ing
Ġfre ed
Ġsight s
Ġflag s
t le
Ġch anging
b and
Ġh ike
Ġunt ied
Bet sy
Ġsc ur
Ġvegg ies
Ġdire ct
ĠCh oo
Ġca using
Ġfork s
ĠZ oe
Ġmeat ball
u ing
Ġcelebr ating
F o
itc ase
Ġfl ight
Ġcreat ivity
Ġsur v
Ġsu itcase
Ġclap s
ĠO l
Ġru le
Ġ X
Ġshr ug
Ġscur ried
Ġbird house
Ġd en
Ġpupp ies
ĠR ay
Ġspike s
Ġbur nt
Ġspe aking
Ġwid ened
ĠV elvet
Ġtable s
E ven
Good night
at ul
Ġhelmet s
Ġde al
Ġcan s
P e
Ġload ing
Ġwr ites
Ġch oo
Ġsurf ing
ott en
Ġcomplete ly
St ay
an s
Ġmail ed
ad es
u ly
ang les
Ġch uck
Ġtrick y
Ġr otten
at t
a ut
Un fortunately
Ġdri ves
Ġtunn els
en a
Ġdress er
Ġstack ed
Ġsunf lowers
ĠSt eve
Ġbow s
Ġre pa
Ġcat ches
Ġbowl s
Ġdam age
Ġplay ers
u ke
B a
Ġbit ing
i ar
Ġwr itten
Ġdist racted
Ġwor ries
ann ah
Jo ey
Ġsweet ies
R ob
Ġsh oo
Ġr ings
f l
Ġrepa ired
Ġnap kins
Ġcon vers
p are
S usie
S n
Ġmeatball s
l ings
Br own
Ġbeg in
Ġsn uggle
Ġr umble
Ġgre et
Ġha ven
ĠM aggie
ake s
Ġpige ons
Ġdes igned
Ġwas ted
Ġpol ar
Ġm oo
Ġlend ing
Ġcountry side
.. .
Ġju d
Ġpe as
ĠPin chy
Ġsa n
ĠTh omas
Ġprin ting
Ġknock ing
Ġintere sted
Ġincre ased
Ġwis hing
an a
Ġscra ped
Ġrisk s
Ġbare ly
oun ced
ĠSt itch
ĠFro sty
ĠFred die
atter ed
T ime
Ġlift ing
Ġdro pping
Ġbeh aving
ĠB ree
Ġpe cked
Ġdirect ions
ĠB ye
Ġpe ered
Ġout do
Ġtwirl ing
ĠPipp a
f ree
am ie
ĠR achel
ir m
Ġsan k
er n
Ġsurf board
Ġwadd led
Ġback wards
Ġperform ance
Ġd ep
ĠB ecause
ed s
ab ly
ĠD avid
Ġt y
Ġr ushing
ĠM oo
ĠFr ank
Ġgrand pare
Ġwip ing
st ep
A n
ĠSp ring
Ġwob b
l er
Ġto aster
ĠJ oy
ĠL ove
Ġro bb
ĠA lly
sc reen
Ġpop s
Ġdiscu ssed
Ġwho se
Ġchuck led
Ġchase s
Ġsp ong
Ġteac hes
Ġrefle ction
at ur
ĠFl opsy
Ġtire s
Ġpolite ly
Ġa imed
Ġrot ting
Ġg ri
Ġbel oved
Ġbehavi or
Ġstay s
Ġsun screen
Ġwill ing
Ġsl ither
Ġri p
Ġwe e
Ġcre pt
Ġattack ed
art ment
ĠTw inkle
Ġcharacter s
in t
Ġoff ic
Ġast ron
Ġcut s
Ġaf ar
Ġlight er
Brown ie
Ġspread ing
Ġdra gged
Ġcott on
Ġsal ty
ĠM illy
Ġple asure
Ġastron aut
Ġtri angles
Ġfit s
Ġtr uly
Ġben eath
Ġwater mel
ong r
il ed
Ġgl ued
ĠTh umper
Ġsurrender ed
ĠLe ave
ĠG ogo
o le
l oe
id ing
G eorge
Ġsail ors
ongr atul
u de
c l
Ġheav ier
Ġgrow s
ĠAb igail
Ġplay room
Ġthr own
Ġitem s
Ġaccompl ish
Ġsurv ive
Ġpe ck
Ġrust ling
ĠM ouse
Ġuse s
Ġfar ther
aw s
Ġcover s
Ġv ines
Ġspong e
Ġfla pping
Ġsc ient
y ou
cc oon
c her
Ġra ccoon
ĠY esterday
Ġm unch
ĠE njoy
Ġscient ist
c ope
ive s
ir a
Ġbracelet s
Ġais le
Ġc ent
Ġteam work
Ġne ither
Ġown ers
Ġmer ma
at ches
el ace
Ġsho elace
Ġam ount
Ġpri ck
ĠS c
Ġdisturb ing
Ġwatermel on
ĠP ut
ĠB ug
ĠZ ero
ĠJ u
Ġpl ain
Ġlearn s
Ġjacket s
ĠS plash
T iny
ĠD are
Ġpan s
Ġbl own
Ġdan cers
Ġlay ing
Ġdoll ars
ĠJ ess
Ġball er
Ġn ood
ĠW isdom
Ġbur ger
r ance
on ies
Ġsigh s
Ġspeed ing
Ġdeser ve
ĠK atie
ic a
ny time
Ġcon n
Ġhon ked
Ġro pes
Ġhuman s
ĠB iggie
Ġwob bled
Ġplan s
Ġgrandpare nts
Ġdeterm ination
Ġmosquito es
es ome
ĠO lly
L una
bo at
Ġdelay ed
Ġgarden er
Ġfa ct
Ġbu lly
Ġbur st
In stead
Ġr usty
r up
ĠC indy
Ġpupp et
Ġsatis fied
Ġpretend s
Ġha ird
Ġsuff ered
ĠJ e
it ched
Ġoutdo ors
get s
B ad
ĠA va
ĠBe hind
Ġstrong est
Ġon wards
Ġoffic ers
ĠW elcome
M iss
Ġaeropl anes
ĠB y
Ġd ie
O ur
Ġcalm ed
Ġaw esome
Ġse ven
Ġdrown ed
Ġlung s
b ie
Ġfilm s
Ġw iggly
Ġun fortunately
ĠEvery day
Ġp onies
he e
âĢĿ .
Ġballer ina
Ġpaint brush
Ġre ason
Ġquestion ed
Ġperm itted
ĠS un
Ġfle as
it ion
Ġst ool
Ġslow ed
ll en
ar mer
k er
Ġsend ing
A b
M ar
Ġpassport s
ll ed
Ġru ining
ke nd
ĠW ant
Ch irpy
ĠFl utter
Ġmon th
ĠGr umpy
Ġwee kend
Ġstore keeper
Ġshr unk
Ġrace s
Ġbird y
d am
ĠR e
ous y
Ġste er
b ut
Ġag e
ĠSt ri
Ġcoc oon
Ġfore head
f orm
ĠJ ones
Ġship s
il o
ar ter
Ġdry er
ĠR atty
Ġd ots
Ġconvers ation
Ġguess ing
Ġbrave st
Ġ1 0
ind a
Ġ Once
Ġfire s
Ġun f
Ġent rance
Ġno ses
Ġtw inkle
Ġshr inking
Ġbad ge
h og
Ġsm arter
ook y
ight y
Ġcold er
Ġrain s
ap ed
Ġsp ice
Ġmeow ing
Ġstar fish
Ġcelebr ation
Ġnecklace s
Ġser vant
Ġblow s
on i
Ġh us
ĠBl ink
Ġafter wards
k y
H old
Ġswims uit
Ġwob ble
Ġdraw n
it ude
Z oom
Ġkne es
Ġwarm er
Ġwindows ill
ĠH opper
Ġs ense
Ġswan s
Ġbother ing
ĠN ice
Ġo pp
Ġneat ly
Do ggy
Ġs ib
Ġforgi ving
Ġcre w
Ġp ens
Ġcowb oy
Ġcloud y
Ġsl am
rin t
Ġcond uct
ĠL ou
Ġhedge hog
ĠS orry
am boo
Ġmerma id
Ġhaird ress
ri ous
ear s
ĠCat ty
ink ling
Ġslow er
P oppy
Ġp ins
ĠH ippy
Ġoy sters
Ġexplo ded
Ġconduct or
Ġbrus hing
Ġhus band
Ġsword s
F ine
Ġc oug
Ġin j
ĠP oor
Ġhairdress er
Ġvehic les
Ġcre ations
Ġp uck
Ġforgiven ess
Ġmagaz ines
Ġres isted
Ġr out
Ġbuzz ed
Ġblock ed
Ġali ens
Ġst itches
Ġ Yes
Ġlisten s
y es
Ġf irm
Ġsqu ishy
Ġfu zzy
Ġb amboo
Ġbump s
ĠB op
Ġsol ving
Ġbury ing
ĠC uddles
Ġpo ster
Ġyield ed
Ġgrace fully
Ġagre es
Ġscratch ing
Ġshap ed
air y
Ġsurpr ising
Ġmel ons
id er
Ġworry ing
Ġnest s
R un
us an
L isten
Ġpolice man
Ġbreat hed
Ġpass en
Ġma ster
dd ie
Ġst ern
Ġwobb ly
Ġclose s
Ġplan ning
o ssible
Ġdep artment
n o
Ġsp ooky
ĠG et
ath y
un e
H arry
Ġprep aring
Ġrelie f
Ġsupp orted
Ġprick ly
Ġmis ses
b ably
ĠW il
Ġimp ossible
ĠS ure
Ġpro bably
Tr ue
ap t
Ġfrown ing
Ġcor al
ad ing
Ġk ittens
Ġd et
ĠSt ay
Ġdefe ated
Ġrub s
ĠF armer
ĠAunt ie
bb ie
D ave
iron ment
ĠTh ose
Ġk it
Ġre ass
Ġenv ironment
Ġwr inkled
Ġyou nger
p ite
ou ch
Ġam ong
b ell
Ġfloor s
ĠM ousy
Ġfish y
Ġhand ing
ĠChe w
Ġaw are
M ike
Ġfo c
Ġfoc used
ĠJ an
ĠCr usty
Ġta pped
Ġnood les
Fo llow
Ġdisplay ed
Ġbelong ings
Ġroll s
f all
Ġhunt ers
f ire
Ġun s
Ġairpl anes
ect ion
ident s
ĠJul ie
Ġtipto ed
Ġt ying
Ġstart led
Ġso aking
Ġfo cus
Ġv ent
ĠTw o
le phant
Ġscrew s
ĠA bby
Ġthought s
Ġcra ft
Sh h
Ġspoon ful
Ġman ag
Ġl ower
Ġent ire
Ġscar ves
o ke
ay la
Ġann oy
Ġt ar
ĠF ire
Ch arlie
ĠP ing
Ġconv in
ist le
Ġdri fted
Ġsail boat
Ġu nd
Ġl ent
ĠCra b
Ġfl as
id o
cc idents
Ġover he
Ġcl ues
Ġcheek s
ĠK ids
Ġli qu
Ġhesit ated
ĠRo ver
Ġdam aged
th ough
L ola
um ents
Ġcomm un
Ġfloat s
Ġact iv
Ġm erry
Ġfin s
Ġre app
Ġbreat hing
ĠB eth
er g
Ġlick ing
ĠP uddles
Ġwa king
Ġgra bbing
ĠF u
Ġwe pt
Ġsib lings
ec ted
ĠGood bye
rr r
Ġt ipped
i bbit
Ġwear s
Ġspr out
Ġsto pping
Ġdance s
P aul
.. ."
Ġfl ipped
Ġsweet est
Ġl uckily
Ġrobot s
Ġhid er
ĠOl iver
ĠD ot
Ġbl inking
Ġsheet s
ac les
y ond
Ġbe yond
Ġstom ped
Ġseek er
Ġtwist ing
Ġthu d
Ġgu ide
Ġy elp
st orm
H enry
Ġplay d
Excited ly
Ġshark s
Ġconv ince
Ġact ion
Ġtw inkling
ĠM ighty
Ġshoelace s
Ġcl ick
Ġc ust
ĠF or
Ġdi ved
Ġto ss
Ġpost man
Ġscr atches
Ġresc uing
Ġfig ured
Ġjo ked
Ġd ar
Ġback ed
Ġb itten
Ġser ving
ke lly
Ġgri p
Ġsprink led
Ġfigure s
re ct
Ġignor ing
R ose
Ġevery day
ĠP r
S unny
Ġcust om
Ġremind ing
im ent
Ġnot es
Ġstream ers
Ġpout ed
Ġactiv ities
z ie
Ġimag es
Ġoverhe ard
ac ob
Ġclean er
Ġpack ages
Ġso bbed
Do g
sh aped
he w
ĠJ illy
Ġsnow fl
Ġneighbour hood
T w
n e
Ġsecond s
Ġknot s
Ġdress ing
Sn ow
Ġhand ful
ĠS w
Ġjob s
Ġencou rag
Ġcor rect
Ġsec ure
Ġni bble
Ġlip stick
B ubbles
Ġtw ice
Ġless ons
Ġtreat ed
Ġ Quick
Ġdark ness
Ġdecor ation
Ġwe eds
ĠSpark le
Ġmatter ed
Ġwor n
Ro ar
Ġsmo king
Ġso fter
Ġn ine
Ġtr ans
Ġgroup s
ark y
Ġun w
p rint
Ġyour selves
ag ic
Ġexplorer s
Ġjar s
ĠT ree
Ġrever sed
Ġconvin ced
Ġsitu ations
ĠBut ter
Ġsy rup
Ġas ide
umb ling
Ġfamil iar
Ġe ase
Ġbus iness
f ly
if ully
ĠH enny
Ġkick s
ri er
Ġkn ives
Q ue
Ġtalent s
pp ies
Ġdoor bell
Ġencourage ment
ĠR ain
Ġhall way
ĠA nt
Ġstud ents
Que en
ay ing
Ġbeaut ifully
Ġtea pot
Ġsil ent
Ġall erg
Ġr amp
Ġstreet s
ĠJ amie
ĠCh loe
Ġpupil s
J ames
Ġslice s
Ġhaircut s
Ġarg ument
ĠJo sh
ob ody
ip es
Ġpl ot
ĠE lephant
or a
Ġear n
Ġbat hing
s m
Ġswe ep
ĠD izzy
Gra ce
v room
Ġtest ed
Ġreward ed
Ġliqu id
Ġe v
ĠS kelly
ĠM ix
ch ild
D anny
Ġbeep ed
p en
sh ions
u rious
ie ce
Ġspr ang
Ġw ow
ĠC lau
Ġspell s
Ġjet s
Ġinstr uments
ĠClau s
ce pt
Ġread s
Ġang els
Ġhow ever
Ġ Ġ
T ina
Ġart work
Ġlab els
Ġtrans form
r ink
Ġcount s
ĠR olly
a ret
Ġsl ipping
Ġsh ines
Ġrefre shing
Ġriver s
Ann ie
Ġre cess
Ġhot ter
W hee
Ġn ug
ĠPe ep
Ġwater fall
w k
Ġcover ing
Ġr ather
Ġcent er
L illy
Ġappreci ated
P ip
T oby
ĠE ddie
Ġgrand child
Ġcup cake
Ġhe ight
Ġtool box
l ine
Ġencourag ing
ee se
Ġma ker
Ġwip es
Ġpart ic
ll ing
Ġman ners
Ġghost s
Do lly
Ġquarrel ed
Ġcra shing
Ġd ot
Ġbe am
or ing
ĠP aws
ĠAnn e
Ġwise ly
S ophie
Ġpo ppies
b elt
Ġcamp fire
Ġpan icked
ĠWil bur
ĠA sh
w are
Ġv owed
ĠF ido
Ġseat belt
Ġpo sit
Ġsqu ished
Ġpops ic
Ġdes igning
Ġcomb ed
cy cles
Ġcream y
ĠWh istle
oun ce
Ġsh in
Ġma c
Ġcu shions
ĠP atch
Ġhead ing
Ġyell s
Ġtight er
Ġp ound
Ġin sp
ĠM ilo
Ġgreet ed
B ig
m ates
Ġsh attered
ab ra
N utty
Ġde f
is sy
ĠMon key
Ġ 2
R u
Ġcautious ly
F or
Ġprevent ed
ĠO ther
e al
Ġha wk
Ġhid es
or ter
Ġthorn s
Ġknock s
Ġtremb led
Ġpedal ed
Ġloo ps
Ġfar t
Ġseagull s
Ġnug gets
Ġrout ine
ĠS usan
Ġslam med
Ġb uddy
Ġimag inary
Ġbat ch
Ġto ssed
Ġsque al
M aggie
Ġswim mer
ĠDo do
Ġbea ver
ĠL ots
b it
Ġmix ture
Ġt ies
ĠJe ff
im mer
as m
Ġpoison ous
Ġg eese
Ġpath s
Ġreass ured
Ġexh au
Ġtri cycle
ĠF ish
Ġchef s
Ġvent ured
Ġbl ast
a ven
w orm
Ġsc en
Ġappear ance
D ear
ĠM att
ĠD ara
Ġro ast
Ġra king
Ġmotor cycles
Ġev il
Ġret ri
Ġsound ly
ĠStri pe
Ġlangu ages
Ġspice s
ĠW ink
ĠD ee
O ut
Ġweap ons
Ġbulb s
Ġdist ract
ab el
?" ,
Ġte sting
Ġfart hest
ĠAl ong
at s
Ġsmell ing
Ġdan gers
Ġhealth ier
m s
Ġpu ff
un ched
ment s
Ġdestro ying
ĠA ccidents
ĠCo pper
umm ies
Ġuns ure
Ġsel f
Ġ Queen
Ġn ur
Ġpl umber
Ġpay s
Ġjud ges
ĠT ry
Ġbur gers
Ġan ger
M ay
Ġlead s
Ġt uck
Ġo cc
Ġch arge
ri g
Ġend s
Ġt ummies
bb ling
Ġfri es
Ġtem pt
Ġcro ps
Ġk ings
Ġsh own
Y ears
Ġtw eet
Ġsymbol s
A lex
Ġdesign s
ct s
ĠCh irp
Ġdefe at
Ġmaterial s
Ġhat ched
Ġallow ance
Ġsniff ing
Ġexerc ises
ĠWith out
Ġopin ions
Ġhat ch
Ġallerg ic
ĠL isten
rom ise
Ġd ou
ch o
Ġmes ses
Ġact s
Ġunpack ing
Ġhope ful
Ġha bit
is ions
qu et
Ġpan cake
Ġtalk s
ul p
Ġde ed
Ġgrand son
Ġflutter ed
u ess
Ġc oup
ĠCla ire
ĠL aser
ĠJen na
ĠNot hing
ĠB all
Be ep
Ġe cho
Ġg er
oph ia
Ġquiet er
ĠC athy
Ġover head
ĠL uke
ĠL inda
Ġpurp ose
Ġg az
Ġdraw ers
Ġforget s
Ġbu ses
Ġdis ob
m ies
Ġex ch
ĠCh uck
Ġbegin ning
Ġb ou
Ġbou quet
os en
Ġmagic ally
Ġguard ing
Ġch osen
ĠSk ip
ĠRu dy
ĠF airy
Ġcorrect ly
u zz
Ġsail s
Ġpassen gers
Ġexhau sted
ĠPe anut
ot ch
Ġchocol ates
Ġturt les
Ġflas hing
Ġwrap s
Ġunicorn s
Ġplayd ate
ĠL ena
ĠH old
Ġscatter ing
Ġex cept
Ġsquee zing
Ġco ach
ĠW o
Ġle aking
ĠSund ays
Ġsw irl
Ġvisit ors
Ġtrave ling
Ġdec isions
Ġbr u
A nytime
M oo
L e
Ġrat s
Ġdo d
Ġcorn ers
Ġsour ce
Ġgrowl s
Ġbra ver
ĠFu zzy
Ġexp ress
Ġinst in
Ġb orn
izz ie
Ġhonest y
Ġbreath s
Ġann ounced
ĠW illy
T ake
Sp ike
Ġunw ra
Ġmanag er
Ġg est
u ppy
Ġdar ling
ĠA dam
so l
ĠN obody
? '
ĠT ake
l t
C o
Ġcon s
Ġplay house
Ġinch worm
B ear
Ġhang ers
Ġbicy cles
Ġscoot ers
Ġsal on
ĠJ essie
Ġfreez ing
ĠMike y
ĠF ishy
Ġstorm s
Ġretur ning
ĠN ana
F ro
Ġpartic ular
Ġc ig
ĠSque ak
w he
S que
Ġstro ked
ĠT urt
U nder
ĠG ray
ig hing
Ġstor ed
Ġvisit or
Ġdriver s
b ird
Ġsing ers
Ġsell er
J ump
Ġre wards
Ġch illy
Ġfor ce
Ġcalm ly
Ġhop s
Ġspark s
Ġcoll ap
Ġ Oh
Ġgrass y
G r
Ġcig aret
Ġ ĊĠ
t he
Ġinstin cts
Ġfl ip
Ġflood ed
Ġsh ave
Ġband ages
ad abra
Ġheal ing
Ġcoup le
Ġsh ady
Ġbl ushed
Ġmonth s
Ġshop s
print s
le e
Ġr owed
Ġclos ing
Ġhe aven
Ġbat tle
ĠP up
c adabra
ĠH annah
B less
Ġthan king
Ġsweat y
ib it
Ġsp are
T ed
Ġcoo lest
ĠSn ap
Ġback ward
ĠM ad
Ġpant ry
Z ip
Ġte les
Ġmunch ing
Ġgo bbled
ĠO strich
Ġrobb er
Ġdri pping
s a
Ġtouc hes
Ġm ate
Ġcontain er
P andy
Ġyelp ed
Ġwho ever
Ġwake s
Ġsomet ime
ert ain
Ġunt angled
l ied
ĠSnow man
st and
P ipp
Ġbell s
ĠC ara
Ġne are
Ġpeel ed
ĠOn ly
Ġteles cope
Ġhoop s
Ġaccompl ished
Ġh our
H oppy
Ġup side
al ph
ic ate
Ġd aring
ĠSu zie
ĠD uring
ĠB ones
am my
P l
ĠO uch
Ġsp ed
Ġpand as
Ġnightmare s
ĠPing u
Ġfriendship s
Ġse als
st alk
Ġpot ty
Ġcho pped
Ġexh ibit
c at
G et
Ġact ive
ĠS l
Ġres pected
Ġz ipping
ĠGo ld
Ġseas ons
Ġsp ins
Ġresp ond
Ġgaz ing
Ġgest ure
b el
Ġpro ve
Ġposit ive
ĠG ina
B oys
Ġg oo
ĠC ow
G igi
Ġcryst als
P ut
Ġsqueal ed
ĠTr ust
ĠM el
Ġtrap s
ver ed
Ġsh orter
Ġger ms
S andy
C ar
Ġ 5
i ving
Ġa ctor
Ġexperience s
Ġd ump
ĠBl oom
Ġrun ner
Ġoffer ing
ck y
Ġtar get
Ġbean stalk
ĠRob o
ac le
Ġstore s
ĠM a
on se
ĠR ich
ĠJ acob
ĠW oof
ĠW ell
ĠM ira
Ġresp onse
Ġque ens
Ġocc as
Ġfoot prints
Ġbelt s
ongratul ations
Ġunt angle
Ġdisappoin t
ĠJess ica
Ġta pping
ret ch
Ġsome body
ing o
Ġpo ses
ĠSo f
Ġremind s
Ġcheck ing
l ers
Ġsc urry
Ġsw allow
Ġwhisp ers
Ġd ip
Ġche aper
ĠL arry
au ra
Ġtent acles
Ġshovel s
ĠZ ee
Ġhor iz
Ġstud ent
Ġsing le
il ted
Ġstat ues
M illie
Ġpill s
Ġdiamond s
r is
end y
Ġmes mer
Ġclass mates
ĠU p
t ock
Ġhoriz on
ĠRa ven
ĠN ina
Ġch anges
Ġbe ating
Ġn uzz
o ver
G uess
Ġachie ved
Ba a
Ġmo at
a by
il ities
Ġenc ount
ĠS atur
Ġrepair man
ĠIs n
Un cle
M ine
Ġsl ips
Ġbelie ving
ĠJ on
Ġnur ses
Ġinvit ations
ĠTurt le
Ġfort s
s itter
h a
D an
Ġtear ing
ĠJ ump
are n
Ġsc ri
step s
rig ued
cess ary
Wh ich
Ġcle ared
Ġstack ing
Ġlift s
Ġjourney s
Ġlong est
Ġinsp ired
c he
Ġre ly
Ġhunt ing
Ġstand s
Ġwas ting
Ġsuit s
Ġfoot steps
y an
H op
Ġincre asing
âĢ Ķ
Ġbaby sitter
u pt
Ġaccomplish ment
o llen
Ġta ped
W ake
Ġspill s
V room
Ġweigh s
Ġteam s
Ġsw ollen
Ġspill ing
ĠO t
ĠâĢ ĺ
Ġdoll ar
Ġweak er
Ġcoug hing
or se
Ġin ter
ri gg
o ard
igg les
Ġfreed om
Ġevery body
Ġslither ed
ĠRo llie
Ġs ou
Ġappreci ation
ĠJ ay
iver sity
Ġadd ress
j o
K eep
B inky
r um
Ġab oard
ight ing
K ate
Ġsuggest ion
id ence
Ġstom p
Ġh oo
Ġed ges
Ġob st
Ġar r
ic iest
H urry
Ġmind s
Ġcheck out
Ġjoin ing
Ru by
Ġpopsic le
Ġexerc ising
Ġaunt ie
Ġcrown s
ĠM oon
Ġwh ipped
Ġsnowfl akes
d a
Ġmem ber
Ġbother ed
ĠT ara
Ġ icing
ipp ers
Snow y
Ġsque ak
N ice
ĠS leep
Some one
Ġpunish ment
ĠK ayla
Ġbo lt
Ġpres ses
it i
a el
Ġcurious ly
M ickey
Ġr in
Ġkay aking
Ġw rigg
ĠO ak
? !"
ĠE x
be e
Ġbuck led
im on
Ġland ing
Ġsp at
Ġcommun icate
ĠA m
l o
Ġpri zes
u nder
Ġfa iled
Ġsk ate
Ġfl ick
it er
Ġcompl iment
ĠT ig
Ġt ant
Ġla ce
ĠJul ia
Ġs ill
ret ty
Ew w
Ġgr umbled
w ise
ĠP iggy
gu ard
ara ble
Ġnovel s
Ġla va
ĠG erry
Fin n
Ġdisob ey
Ġtour s
dd ing
B ang
Ġtant rum
Ġanswer ing
or king
in nie
Ġeng ines
Ġconn ected
ĠSp irit
h i
Ġun z
Ġto pp
Ġpinch ing
Ġer ase
Ġtub es
Ġst inky
Fl oppy
Ġsw itched
Ġste pping
Ġdou ble
ugg ing
O pen
Ġpet ting
Ġmoo ed
Ġan k
M illy
Ġy um
Ġas s
Ġhon king
Ġspring ing
Ġrepe ating
Ġele ct
Ġexam ining
Ġdon key
Ġadult s
ich ael
Ġcam el
Ġfiref lies
Ġni bbled
ĠP iggie
Ba by
Ġfight s
R ibbit
Ġcons ider
' ."
Ġsniff s
Ġrelax ing
Ġord ers
Ġyaw ning
v al
re w
Ġstro ll
Ġcl ue
C arl
Ġche at
Ġc ertain
ot ion
L ike
Ġlisten er
Ġsupp lied
op es
c ol
Ġshort s
Bu zzy
ĠSatur day
Ġcost s
Ġbird ies
ĠM issy
ent ly
ĠC ro
Ġn atur
Ġinse p
ĠW ise
apt ain
Ġty pe
Ġli es
Ġs igning
Ġinsep arable
Ġwhisper ing
Ġtut u
Ġclear ly
Ġspring time
Ġenthus i
V ery
Ġgr at
Ġro ars
B ill
Ġpour s
Ġenthusi asm
Ġdoor step
Ġborrow ing
Ġuniform s
N ina
Ġgrat itude
ĠDo ve
st r
Ġsqu ir
Ġsqu aw
s ite
Ġp ipes
ĠDo ctor
Ġs ipped
Ġmind ed
Ġcollap sed
ĠS ophia
ra cadabra
Ġshin ier
Ġcoo p
ĠA ng
L ulu
free ze
Ġnervous ly
Ġcl ip
Ġcl icked
ĠG ary
Ġpray ers
Ġbit s
sc otch
ĠCla w
Ġlife guard
Ġhelicopter s
ĠI zzy
Do es
ren ch
i en
ort un
Ġchoo sing
Ġbu d
Ġopp ortun
Ġbasket s
Ġear ned
F ree
C ongratulations
Ġm essed
ĠStripe y
Ġlunch time
Ġstro ke
Ġank le
w ater
is c
Ġresult s
Ġbr ide
Ġthunder storm
Ġfirm ly
f ather
Ġecho ed
ĠTo ot
Ġcher ish
Ġwh ales
Ġg lee
ĠSt ella
Ġpepper oni
Ġwith in
Ġtransform ed
Ġgigg les
Ġc al
ĠP am
Ġwo lves
Ġsupport ing
ad ie
ĠPr ince
Ġno dding
c ri
Sque aky
Ġweal th
Ġtwist s
Ġfo ggy
Ġe lf
ĠZ ippy
ĠS e
Ġnot icing
ĠRob ert
Ġm ood
Ġconf idence
ĠL izzie
wh ile
Ġkneel ing
ĠBe aky
Ġthick er
Ġelect ric
ĠM ake
ll as
Ġy umm
Ġcell s
Ġn apped
ro b
Cl ara
Ġflow ing
Ġel bow
at y
Ġun st
ain t
Ġmom mies
Ġtast ing
Ġfl ips
Ġumbre llas
Ġfox es
Ġdrive way
Ġhop scotch
Ġmil es
Ġben ches
Ġsand y
Ġprov iding
Ġmic row
ĠJ une
or der
o ey
Ġinsist ing
Ġdiscuss ing
Ġcott age
Ġmicrow ave
Ġwid er
Ġc ongratul
ĠQuack y
ar row
Ġsc ent
Ġmagn if
Mar ia
Ġtrust ing
Ġstr um
m ag
Ġreapp eared
Ġpres chool
ĠC le
ĠT iti
b u
Ġwre cked
Ġint rigued
und red
Ġju iciest
Ġcamp site
es pite
S u
Ġcho pping
ĠShe lly
Ġsiren s
ĠY et
Ġgoat s
B essie
Ġmom ma
Ġtest s
Ġp ounced
Ab racadabra
Ġs ection
H mm
Ġcur re
L ucky
!âĢĿ .
Ġtor to
ĠT ia
Ġtooth brush
er k
aw n
Ġtempt ation
ĠWo lf
og a
ak er
P enny
Ġtorto ise
j ack
Gr anny
Ġlunch box
Ġemer ged
Ġwigg ling
ulp ture
Ġscurry ing
Ġsc ulpture
Ġtidy ing
v in
ĠF ighting
uct ion
Bet ty
Ġg ummy
ĠWho ever
ĠSt retch
ĠL enny
ĠK it
ĠAn other
ĠA bbie
J ul
Ġobser ving
ĠM ic
Fr ank
ĠR on
Ġrobb ers
Ġmass ages
u ses
ile y
an while
Ġshow ers
ĠS uper
b ook
Ġfrown s
Ġbackpack s
ac ock
Ġcustom ers
Ġsnee zes
Ġshort cut
Ġapplaud ing
Ġtopp ings
Ġl ull
ail s
Ġmark ing
Ġnewsp apers
Ġhead ache
Ġche ated
ĠB arky
on na
Ġnatur al
Ġmate y
ĠL ight
Ġj uggling
Ġneare st
Ġcomfort ing
Ġbeet les
Ġannoy ed
Ġbell ies
Ġh undred
Ġdry ing
mag ine
A unt
Ġrow s
Ġcraft s
Ġexch ange
ĠEm my
Pipp in
Ġre act
Ġrepair ing
ĠBl ack
P at
Ġlo cks
Ġpe acock
Ġfree ly
Co co
Ġscare s
Ġdemand ing
ĠS weet
ĠR yan
ur render
ĠGold ie
s ie
P inky
Ġback s
Ġappro ach
Le ave
Ġtravel s
Ġsmooth ly
Ġscr ub
Ġenvel opes
Ġcount ries
ĠZ og
f low
Ġlow ered
Ġtw inkled
ĠSh ow
Ġsw at
Ġlumber jack
Ġhook s
Ġto dd
Ġtick ling
Ġsl apping
ĠH oney
Ġcrack s
Ġra ising
ĠN ick
ĠL aura
Ġlo ses
Ġeffort s
Ġcaterpill ars
Ġover flow
Ġmoder ation
Ġmod els
M on
Ġwh imp
Ġcurre nt
Ġa im
Ġdri ft
ĠM an
Ġpr ank
Ġcon c
Ġcolour ed
Ġjoy ful
Ġang rier
Z oomy
Ġautomob iles
Ġcl erk
Ġcigaret te
Ġst ur
Ġscratch y
Ġl itter
Ġdis c
T ry
ĠC aptain
Ġwe ighing
Ġh ood
Ġcool ed
Ġcomple ting
Ġsnow y
Ġinc hes
ĠP uppy
ion a
Ġwh ined
Ġw rench
p it
ĠChe ss
Al right
Ġunst uck
eth os
ant ha
Ġst ethos
ĠP en
isc uit
ĠR oo
Ġsmart est
Sh aring
ĠR alph
Ġpl ucked
Ġbush y
Ġtrust y
ĠN ear
Ġs ens
Ġgener osity
Ġatt itude
Ġant lers
ĠUn iversity
K im
Ġshr ank
Ġcongratul ated
Ġfill s
ĠT e
immer ing
Ġwound s
Ġsque aked
ort h
Ġstuff ing
Ġspit s
Ġneighb ours
K iki
p iece
Ġlull aby
Ġyou n
Ġexper ien
Ġyoun gest
arl ings
K atie
Ġd arlings
ĠChr is
z oom
d es
be h
ik y
Ġfor m
ur ity
on ut
Ġset s
end ant
Ġfil es
be ep
Ġhis s
Ġcudd les
Ġcream s
Ġscoop s
Ġstethos cope
Ġmesmer ized
Ġfa cing
Ġpound s
Ġcut ter
th a
Ġsweet er
Ġcoc onut
ast y
Ġunderstand s
Ġsick er
Ġotter s
ĠTo oth
Ġgrand father
ĠN ut
B ee
an cy
Ġgrass h
ĠD ra
J azz
Ġnuzz led
Ġsweat ers
nt il
Ġcare s
Ġwra pper
Ġ Okay
Ġteacher s
Ġtri pping
f ound
Ġpo pping
ĠBr uce
bo ards
Y esterday
H oot
Ġre bu
Ġoutfit s
Ġchat ted
Ġpadd ling
ĠRob bie
Ġsec urity
ĠR az
se ed
c up
Ġple aded
ĠSh adow
c al
Ġf aded
ĠH olly
Ġal ley
ĠJo lly
Ġpl ugged
Ġact ivity
Ġreal izing
Ġcond ition
Ġban ged
an na
Ġwar ri
Ġr ays
Ġforest s
Ġbird seed
per ate
y l
S low
Ġtid ied
Ġscra pe
Tw o
Ġsway ing
Ġlook out
Ġhome less
Ġpl ug
Ġconsider ate
Ġcricket s
K ids
Ġstur dy
ĠZ oey
ĠPl aying
ild a
Ġund one
ĠMay a
ine ma
Ġthrough out
Ġpick les
Ġl imp
Ġdeser ved
Ġun able
Ġtr ading
ĠW in
mel ia
ent r
uff in
en ing
Ġwin ners
Ġtast iest
Ġ ill
S pe
Ġwis er
Ġgrassh opper
Ġg room
Ġcour t
Ġc inema
ĠTim e
Ġsm ashed
Ġpuzz led
etch up
Ġterri fied
Ġsprink le
Ġsc amp
Ġgarden s
Ġsoon er
Ġdes pite
ĠB ally
o f
Ġd ial
Ġconc entr
Ġsp ies
Ġs ly
Ġfashion able
ĠC D
Ġty pes
Ġh udd
Ġg onna
Ġche ating
w ar
u el
b ank
Ġmind ing
Ġk illed
ĠSh ark
l ish
Ġca ges
c a
Ġneck s
Ġgro an
Ġm unched
Ġany ways
Ġspell ing
Ġsack s
ĠT oys
mb ur
Ġsway ed
Ġdisappear ing
Ġsty les
Ġstamp ed
Ġmess ages
Ġburn s
Ġant ic
Ġha mbur
Ġduck ie
- -
Ġcrocod iles
ĠBug s
Ġk etchup
Ġactor s
Ġmill er
Ġastronaut s
ĠMar tha
on nie
Ġstructure s
B l
Ġkind er
em ies
Ġen emies
Ġcur sed
it a
C ra
Be ware
Ġtrave lled
Ġencount ered
Ġchar m
Ġrecommend ation
Ġgu ards
Ġexp ert
Ġopp os
Ġmaster piece
Ġdifferent ly
re y
Ġcowb oys
Z ara
Ġt umbled
B y
Ġwelcom ing
Ġdo ck
ĠMix y
Ġstret ches
Ġexperien ced
Ġcrow ded
Ġdet ect
Ġcar n
Ġbl ades
ĠTh under
Blue y
Ġtow ard
Ġelectric ity
Ġcomput ers
Ġstu bbed
ĠW iggles
Ġwarm ly
Ġsun bur
Ġab ility
Ġnew found
Ġham m
Ġt ing
Ġoppos ite
ĠP h
Ġwait ress
Ġspoil ing
Ġshoo ed
ĠChew y
Ġtipto es
ĠN avy
D avid
Ġrec order
Ġinstr ument
ĠW endy
Ġdoll y
Ġexpec ting
ĠB ang
ell ow
Ġrow ing
ick ing
B ow
Ġh ind
Ġchallen ged
Ġpo se
Ġs uck
Ġdec l
Ġche ers
f ive
Ġend ings
Ġcur l
Ġthr one
Ġr oo
Ġpin ec
mb ers
Ġme mbers
ĠS imon
Ġtank s
ĠW ait
ĠHelp ing
o ff
f us
Ġtodd ler
ven ir
Ġdod ged
Ġcarn ival
Ġsou venir
Ġcon qu
ĠM int
Be hind
Ġsp y
Ġs inking
ĠK ip
Ġnight stand
Ġbec omes
ĠS ay
Ġsoap y
in ite
D anger
Ġnight light
Ġretri e
ĠG us
r ons
ie ve
an ish
Ġunl o
Ġobey ed
Ġstri ps
ĠJu dge
Ġspear s
ĠTig er
Ġunwra pped
Ġpeck ing
om b
Ġsp iky
ĠT ess
ĠB ad
or gan
Ġhudd led
Ġap rons
Ġwhist les
Ġregular ly
Ġduck ies
ĠAb i
sc ar
is bee
T ony
ĠB ra
inite ly
Ġexam s
Ġbra ins
Ġm ashed
Ġjoin s
ĠI ce
et ah
B ack
ĠA na
Bird y
ĠDo es
T oo
Ġretrie ved
Ġar re
ĠL ia
ur n
ac y
Ġpost ers
Ġenjoy able
ver se
Ġyumm iest
end ed
Ġche etah
Ġca f
M agic
g ger
and a
Ġcomp romise
ĠA nytime
year s
Ġca ps
Ġnight s
u ries
Ġriver bank
Ġdoor way
Ġmug s
ĠY oga
ĠJo jo
B rrr
Ġrebu ild
Ġcoug hed
Ġcan v
Ġweb s
Ġtr ot
Ġheav ily
Ġcomet s
ĠSt e
Ġtri gger
Ġannoy ing
Ġperform ers
Ġcar ve
Ġstern ly
Ġst all
Ġmel ody
Ġbo il
Ġt ilted
ott e
Ġr umbling
ĠJu dy
re verse
Ġsurf ed
Ġroll er
ĠHer b
oo sh
ac ing
Ġkn it
Ġfor med
ĠU ntil
T illy
Ġsimp ly
Ġsne aking
Ġquack ing
Ġflo ppy
Ġbeak s
w elcome
j est
R ock
R a
Ġg ap
Ġser vice
ĠT ri
ĠMar ie
ĠAl though
col ored
Ġweight s
Ġmo ld
oc ular
i el
ĠS adie
arl otte
Ġexplain s
Ġbin ocular
ĠBl inky
il i
Ġvisit s
Ġreapp ear
Ġhun ger
ec ca
Ġcanv as
Ġde v
Ġopportun ity
ĠAl i
ud ged
ar ted
Ġsqu ish
Ġfun n
Ġdes cri
Pe ople
ĠAng el
Be ing
ĠRain bow
Ġscen ery
bb ly
Ġgo d
Ġbuild er
Th omas
Ġquar re
Ġexplain ing
A rrr
Ġdifference s
Ġtrouble s
Ġcompet e
ĠT aking
a bby
Ġgoo ey
Ġcomm otion
Ġscamp ered
Ġdiscover ies
ĠL i
.' "
Ġsick ness
Ġmail ing
ĠOt to
ĠB ub
r ily
iv ia
Ġharm ful
ĠM abel
g ood
Ġrail s
Ġdef initely
Ġbright est
Ġmove ments
Ġscared y
Ġmeow s
Ġsteer ing
Ġp asses
Ġfis hes
ĠRaz or
f lies
ĠEvery body
M ira
Ġfan c
Ġcompliment ed
ĠM ust
ĠJan ie
Ġon ward
Ġloud est
Ġarr anged
Ġown ing
Ġflap s
end ing
Ġzoom s
Ġapolog ised
Ġreward ing
ĠMo ley
Ġpurr s
Ġfr isbee
Ġbo oth
ĠM uffin
in ny
Ġf aint
ĠL oop
at ive
Ġwarm ed
Ġexpress ion
Ġcr ushed
Ã ©
Ġcop s
ĠB iggy
sh adow
Ġoccas ion
Ġl ur
Ġintere st
ĠTuesday s
Ġrun ny
Ġpar ted
ĠSh are
B C
Ġskirt s
Ġbinocular s
Ġph ones
Ġbo nd
ĠMon ster
Ġjug gle
ĠJ elly
j ust
Ġrid dle
Ġdessert s
Ġhum ming
Ġcar ries
ĠA BC
C he
Bu bba
Ġpress ing
ĠM ichael
Ġrespond ed
Ġobedient ly
Ġfin al
ell ing
Ġalligator s
ĠB umpy
O live
Ġn asty
Ġmean ing
Ġbad ger
wh at
r ough
er ing
Ġt ro
Ġgood ness
Ġtick ing
Ġsw ap
ĠB ess
om p
im ents
Ġcustom er
Ġreact ion
ĠB el
h ole
P oor
Ġse ver
ĠLight ning
Ġfl ashed
as ers
Sh rink
Ġsever al
Ġex amp
Ġbo iling
Ġtop s
Ġb omb
Ġcon str
ĠR uff
h ow
Ġconn ect
ĠN e
ĠMust ache
Ġbounce s
ĠRe ady
pec t
L iz
Ġwr ink
Ġcrawl s
ĠB arry
ĠA r
ĠMe g
u um
Ġgas p
ĠD espite
Ab igail
Ġsnap s
ĠTo dd
Ġvac uum
Ġimpro ving
Ġaff ect
ĠR usty
e vin
Ġsmooth ie
ĠC urious
ĠV room
w orking
Ġp ouch
Ġho ot
Ġa id
Ġorder ing
Ġliz ards
ĠFl ick
Ġre el
Ġdragon fly
Ġca fe
ĠM innie
Ġtick les
Ġscold s
L ena
Ġso ot
Ġcr isp
ĠM indy
ĠP ig
Ġantic ip
o ison
s se
St eve
ĠTr uck
Ġwhe ther
Ġpresent ed
ĠM s
as hes
an tern
A dam
Ġright ful
Ġle ap
Ġdev ast
Ġspace s
Ġre sol
Ġatt em
ord inary
Ġca w
ĠEx cited
Ġroo ster
Ġdri p
Ġer asers
Ġc uc
Ġbump ing
Ġapp l
v y
F ire
Spe edy
Ġmyster ies
Ġfo am
ĠWh ich
ĠMo le
ĠD ina
ar oni
an ie
Ġexamp le
ĠR icky
Me anwhile
Ġpilot s
Ġdevast ated
Look s
Ġjump er
Ġchalk s
b l
ss ss
S qu
Ġstain s
ĠT re
oph one
Fin ny
Ġer upt
ĠP ine
ul a
izz es
Ġspray s
ĠSw im
C indy
Ġsh allow
Ġiron ing
Ġchallen ges
H annah
Ġbat hed
by es
F riends
Ġpo llen
ib i
Ġmac aroni
ĠP retty
Ġgr ump
ĠF iona
y d
Ġmagnif ying
Ġle apt
Ġkangaroo s
Ġgroan ed
ĠO scar
em on
Ġun co
Ġembarrass ing
Ġche cks
Ġgood byes
Ġbroom stick
ĠBird s
er ris
P hew
Ġmind ful
Ġimagination s
J amie
Ġni bbling
s ers
M ad
Ġt ips
Ġtw enty
Ġr umbled
art led
But ter
cl oth
Ġchat ting
ĠM agic
z o
Ġmo ons
Ġflow ed
ĠK aren
Ġde ars
Ġcomp ared
ĠJack ie
I magine
al thy
Ġout sm
Ġqu izzes
Ġlace s
Ġinj uries
Ġwarri or
Ġar my
in ner
Ġsa x
Ġpri v
Ġpo sse
Ġlur king
Ġsure ly
Ġcomp an
Ġchar ged
ĠR ino
ĠP op
Ġstroll er
Ġprotect ion
Ġpoin ter
Ġapolog y
Tr ust
Rob by
cut ter
Ġnear ly
Ġla pt
Ġdet ails
iv i
Ġfan s
Ġbu bbly
ĠJack y
Ġanticip ation
Ġdecl ared
ĠRo ger
Ġrod s
ĠR ibbit
Ġ 9
F ind
Ġadd s
ĠR ia
' ,
Ġta co
Ġal though
ĠR h
it s
ic ious
Ġthread s
Ġt in
Ġmed als
Ġhoo ves
Ġglow s
Ġown s
Ġmusician s
Ġforgive s
Ġadmir ation
ĠRu fus
ra p
Ġposse ss
Ġpinec one
Ġallow ing
Ġreveal ing
ĠF ly
Ġhar vest
oo king
Ġwood cutter
Ġsand pit
Ġnew ly
ĠDave y
ic s
ĠFl appy
Ġra ked
Ġon line
Ġdesk s
Ġobst acle
Ġconstr uction
Ġchain s
ie ves
Ġsh all
ust er
Ġadventure r
Ġsniff led
Ġpro cess
Ġfarm ers
ĠR el
ouse l
Ġlapt op
M ouse
Ġwh ine
stri ches
ook s
g iving
ĠDra gon
ĠA melia
ri an
Ah oy
Ġtrain ing
Ġj ing
Ġcous ins
Ġcar ousel
ĠH ug
iss a
Out side
Ġhand y
Ġextra ordinary
Ġdri pped
Is n
Ġowl s
Ġfa il
Ġd ing
Ġais les
Ġinj ured
Ġinclu des
R ain
Ġth ieves
Ġraincoat s
m o
B all
Ġinvit es
ĠZ ipper
ill as
N ever
keep ers
Ġcheer fully
Ġwr iter
ĠY ellow
ĠJ umpy
ro pe
C urious
sh op
Ġcomm on
Ġch in
ĠEl iz
ĠCro cod
ĠC ari
Ġfa ith
M ake
Ġhard est
Ġspell ed
Ġappl ause
ĠSpe ed
B o
Ġdisagre ement
ĠSt an
Ġprotect or
Ġch ili
C la
Ġunf air
Ġbl ond
E l
Ġso da
Ġslither ing
Ġdisagree ing
Ġbat s
Ġthumb s
Ġcaf Ã©
ing er
Ġp oop
al ity
Ġnet s
ir i
bble s
ĠN ever
Ġcompan ion
Ġtight rope
Ġholid ays
Ġclub s
Ġac rob
ĠF urry
ra ged
Ġpat ches
Ġclean s
Ġadm it
l or
Ġsign al
Ġsax ophone
Ġmoon light
in ted
Ġtexture s
Ġba it
ut ions
illi am
Pl aying
On ly
B ounce
Ġd ia
Ġbirthday s
Ġstri king
Ġpain ful
ĠC andy
Ġsol utions
itc her
Ġunder water
Ġretri eve
ĠN urse
Sp idey
Ġbru ises
Ġattem pt
Ġspeak er
Ġfly er
ow ing
m unk
d og
L izzy
Ġrid er
Ġdo ves
io let
E lly
Ġste w
Ġch ugged
H oney
Ġhe els
Ġequ ally
ĠSam antha
Ġshare s
f ield
Ġunlock ing
Ġguit ars
ĠSm oke
ĠHe llo
che ck
Ġo dd
Ġwork shop
Ġop t
Ġbo ards
ĠD ay
p an
Ġzoo keepers
Ġpan icking
Ġp itcher
c ie
Sh ould
Ġw ig
Ġsens ation
ĠB ibi
ĠA choo
p r
ant astic
Ġun ne
Ġde ck
m atch
Ġserious ly
ĠMad die
ĠâĢ Ķ
ĠR uth
Ġskin ny
ĠA pp
Ġsince re
Ġaccept ing
ĠU se
ĠABC s
N ear
B oth
Ġmat s
Ġd ate
ĠF el
a e
ĠD e
is ible
Ġwas hes
ĠV ivi
mand a
Ġunne cessary
Ġsc ience
Ġcan ce
ou raged
Ch loe
Ġad op
ĠP ink
ĠOl ivia
ow ers
Ġinv isible
sh irt
m ill
Ġtrot ted
Ġreal izes
Ġevent s
ĠPl us
is her
S un
Ġinj ury
Ġem b
ĠF le
c r
Ġvi br
Ġtr an
Ġsn apping
Ġne ighed
ĠO ff
Ġmay or
Ġcontin uing
J ess
Ġpad s
Ġaw ful
get ic
Ġstory book
Ġdeser ves
un o
ra nd
Ġscr am
ĠM ore
Ġprom ising
ĠR ita
e at
Ġresol ved
Ġdust ed
ĠSof ty
G row
Ġproper ty
Ġintellig ence
Ġboard ed
ĠM ine
Jo sh
Ġtown s
Ġcomb ing
Ra bbit
Ġkn itting
Ġchip munk
S ince
ĠY awn
b un
s n
Ġinf orm
Ġgor illas
Ġfore shadow
ĠThanks giving
Ġ 4
us hes
me ow
T ree
Ġlecture s
ĠMe gan
ĠDot ty
T una
Ġle vel
Ġbow ing
ĠWednesday s
ĠP uffy
ĠM ina
ĠC ook
id y
ĠTom orrow
ash a
Ch ick
Ġr ack
ĠE va
ĠE ating
ĠA ny
ĠSof ia
ĠLou ise
ĠFl o
m ate
g r
Fro ggy
D r
Ġjud ged
Ġfrustr ation
Ġco sy
ĠJ et
Ġl im
Ġl il
Ġbeam ing
r it
ĠCl ucky
ĠCl own
Ġcap ture
ĠB ar
Ġscen e
Ġf antastic
ĠT oo
i ant
Ġtr im
Ġsle igh
h orse
Not hing
Ġrul ed
Ġro yal
Ġsuccess fully
h and
, '
Ġb ased
ĠS al
m ade
Tw inkle
Ġclothes line
ĠM other
O O
Ġwhimp ered
Ġun less
Ġtro ll
Ġpudd ing
ger y
Ġtrave lling
Ġo striches
ĠMiss ile
ic i
Ġroast ed
ĠCl ose
Ġpro d
Ġshot s
Ġsepar ating
Ġpe ep
Ġaw oke
g ain
Ġwind ing
Ġinst antly
Ġcare free
ĠPat ty
b ec
Ġscram bled
Ġp apa
ĠEl le
Ġst ained
Ġpar ades
Ġdisappoint ment
ch ing
When ever
Ġvest s
Ġknob s
Ġhis sing
Ġr is
Ġpark ing
Ġlight ing
Ġho st
Ġbr akes
ĠB onnie
em ma
Ġsunbur n
Ġb as
ĠCh arlotte
Ġs ite
Ġcrisp y
ĠBo zo
S plash
Ġs us
Ġmar ve
Ġham ster
Ġfin ishes
Ġcart s
ĠM aisy
aw k
Ġth ump
Ġsur gery
ĠOther wise
R achel
Ġintroduc ing
Ġbo iled
s orry
eb ecca
Ġdog gie
Ġne cessary
ri ck
izz a
Ġf ade
ĠS il
Ġ ouch
y ler
Ġwo ken
Ġsque aky
Ġservant s
Ġscri bbled
Ġhipp os
Ġfeather ed
ve re
Ġwor st
Ġbar bec
el ope
Cl ose
Ġrever sing
ath an
aid s
Ġexper iment
Ġbend ing
ĠSp ider
ĠH i
ed ic
Ġsleep s
Ġpedal ing
ĠJ ax
M other
Ġlil ies
Ġcord s
Ġas hes
Ġang rily
ĠCl oud
Ġsharp en
Ġcho ke
Ġn arrow
Ġdisc ouraged
Ġbl ush
ĠB ingo
Ġsupply ing
Ġf et
Ġcal f
ĠAn imal
A w
Ġtent s
th at
Su zy
Jul ie
Ġsnowfl ake
Ġbend s
et tle
Ġle vers
Ġcl im
ĠEl sa
Ow l
Ġport al
Ġen emy
Ġdirt ier
com b
J e
Ġsa v
ĠK aty
Ġhoney comb
ĠL ife
g ar
Ġcrack er
Ġch ill
Ġca ution
ĠSn ake
ĠC ars
Ġpizz as
ir affe
u dy
B eth
Ġass ist
ĠZ ack
Ġocean s
Ġmelt s
Ġduck lings
ĠV icky
W oo
Ġtrust s
Ġt ippy
Ġf if
Ġexper iments
Ġrec ipes
Ġluck iest
Ġcart on
ĠCrocod ile
Ġarre sted
ĠK evin
b ed
Ġskate board
ĠB uster
i ara
Ġcudd ling
ss y
Ġwater s
Ġdisobey ed
ĠSp anish
ĠRob in
ork y
Ġquarre lling
Ġbarbec ue
ĠS ing
Ġsee king
Ġhalf way
Ġdetect ive
ĠD uke
ri e
Ġsnow ing
Ġscientist s
Ġmush y
Ġconflict s
ĠL uc
os ure
P apa
Ġtable cloth
Ġpearl s
Ġkey hole
Ġhis ses
sm elling
p op
am il
Ġspeed y
Ġmis ty
Ġfree ing
Ġcro aked
ĠP ick
Ġst itched
Ġsle eve
Ġb less
Ġband aid
ber ry
R ay
Ġsh aker
Ġclim ber
ĠJo ke
Ġsn ug
Ġpistol s
ĠM ath
A bby
Ġperform er
Ġl ar
ĠM oppy
E at
Ġtemp ted
