Ġ t
Ġ a
h e
i n
r e
Ġt he
o n
e r
Ġ s
Ġ w
a t
Ġ o
e n
Ġ c
i t
i s
a n
o r
Ġ b
e s
e d
Ġ f
in g
Ġ p
o u
Ġa n
a l
Ġt o
a r
Ġ m
Ġ in
Ġo f
Ġ h
Ġ d
â Ģ
a s
i c
Ġan d
Ġt h
l e
o m
i on
l l
en t
Ġ n
Ġ l
Ġ re
s t
v e
l y
Ġ e
r o
Ġb e
Ġ g
i d
u t
a c
o t
Ġ T
Ġ I
Ġth at
Ġ on
a y
Ġ S
Ġ is
e t
i m
a m
a d
o w
s e
i g
Ġf or
âĢ Ļ
Ġ A
v er
u r
c t
l d
Ġ C
Ġ u
Ġs t
Ġ y
Ġ it
Ġ he
i r
at ion
it h
Ġw h
Ġ M
c e
t er
o l
Ġw e
i l
Ġw ith
Ġa s
Ġ B
c h
i ll
n d
Ġ P
Ġw as
Ġy ou
er s
k e
Ġ âĢ
Ġc on
Ġd e
Ġ r
he r
i f
at e
Ġa t
a g
Ġh a
Ġ W
Ġs e
Ġ H
o re
Ġp ro
u l
p p
m ent
r i
Ġa re
Ġ D
es t
Ġ 1
u s
is t
Ġc om
an d
Ġ R
o p
a in
ĠT he
Ġ 2
ig h
r om
Ġ (
or t
o d
Ġn e
Ġ F
u n
u m
Ġe x
re s
a b
âĢ Ŀ
Ġn ot
Ġ N
Ġ v
es s
Ġha ve
it y
ou ld
e m
Ġo r
t h
Ġb y
o s
an t
Ġ G
i ve
Ġf rom
Ġa l
e l
' s
o c
Ġs u
ar t
Ġ L
Ġs h
Ġth is
n t
q u
igh t
p e
u st
Ġ le
Ġ E
i es
en d
Ġc h
Ġs a
ou t
Ġa b
T he
al l
i e
ac k
0 0
re d
ĠâĢ ľ
Ġh as
al ly
Ġ J
Ġp l
Ġg o
ar d
i v
om e
Ġh is
a p
g h
o st
e ar
Ġ O
ou r
Ġt r
as t
Ġ j
a k
u d
Ġd o
Ġthe y
Ġb ut
Ġw or
r ou
Ġc an
g e
Ġw ill
Ġsa id
Ġw he
Ġ U
Ġ k
ic h
Ġa ll
o k
Ġ "
Ġwh o
id e
Ġin t
am e
an s
t her
i al
Ġo ut
Ġthe ir
f f
on g
e ct
p l
ic e
p t
u re
on e
Ġm ore
ag e
ion s
ac t
i ke
Ġm e
Ġu p
ou s
in e
Ġa d
Ġab out
at ed
r a
b er
Ġon e
Ġwe re
Ġs o
Ġu s
o g
im e
Ġ K
e p
Ġh ad
i a
a re
u b
c c
Ġw ould
Ġ2 0
Ġc l
Ġ im
in d
Ġwh ich
a ke
u e
Ġcon t
i z
ver y
Ġa g
Ġt e
Ġof f
Ġcom p
Ġu n
Ġbe en
ĠS t
Ġ en
s o
p er
a u
ig n
ĠT h
ar y
ac e
i p
Ġy ear
e w
Ġl ike
e re
v en
o ok
Ġin c
ay s
Ġm an
Ġp e
r y
o se
Ġre s
it e
Ġp er
ab le
as s
or d
Ġs p
i re
Ġo ther
ĠI n
m er
Ġs ome
i le
i b
en ce
op le
Ġ20 1
k s
ation s
Ġo ver
Ġthe re
ic al
res s
Ġd is
ul t
in t
Ġne w
ow n
Ġth an
Ġal so
Ġa r
Ġbe c
Ġthe m
an ce
r u
ou gh
ou nt
p ort
Ġa pp
Ġyou r
a il
Ġp art
Ġwhe n
Ġwh at
re e
on d
or m
Ġpe ople
Ġs c
f ter
a v
as e
Ġ qu
ĠC h
Ġan y
Ġj ust
Ġ Y
Ġit s
ac h
Ġt ime
ĠI t
Ġk n
Ġhe r
Ġ 3
en s
l ic
Ġm y
Ġre c
re at
Ġg et
Ġ if
Ġ V
. âĢĿ
i an
Ġint o
Ġwor k
ou nd
Ġt w
ir st
ve l
Ġn o
ct ion
d u
ing s
or y
ic k
Ġo ur
it ion
id ent
or s
o b
Ġ -
Ġp re
o ve
an g
Ġpl ay
in k
w n
au se
am p
t e
ad e
h ing
at es
ar k
Ġ ro
Ġs he
Ġp ol
ver s
Ġc o
Ġa fter
, âĢĿ
n e
Ġc ould
Ġf irst
Ġh ow
ĠH e
Ġ1 9
i ous
Ġa cc
nd er
Ġh im
' t
i ld
on s
a w
Ġp o
Ġon ly
Ġf e
Ġat t
ic t
he d
Ġp r
Ġtw o
r it
o v
is h
Ġcom m
Ġs pe
âĢ ľ
f orm
Ġa ct
w e
er v
Ġb l
f t
Ġbe t
Ġde c
. "
n ing
Ġb ack
c es
Ġm ost
o od
c k
ĠâĢ ĵ
Ġa m
o y
Ġd id
if f
rou gh
rou nd
at er
Ġag ain
Ġ 4
u al
d ay
is e
Ġw ant
Ġd es
Ġu nder
. .
se l
u ll
Ġcon s
Ġbec ause
ĠâĢ Ķ
Ġn ow
l ud
ent s
Ġyear s
m an
ub lic
Ġne ed
ter n
e c
Ġ $
Ġe ven
is s
Ġin v
Ġkn ow
ĠW e
Ġse e
ment s
t ing
Ġad d
, "
c ed
o ld
Ġin d
Ġse c
f ore
Ġe very
u ch
ur n
Ġ 5
Ġm ake
Ġsu pp
pe ct
oc k
Ġe m
Ġthe se
ĠU n
o ll
j ect
Ġwhe re
I n
ation al
ver n
x t
Ġb u
Ġl ook
T h
ĠA nd
os s
Ġd on
um p
Ġe v
Ġw ay
at ing
Ġr ight
Ġbe ing
Ġre m
i ly
n g
Ġm ay
ro w
le ct
Ġthe n
Ġman y
ie w
Ġd iff
Ġre l
Ġde f
as on
ĠB ut
Ġc all
Ġ [
ĠT r
on t
Ġth ink
i ed
as ed
Ġinc lud
l es
ak ing
mer ic
Ġre g
) .
Ġim p
Ġth rough
ri b
at h
it ed
Ġsh ould
Ġs y
Ġs ay
Ġf l
Ġp res
ur ing
Ġl ast
Ġ very
e ll
Ġth ose
t y
ow er
ot her
Ġm uch
if ic
it ies
Ġst ate
ĠTh is
t le
s s
at ive
Ġsh ow
he n
Ġb r
ar g
Ġwe ll
ot h
ĠW h
Ġp h
- -
Ġc ount
Ġdo es
al s
u nd
Ġo wn
Ġd own
Ġ end
ar ly
Ġbe l
ic s
Ġ2 00
Ġu se
Ġas s
an ge
t s
ĠA meric
Ġl ong
ter s
in ce
Ġbe fore
om et
g r
w ard
Ġm on
Ġgo vern
ib le
Ġst art
Ġre port
u p
Ġ ke
u es
ĠN ew
Ġf in
Ġte am
b le
if e
Ġm ade
ol og
) ,
en er
Ġsu ch
re n
ou n
c om
i x
ers on
âĢ Ķ
Ġs m
l p
Ġgo ing
il ity
e k
is m
Ġwor ld
f ul
u ally
ist s
Ġst ud
Ġgo od
Ġa c
t ain
I t
Ġsu b
Ġe ff
Ġs ur
Ġagain st
Ġg ame
it s
Ġs et
or k
Ġ 6
Ġg u
Ġpo int
Ġ ent
y s
g an
00 0
ar s
st em
l i
Ġpro v
Ġst ill
rou p
Ġwh ile
Ġhe lp
ill ion
Ġle ad
we en
Ġm in
a x
e f
an k
m s
al k
Ġo b
im es
c y
Ġs ays
Ġpro du
Ġg r
Ġin st
Ġin ter
Ġst r
c ess
Ġs im
sel f
Ġcon f
i o
Ġc ol
Ġt ake
Ġs ame
u res
Ġth ough
ar ch
Ġbet ween
Ġdiff ere
Ġc r
e ver
oll ow
Ġoff ic
us s
o ol
Ġdis c
l and
a h
ut ion
Ġo p
re ad
a ir
Ġh igh
Ġ ed
Ġn um
Ġs ign
Ġl aw
w ay
ĠR e
Ġgovern ment
g g
n er
h ip
l ed
am es
at ch
he s
an y
c ent
Ġt er
Ġs omet
t ed
Ġre f
vel op
W e
Ġtr ans
Ġin s
t en
Ġr un
Ġs er
Ġf ound
Ġa round
iv es
Ġhe re
Ġth ree
a ve
Ġm em
at her
Ġm ed
Ġre al
ou se
Ġus ed
ĠY ou
v ed
Ġ1 0
Ġex p
a z
ĠA r
ce pt
o ot
Ġsy stem
c i
Ġre ally
v ing
Ġm od
c on
Ġsupp ort
Ġg roup
c er
Ġc our
Ġ 7
et s
al e
in s
Ġh and
Ġre t
Ġp ublic
ĠL e
Ġspe c
p r
y ing
Ġg reat
en se
Ġc ar
Ġex t
t on
Ġc ur
Ġf am
ire ct
al th
ĠC om
. [
Ġha pp
Ġw om
Ġf act
ĠTr ump
Ġex per
ĠI s
Ġf r
ĠThe y
p h
Ġb oth
Ġc ap
Ġd ay
Ġf ind
Ġre ad
Ġl it
ĠA l
ul ar
in es
o h
Ġre p
ut h
Ġd et
ic es
Ġs l
Ġd uring
e red
ĠS h
ĠA s
Ġc re
Ġb ig
t he
m in
Ġmon th
is ion
Ġs erv
Ġde velop
ak es
Ġp erson
Ġ 8
Ġf ollow
Ġis s
Ġto ld
ĠC l
Ġs ince
Ġ 0
ic ally
e x
a red
m ed
ag es
Ġwe ek
Ġw ar
Ġf ew
i vers
ort h
Ġc ent
ord ing
Ġle g
Ġpol it
a j
g et
v es
as h
Ġex pl
Ġl ot
Ġbel ie
ĠS e
Ġto o
Ġg ener
r ic
Ġo pp
d er
Ġ 9
re nt
at a
W h
Ġcont in
i et
Ġre qu
Ġpro t
Ġf il
an c
b ers
ent ion
n ess
Ġp ut
Ġc le
iz ed
Ġres p
ĠI f
Ġan other
Ġin f
Ġsomet hing
ch ool
Ġdiffere nt
Ġc or
2 0
Ġl oc
ĠD e
ut e
Ġinv est
Ġs oc
Ġc he
u c
Ġp ower
Ġ '
ĠF r
Ġcomm un
Ġp ass
Ġar t
Ġpl an
Ġl ife
i ence
Ġhe ad
od y
Ġth ings
Ġre le
n ed
Ġf ar
th ing
o x
Ġm et
Ġp oss
Ġv ot
ro ss
ere st
Ġc amp
Th is
ar ge
i er
v iew
ant s
Ġm ight
Ġas k
iz e
Ġde p
Ġe ach
in ess
Ġne ver
Ġch ild
Ġne xt
i k
ie ld
Ġsec ond
Ġqu est
Ġ .
ĠA n
Ġad v
Ġm ark
Ġb us
ĠF or
Ġde m
Ġcom e
Ġg ot
t t
ĠâĢ ĺ
Ġb est
i ent
Ġall ow
Ġop en
it al
ĠTh at
Ġse em
ĠU S
n ce
p le
Ġfe el
r at
ĠP ro
Ġp ost
Ġper cent
gr am
Ġp ri
u g
Ġh ome
c l
Ġd irect
Ġd ist
i red
Ġinc re
s on
Ġcont ro
ĠR ep
or n
l ess
os ed
Ġres ult
Ġh ard
Ġc are
Ġcomp le
ate ly
Ġpl ace
Ġim port
Ġwith out
Ġa v
Ġm illion
ch n
Ġinclud ing
Ġin form
Ġh um
con om
Ġ ide
Ġpro ble
am a
Ġto p
Ġbu ild
Ġnum ber
g y
ĠB l
a im
Ġcount ry
one y
re t
Ġst and
ab ly
r al
Ġg l
u ro
ri end
is hed
Ġf our
Ġe l
Ġbet ter
c o
w ays
Ġpart ic
Ġrec ent
Ġt ri
Ġm ov
B ut
Ġle t
Ġint erest
r ation
Ġl ess
Ġlit tle
Ġt urn
e ad
Ġse ason
Ġapp ro
Ġbe h
l ing
Ġb ro
l ine
Ġcall ed
1 0
r act
Ġm il
is ed
Ġc ase
a pp
Ġd r
Ġatt ack
ĠI nd
Ġre st
Ġp op
en cy
Ġan n
Ġle ft
Ġm ove
Ġke ep
Ġ Z
ĠThe re
od e
Ġdid n
in a
Ġf ull
er ing
b e
Ġm ain
Ġf un
aj or
in al
m e
Ġeff ect
Ġpre v
Ġt est
le g
Ġpro gram
Ġus ing
at ure
t o
Ġp ay
Ġv al
Ġe ar
_ _
Ġpol ice
Ġw rit
Ġfor m
Ġe conom
Ġp os
Ġnew s
Ġd ata
Ġw in
ĠAmeric an
Ġs it
Ġle vel
Ġch ar
ain s
iv ing
in ed
read y
Ġsm all
u ck
Ġl ist
H e
Ġs chool
olog y
r ap
m it
id ed
' re
g er
pl oy
Ġe as
Ġpro cess
ir d
Ġwom en
Ġch ange
re en
Ġh ist
Ġcur rent
Ġp rom
i ans
Ġre ce
Ġd ri
Ġcomp any
Ġpres ident
ĠS o
us ed
oh n
Ġal ready
Ġm at
ru ct
Ġt y
ĠUn ited
Ġ =
w it
Ġb re
Ġwh y
Ġu nt
Ġal ways
Ġs ol
Ġex pect
Ġm oney
Ġl ater
ĠH ow
ĠO b
Ġte chn
Ġbus iness
r on
Ġb ook
Ġ Q
Ġoffic ial
st and
Ġcl ass
Ġth ing
Ġpro ject
Ġb o
Ġj ob
as es
ivers ity
Ġcl aim
Ġor gan
ĠP h
ĠS he
a ign
Ġt alk
ard s
Ġinform ation
a ff
Ġdes ign
Ġpro f
Ġab le
ĠB e
Ġch ang
.. .
Ġm ajor
Ġst ory
iv en
le ction
Ġhe alth
Ġre se
er tain
Ġ- -
Ġp ast
Ġv is
he re
ur s
Ġf ree
ĠA d
ou th
pt ion
ĠC an
Ġa way
Ġo per
i or
Ġc ity
Ġm ust
s c
r ist
ur al
Ġ1 8
amp le
Ġhapp en
Ġimport ant
uth or
Ġs k
ur ity
ac y
Ġp at
ur y
Ġk ill
u red
Ġo ld
Ġdoes n
end ing
Ġle ast
Ġ est
Ġg row
iss ion
ain ed
Ġv ar
S t
Ġc ost
Ġte ll
id es
âĢ ¦
Ġm en
Ġed it
id er
Ġ1 2
el s
s ide
Ġh op
ne y
Ġd ays
Ġc ame
ĠG o
Ġst re
Ġcamp aign
Ġcon st
Ġen ough
Ġa ff
res ident
ĠM ar
Ġk ind
Ġm aking
cc ess
er n
Ġv iew
ĠS p
o ad
Ġm ar
5 0
Ġl arge
Ġfam ily
Ġrec ord
Ġf riend
us h
Ġe lect
Ġt ax
er al
Ġpol ic
le y
b y
al ity
r or
A s
is ing
at or
pp ed
Ġunt il
ion al
if ied
-- --
iv ed
Ġv ide
Ġpolit ical
e e
Ġde al
are nt
ri es
al f
au gh
Ġwork ing
Ġl ine
I f
u ed
Ġto ok
ĠRep ublic
b s
Ġde b
ĠJ ohn
Ġ ve
ain ing
Ġf ore
is ter
Ġa ir
an e
Ġ es
Ġbec ome
Ġact ually
Ġin tern
oc rat
i ol
Ġme an
em ber
ap s
w ork
on y
ĠS c
Ġf und
w are
ĠP l
ot t
Ġof ten
1 1
Ġfor mer
Ġg ive
an n
Ġe ver
ĠE uro
Ġw on
m ost
o int
Ġacc ording
en g
y ear
w h
Ġg ames
ar ing
Ġhum an
Ġwor d
Ġb as
is on
iz ation
Ġb it
Ġor der
Ġret urn
Ġt imes
Ġn ame
ĠR uss
g in
ĠD em
1 9
Ġde v
ĠA ll
Ġse ver
it her
ut ure
i qu
ĠM c
E R
f or
Ġp ar
ic le
ĠS y
Ġw r
Ġper form
Ġchar ac
ĠO r
The re
Ġmark et
Ġs ing
ra ft
ĠC on
Ġf ac
Ġdo ing
id d
ĠA t
Ġ19 9
ro p
Ġn ight
m ber
ĠM ay
Ġr a
Ġapp ear
Ġle ar
c hed
ak en
Ġplay ers
s h
Ġ ,
Ġto day
Ġl a
Ġ1 5
Ġha ving
Ġse en
Ġe arly
Ġev ent
Ġsoc ial
/ /
Ġp ot
ĠP resident
Ġmed ia
Ġchild ren
Ġwhe ther
Ġc rit
id ence
Ġcontro l
Ġsever al
Ġme et
at s
Ġsu re
Ġw ent
Ġp ress
Ġf ive
ious ly
art ment
en e
Ġpro p
Ġyou ng
Ġmil it
or ies
Ġe qu
Ġquest ion
i um
Ġlike ly
un e
Ġo cc
and s
Ġmem bers
ĠY ork
Ġen g
Ġc ertain
b r
Ġw ater
ot s
ver t
en n
Ġex ample
Ġd one
ĠC ol
Ġ vers
Ġar g
Ġs ide
Ġinv ol
le t
Ġsh ort
ĠSt ates
end ed
Ġsu ccess
Ġan t
Ġal ong
ĠEuro pe
ĠM r
ent ial
Ġh our
b all
i ally
A nd
i ver
Ġmonth s
Ġ1 1
em pt
l f
Ġdes c
Ġwith in
Ġse x
Ġcour se
ag ue
Ġf ight
u ff
ub l
st er
Ġon ce
ĠOb ama
Ġam ong
ul ation
im ate
ur ch
Ġact iv
re w
n ect
Ġf uture
it ing
Ġinvest ig
Ġunder stand
Ġposs ible
ort un
Ġcon cer
Ġch o
on es
ĠO n
Ġ ]
ĠB r
Ġme ans
gg est
Ġproble m
m y
Ġa uthor
Ġthough t
it ive
ĠC ar
Ġpri v
Ġv iol
our n
Ġav ail
ĠN o
Ġprodu ct
iv id
l er
Ġkn own
oc i
Ġn on
g ress
Ġy et
Ġh old
Ġac ross
Ġprot ect
al d
Ġloc al
1 2
Ġcommun ity
Ġ i
Ġf ail
in c
Ġre ason
ĠW hen
Ġsu ggest
ĠSt ate
ĠT e
Ġm akes
Ġor ig
Ġ &
âĢ ĵ
ver age
n ot
p or
Ġ201 6
b ack
Ġask ed
b ook
Y ou
or ld
ed eral
Ġg iven
ag ed
Ġreport ed
ens ive
Ġm us
i ber
Ġother s
Ġstr ong
Ġbelie ve
Ġpro b
Ġvide o
Ġget ting
Ġb en
ĠH ouse
Ġl ight
an ces
o ber
Ġann oun
Ġ3 0
it ions
Ġ ident
ore d
Ġc a
Ġs ent
Ġc ut
ir on
Ġl im
ĠC o
iet y
ĠCh rist
3 0
ĠUn iversity
Ġcon d
ur ther
Ġs our
Ġc reat
am s
as hing
' ve
am ent
Ġn et
Ġb at
Ġ X
re st
Ġn ational
Ġstart ed
Ġsa f
ar m
Ġcl ose
Ġl and
Ġ201 5
Ġavail able
F or
Ġde ath
as ter
. ,
Ġh ig
Ġind ust
Ġb ased
o f
Ġiss ue
res ent
Ġl ove
ĠDem ocrat
Ġl ow
Ġacc ount
u se
Ġfollow ing
Ġhist ory
Ġm om
Ġem ploy
ĠC ent
ĠM in
sel ves
Ġag o
ort s
ab ility
Ġcom es
e b
Ġtr ying
Ġpart y
u ment
Ġ #
Ġal most
ĠA m
u ly
Ġser ies
ut es
get her
Ġto gether
p ro
A T
Ġide a
ĠAmeric a
in ation
her s
Ġf oc
Ġacc ess
ĠF l
ie f
il ar
re ed
ail s
Ġis n
Ġcomm it
ition al
Ġcle ar
ĠS en
Ġ1 6
ĠWh at
Ġtr ad
Ġpr act
Ġadd ed
Ġimp ro
ere nce
r ing
Ġexper ience
th ough
ĠO ne
Ġfil m
1 5
a f
Ġh alf
g ed
ĠB ro
wit ter
Ġ201 4
Ġh it
ust om
un ch
Ġr ul
Ġlook ing
ivid ual
og rap
Ġs ix
ra el
Ġany thing
r ict
Ġl ive
Ġan al
Ġcomple te
Ġare a
int on
er man
min ist
Ġf av
Ġr is
Ġm iss
a i
ĠCom m
ĠE x
Ġpres ent
Ġsay ing
ot e
I N
n es
ra w
a id
ru g
Ġb ad
ĠCan ad
Ġv ict
ow s
ci ally
Ġb ill
u ge
Ġt aken
er t
ĠP r
Ġm or
Ġcour t
Ġent ire
at ors
Ġcomp et
e v
ĠE ng
Ġph ot
Ġtr y
Ġbeh ind
Ġa ut
' m
ĠT o
pl ay
Ġt re
Wh at
ward s
i en
Ġ1 4
Ġ z
Ġne ar
Ġ er
os p
Ġm ult
ĠP ol
Ġmilit ary
Ġsec urity
s y
Ġf ace
Ġpro per
Ġdisc uss
Ġ |
Ġr ather
Ġind ividual
Ġto t
Ġth reat
ĠD on
Ġsing le
Ġstud y
Ġm ind
ĠW ar
ĠB rit
Ġqu ick
ĠA f
tt p
Ġ Â
Ġp ubl
at ic
am ed
Ġwant ed
ir c
Ġf all
ĠS ec
ĠN orth
Ġm ess
ap er
A n
p ar
Ġpolic y
o ff
r is
al es
ĠM an
Ġsome one
le ment
Ġf ood
id s
Ġs um
ll ing
O n
Ġbl ack
Ġ /
Ġc ult
Ġspec ial
O N
Ġbr ing
Ġre du
ĠG r
Ġplay er
Ġ1 7
Ġcom b
Ġke y
p ly
Ġatt empt
Ġcomp an
Ġ1 3
ĠD ep
W hen
Ġt aking
ĠB ar
ĠN ational
if y
Ġf oot
1 6
* *
ol ution
el t
v iron
Ġel se
d d
Ġb ody
Ġpre t
Ġsp ace
ĠC al
Ġprob ably
ro te
g o
: //
ashing ton
Ġnot hing
Ġfr ont
R E
Ġc ou
ic ult
ĠW orld
ĠIs rael
. )
Ġrese arch
c hes
Ġcon nect
1 4
o ver
Ġcom ing
ĠI m
Ġs w
y n
ĠCl inton
ĠC ity
m ing
Ġpoint s
Ġhow ever
Ġdesc rib
Ġj o
c ing
a ult
re me
Ġsim ilar
Ġben ef
Ġ :
Ġe ither
li er
Ġsign ific
ull y
Ġdec ision
Ġc oun
ac es
S o
Ġex ist
ĠH ar
Ġm ass
ĠA ust
an a
Ġs us
Ġt arg
Th at
m b
I S
Ġim m
Ġfe at
Ġcon v
ir l
Ġh ouse
Ġen c
Ġright s
ĠS u
as ing
A N
Ġw a
Ġf urther
w w
un g
Ġch all
Ġd oc
Ġcre ate
Ġf ire
Ġw rote
s w
Ġ201 3
Ġb an
Ġserv ice
ro du
Ġf ig
Ġth ird
Ġre pl
Ġp ick
Ġst op
n ow
Ġcom pl
ĠW ith
ive ly
Ġbe gin
Ġf ield
Ġiss ues
a pe
Ġwho le
Ġrel ations
pp ing
Ġst ep
Ġsu per
ri ed
Ġseem s
Ġme as
Ġevery thing
ent ly
Ġc and
pe cially
am er
1 3
r an
Ġcompan ies
ĠJ an
Ġex ec
Ġf ederal
Ġtr a
Ġe y
p ite
Ġro om
ĠW ashington
ĠG u
Ġd ue
Ġw atch
a ul
il t
Ġl ab
ĠG e
Ġ201 2
u ation
Ġlead ers
Ġs ound
o on
he ad
Ġinf l
ib ility
Ġst ates
Ġse lf
ĠHow ever
Ġro le
iv il
id ay
Ġst ri
at t
C h
Ġc ustom
Ġofficial s
Ġrele ased
e al
Ġd am
Ġbe gan
ĠD av
er y
Ġstud ents
ĠA pp
Ġcharac ter
Ġpos ition
Ġo pt
ob al
ĠS outh
ĠIn st
Ġmat ter
Ġout side
Ġfin al
end er
Ġen er
Ġd ou
Ġ201 7
Ġstate ment
ad es
Ġhim self
Ġt reat
Ã ©
Ġbre ak
Ġdevelop ment
l im
l ike
Ġprov ide
se c
Ġst at
viron ment
Ġin it
Ġab ove
Ġit self
Ġam ount
Ġd i
ĠP art
Ġ )
Ġhour s
Ġa ction
Ġrep resent
Ġthem selves
Ġg un
Ġoff ice
Ġcontin ue
Ġ2 5
Ġbec ame
i od
ĠIn tern
Ġgener al
Ġspec ific
Ġ1 00
Ġadd ress
Ġne g
Ġcount ries
ac ed
ĠA ss
re g
l ish
Ġ19 8
Ġl arg
Ġsim ply
Ġtr ue
ar ter
as k
ograp h
Ġwas n
ĠR es
' ll
Ġsignific ant
um b
ace book
1 7
Ġg round
o id
og n
Ġinter view
Ġrun ning
ĠJ ust
il i
Ġdiff icult
Ġb ar
Ġr ad
Ġev idence
ĠE d
B C
re am
Ġad minist
Ġprof ess
Ġvers ion
Ġneed s
Ġc op
Ġag ree
ang u
og le
Ġevery one
Ġd rug
Ġty p
Ġgroup s
e ks
idd le
Ġresp ons
Ġbuild ing
Ġb all
Ġd om
Ġwom an
Ġshow s
ĠCh ina
l am
r ight
Ġmus ic
Ġcomm on
ĠG erman
Ġl at
Ġd est
Ġneed ed
Ġin j
Ġt em
l ight
Ġbel ow
A R
if t
Ġex c
ĠM ed
Ġrele ase
ourn al
Ġsa w
1 8
Ġde ep
Ġpret ty
rib ut
Ġinclud e
Ġqu ite
Ġplay ed
Ġm ot
b ody
Ġindust ry
ĠA b
Ġa p
Ġs ense
Ġener gy
Ġplay ing
Ġcand id
Ġm ag
ĠH is
Ġph ys
Ġ5 0
iv al
Ġg en
Ġwh ite
is c
Ġleg al
at ur
y le
Ġl ate
Ġfriend s
Ġch arg
Ġal leg
A S
H ow
ĠA fter
w here
Ġinst ead
Ġab s
Ġl ost
b o
ĠW est
Ġes pecially
Ġval ue
Ġb illion
Ġre d
os ing
ĠM us
Ġh om
le v
Ġh ost
or ing
Ġan im
ist ic
Ġp le
Ġfor ward
ag er
t ime
Ġrecent ly
Ġob ject
Ġtr ack
cc ording
ĠNew s
om m
ĠN ot
Ġwe eks
Ġe lection
ep end
Ġvot e
iqu e
Ġj ud
Ġsu ff
ĠWh ite
Ġdet er
ir t
ĠT witter
Ġchang es
l t
ĠO ct
Ġper iod
Ġopp ortun
med i
e ed
ri pt
Ġl o
Ġlong er
ac hed
Ġp ain
ar c
Ġe p
o ke
Ġs ite
Ġac cept
o e
h od
Ġso on
Ġsh oot
ĠW ill
Ġmom ent
Ġhop e
Ġeconom ic
op h
ĠC ong
Ġp ie
Ġdec l
ir m
Ġche ck
Ġwr ong
Ġ2 4
Ġbl ock
Ġcons um
ĠSe pt
Ġrel ig
Ġt it
Ġ {
ĠM y
ĠDep artment
du ct
__ __
on se
Ġpot ential
2 5
Ġhig her
Ġc irc
le ge
Ġwor ks
Ġcons ider
n ers
o le
Ġfoc us
anc ial
Ġsh are
n s
Ġc red
ĠM arch
Ġed uc
i j
Ġhe ld
al t
c ial
ke y
id ing
Ġon line
Ġwe bs
Ġst ay
Ġw alk
Ġl ed
ĠD r
ul arly
ove red
Ġre ve
Ġword s
Ġp arent
Ġp red
= =
Ġst ru
ĠThe se
Ġresult s
Ġ +
ĠRepublic an
Ġris k
ĠSy ri
le ar
Ġre view
Ġre v
ic ro
Ġso ld
Ġlaw s
f ect
Ġcont ract
Ġc ode
Ġfun ction
The y
a ut
Ġw ind
Ġc e
c il
Ġtot al
Ġart icle
ĠA ug
Ġa ud
Ġapp lic
ĠM e
Ġserv ices
u ary
Ġmin utes
Ġperson al
ĠM ich
as ons
p ut
i ents
ur d
Ġany one
Ġa ge
il ities
ang er
ĠJ une
it ution
Ġpr im
Ġfav or
Ġr ate
A d
h aps
Ġtarg et
Ġan sw
u le
f er
Ġpop ular
ate g
E S
ĠSt e
Ġup d
Ġd en
ap an
Ġexp ress
h am
Ġear lier
Ġne cess
Ġh y
Ġde ad
c he
Ġv ol
ĠP e
pr il
v al
Ġcomp ut
Ġres pect
Ġ201 1
ag ing
Ġtechn ology
u el
Ġgo al
Ġexpect ed
Ġcre ated
Ġen vironment
ĠP ar
end s
Ġproble ms
Ġsur pr
Ġb ase
ud e
P h
Ġrece ived
re et
Ġp ort
te e
ĠD o
ĠJ uly
A l
Ġsc ient
n a
Ġw ays
Ġincre ase
Ġeas y
Ġant i
Ġcom ment
ip le
Ġfor ce
Ġsh ot
r ay
Ġpriv ate
ĠS m
is l
Ġquest ions
Ġcan not
Ġ <
Ġannoun ced
et er
act ion
Ġp ack
b it
ĠM ond
ĠG od
Ġl angu
Ġimp act
ĠCong ress
Ġp ur
ater ial
pl es
at ives
her n
av ing
ĠF acebook
Ġinvol ved
ĠE n
ill s
om b
Ġd iv
le x
Ġe t
h ood
it iz
Ġspe ak
Ġex act
6 0
ct or
Ġty pe
Ġmod el
on st
Ġexec ut
Ġne arly
i res
ĠAust ral
our t
Ġc ivil
ues day
Ġrelations hip
Ġter ror
Ġst aff
Ġs en
e es
ok es
T o
Ġ19 7
Ġc ases
ĠFr iday
Ġins ide
Ġorig inal
re m
Ġcont ent
Ġle ave
Ġresp onse
ll ed
E N
ĠR ed
Ġcap t
Ġf ans
ĠGo ogle
ã ģ
Ġco ll
e ch
Ġ ur
ĠA pril
Ġintern ational
ĠC ount
Ġar rest
A t
Ġa verage
g ing
re l
Ġbro ad
Ġl iving
Ġhe art
k y
ot o
c ast
ĠMond ay
Ġreport s
Ġw orth
b or
Ġkill ed
Ġn ation
ell ig
at ural
ip s
Ġc al
Ġbec om
m p
est s
Ġwork ed
Ġus ers
Ġsour ce
Ġso ft
Ġim medi
Ġob s
Ġ201 0
Ġsub ject
j oy
ĠT uesday
Ġch ance
Ġest ab
ĠP al
Ġresp ond
op s
Ġcl ub
ĠAmeric ans
ĠP er
O R
Ġc ell
Ġgl obal
Ġt akes
a el
Ġde l
Ġab ility
e xt
rough t
it es
Ġo il
Ġwe ap
ĠA ct
m on
Ġass oci
Ġter ms
Ġwork ers
Ġpr ice
he l
iz ing
ĠJ apan
os ition
Ġdirect or
olog ical
is es
Ġro ad
Ġt ou
Ġpubl ished
Ġcol lect
Ġdef in
Ġfin ancial
ĠWh ile
ĠRuss ia
Ġm id
Ġs qu
ĠW ed
Ġdec ided
r ain
ove mber
Ġ4 0
Ġl ack
Ġl og
ĠS ome
Ġph one
Ġm other
Ġg ave
Ġbu y
Ġg irl
Ġst ore
Ġe mer
Ġinfl u
Ġcap ital
Ġhappen ed
ĠN ow
Ġrequ ire
ĠCal if
Ġ @
cl us
Ġfore ign
Ġf em
" .
Ġgo es
Ġcurrent ly
Ġsit uation
ĠO ff
ĠS an
ĠB y
b ased
un t
ov ed
ro wn
Ġl ives
Ġwho se
Ġoff er
Ġind ic
Ġm aterial
Ġt al
in o
ĠGe or
ough t
Ġpl ans
Ġaff ect
vert ise
ĠS und
nes day
Ġmem ber
Ġmet hod
Ġar ri
Ġpartic ip
ĠJan uary
e g
re ct
Ġp ict
ĠA g
urs day
O ne
ĠF eb
Ġmeet ing
Ġrec ogn
Ġteam s
Ġturn ed
ru ction
Ġb ank
ĠH ill
f ully
Ġev ents
Ġnet work
ĠSept ember
ord er
4 0
es e
Ġsim ple
Ġint rodu
Ġ ill
Ġare as
Ġn orm
Ġc y
b l
ĠC or
Ġreg ard
ĠIs lam
Ġh uge
Ġcou ple
Ġappro ach
Ġp age
Ġperform ance
ĠT V
---- ----
ou d
Ġcare er
Ġto ol
Ġm is
Ġf elt
a ur
ĠG l
ĠN ovember
ĠAf ric
" ,
et y
ap t
Ġor d
l oad
Ġde li
Ġ2 1
Ġr ace
Ġem ail
ĠE l
Ġquick ly
o or
Ġr ound
Ġh on
a ily
ĠDav id
Ġimpro ve
Ġeng ine
Ġnum bers
Ġvict im
ĠWed nesday
Ġadminist ration
Ġv ia
ĠA ng
ch ie
l in
Ġp ull
ist an
Ġbu ilt
Ġh ttp
en ed
Ġf re
av y
Ġte xt
Ġl oss
Ġp ers
ĠTh ursday
ruct ure
ĠP aul
um e
Ġf ather
Ġ2 2
Ġth ous
ĠEurope an
Ġeconom y
im ent
A L
orn ia
S h
Ġprodu ction
Ġb oy
Ġhe ard
Ġd ig
âĢĿ .
Ġm atch
Ġwebs ite
Ġen joy
d own
ĠC ourt
Ġreve al
Ġallow ed
Ġhand s
Ġre pe
Ġbo ard
Ġsp ent
Ġtr ade
Ġw ide
ĠOct ober
Ġsec ret
f ace
ce mber
Ġl ower
ĠS ch
Ġtra vel
Ġst e
ĠAug ust
Ġco ver
at ory
Ġinclud ed
ight s
Ġpo ll
Ġwant s
us es
Ġleg isl
Ġto wn
Ġkn ew
Ġne igh
or ters
Ġbeh av
ict ion
ĠBrit ish
Ġse par
W ith
es tern
ĠSund ay
Â Ń
Ġget s
Ġvis it
Ġper fect
en ces
ĠCanad a
ct ions
an ks
is hing
g est
Ġmove ment
age ment
? âĢĿ
g round
Ġtri ed
ess ion
ra z
Ġb i
Ġc ause
Ġfor ces
) ;
Ġf ear
Ġen s
Ġatt ention
Ġpartic ular
ĠK ore
A fter
for ce
en ing
Ġ }
Ġpop ulation
ce ed
2 00
Ġre ach
Ġb rought
Ġlook s
ur ning
Ġvar ious
ib ly
Ġv o
u k
ar ily
Ġb ud
ĠU K
Ġgrow th
m a
ĠCalif ornia
Ġm ention
Ġprev ious
ak er
ĠQ u
E D
c le
Ġl ink
' d
Ġmor ning
f ield
Ġve h
ĠRuss ian
und red
A C
Ġ2 3
Ġf air
Ġfe ll
h old
Ġtr aining
ide red
9 9
all ed
Ġpro gress
y ond
i am
se qu
Ġs ize
c ies
U S
Ġcont act
ident s
Ġh ot
ĠC ont
ĠDe cember
Ġdem and
Ġim age
ĠS w
Ġr ac
ĠBl ack
ĠI S
s et
Ġs ong
led ge
] [
z e
ĠP ost
Wh ile
Ġlead er
Ġh or
o o
ĠH er
Ġc itiz
f l
ec ause
Ġrul es
Ġ ess
Ġl iber
Ġpre p
Ġse arch
ific ation
c ome
I T
ĠSt reet
in ks
Ġlat est
Ġstru gg
Ġup on
Ġco ach
Ġf ast
ar th
Ġtalk ing
om p
sy ch
Ġind epend
ond on
O S
u ments
i ant
Ġspe ed
ĠP ark
Ġw ond
Ġfeat ures
ĠSen ate
Ġadd ition
ĠP at
g es
Ġex am
Ġst ar
Ġre b
T r
ĠJ ew
p s
ic les
ellig ence
I C
b ed
Ġcons idered
ar ies
Ġlangu age
ĠT imes
2 2
Ġmed ical
atur day
ĠPart y
Ġlevel s
ra q
il le
Ġsl ow
im ately
ap h
ĠCount y
Ġa chie
Ġinvestig ation
Ġu nd
un k
ĠCent er
Ġcon duct
v ent
et h
Ġm ach
op e
Ġc ard
ĠInd ia
Ġs n
Ġs ort
Ġcrit ic
ĠK ing
he t
Ġ â
Ġdo ll
Ġ200 8
ys is
h a
w o
u f
im in
Ġp aper
Ġb ox
ĠI ran
u it
as c
Ġp en
Ġcons erv
Ġpri or
ĠT ex
Ġsex ual
p ir
Ġsystem s
Ġparent s
Ġjob s
Ġhe ar
Ġdoc ument
at form
Ġsp okes
ig r
Ġwrit ten
Ġs ens
Ġincre asing
Ġd raw
Ġse ven
Ġsee k
an i
e ared
ru ary
id ge
Ġprev ent
ĠMus lim
Ġlear n
Ġext reme
Ġeff ort
O P
Ġser ious
r ast
in ing
t r
Ġs on
8 0
Ġcomplete ly
Ġin n
Ġsc reen
ĠM ark
Ġreg ul
Ġe ight
ro om
Ġr ange
our ces
Ġcon c
Ġviol ence
it ch
2 4
Ġmess age
Ġob v
Ġsur ve
Ġ200 9
S he
Ġdes pite
ĠI raq
Ġinterest ing
reed om
ic o
Ġdou b
Ġopportun ity
Ġclaim s
ren ch
Ġpartic ularly
ĠE m
e ff
an ced
Ġext ra
Ġansw er
ĠCh ar
Ġsoc iety
ĠR om
Ġmajor ity
ab or
Ġj ournal
ĠL ondon
Ġattack s
er ve
Ġgu y
et t
Ġexact ly
Ġcar ry
ent ially
Ġbig gest
am ing
ĠK e
u x
ĠDon ald
ill ed
Ġcl imate
Ġc ross
Ġ ...
Ġrequ ired
Ġare n
ĠM ore
ib r
i ers
is ions
Ġp aid
Ġdef ense
Ġh undred
Ġexper ien
Ġmod ern
ens ion
Ġpract ice
er c
ĠE ast
Ġex cept
ar i
vertise ment
ly ing
ĠS aturday
Ġqu arter
ad d
Ġoffic ers
Ġn atural
os es
ines e
A M
Ġrem ain
Ġsc ience
in ally
Ġlook ed
n ces
Ġcertain ly
Ġhist or
uc lear
Ġsur v
Ġ2 7
ut ions
Ġg as
Ġst ories
Ġm iddle
Ġd ro
Ġst uff
Ġl ay
Ġt able
Ġfin ally
Ġsomet imes
Ġcommun ic
ĠN et
Ġproduct s
ĠS and
Ġmov ie
osp ital
Ġr out
Ġcon vers
av es
Ġim ag
Ġlead ing
ĠMc C
ous ly
Ġa w
ĠS pe
n y
Ġp an
Ġdescrib ed
Ġon es
pp er
Ġdet ails
Ġsum mer
Ġu lt
Ġter m
Ġus er
Ġchang ed
Ġpr ison
ĠFeb ruary
h ib
Ġbl ood
Ġqu ality
Ġstart ing
Ġshow ed
ic ks
Ġg iving
u ing
Ġocc ur
ak ers
Ġprov ided
Ġn amed
ar r
Ġ *
Ġrem ains
Ġcost s
ĠT H
Ġreg ion
augh t
id a
.. ..
ĠS oc
Ġf it
Ġpo or
Ġd anger
y l
Ġp ath
Ġ2 6
en ge
Ġ Ð
ĠC he
ĠM or
Ġch ief
Ġeduc ation
Ġmult iple
Ġm ob
Ġdam age
Ġgrow ing
co in
Ġwrit ing
Ġm ent
N o
ĠI nt
Ġpart s
Ġcontin ued
Ġdem onst
Ġthink ing
Ġass ist
Ġcom ments
Ġsaf e
ĠE ven
Ġpur p
in ary
Ġf ix
Ġ2 8
Ġmain tain
ĠT ur
Ġread y
ĠD es
ĠRepublic ans
F L
Ġwr ite
Ġp urch
Ġwould n
f ort
Ġd ied
Ġincre ased
ĠDemocrat ic
2 3
Ġcult ure
ag o
Ġvot ers
Ġrequ est
p re
Ġimp lement
Ġf ile
ĠLe ague
Ġm ill
ĠG ener
ĠC oun
mit ted
ab les
Ġeff orts
Ġc amer
im inal
op er
al y
Ġsp ot
Ġcall s
em s
Ġh ous
Ġper haps
ar ian
Ġal one
Ġgu ys
Ġread ing
b an
z z
Ġto wards
d e
Ġal though
Ġce le
Ġstand ard
Ġus ually
Ġcons ist
ĠJ ames
I m
Ġeffect s
Ġreal ity
Ġse lect
Ġdirect ly
Ġpl atform
Ġav oid
Ġbe yond
ĠB ill
Ġk ids
ĠF irst
us ing
il es
Ġfoot ball
Ġspe ech
ic ated
s p
ou l
ĠN e
Ġ( @
Ġsub st
ĠCh inese
Ġcould n
Ġun f
ĠMich ael
Ġsc ene
ĠTex as
Ġthrough out
Ġstud ent
Ġinclud es
ar a
it ute
row d
an ch
Ġcomple x
Ġcent er
Ġimmedi ately
ĠC ons
Ġc at
f ord
Ġchall eng
Ġro b
Ġcon cept
R e
Ġcl os
Ġep is
Ġrec omm
e gr
Ġw ife
B I
Ġcho ice
Ġ ver
Ġt ro
Ġadd itional
ur g
Ġ il
ur t
st on
Ġrese arc
Ġrem ember
A ll
w ise
ĠM on
ĠJ ack
Ġs le
he st
ĠâĢ ¦
Ġg one
ĠInd ian
it or
Ġsaf ety
Ġdesign ed
Ġt en
Ġc ast
Ġcor por
ĠS er
Ġag ency
ast ic
Ġpie ce
ru pt
ac hes
om en
Ġa head
port s
Ġsoft ware
Ġbat tle
Ġdeb ate
Ġoffic er
Ġfig ure
Ġbr ain
Ġop in
Ġto ward
ĠMin ister
il ies
N ow
Ġs we
Ġse ll
ress ion
Ġcoun ter
Ġthous ands
Ġbl og
ĠB o
ag on
ic ient
Ġo ption
Ġlet ter
Ġ6 0
ir th
Ġs il
im um
Ġrel ative
ate ver
Ġpress ure
m en
Ġpre c
Ġrece ive
O T
air s
Ġmov ed
amp ions
Ġst age
Ġ ut
Ġpass ed
ad em
Ġappear s
ro y
ĠPl ay
ol ute
o es
ĠG reen
ĠI I
Ġla unch
Ġcle an
Ġproper ty
Ġmean ing
ĠS erv
j ust
Ġhelp ed
Ġdo g
Ġdis app
Ġtw e
Ġro ck
n ew
ĠApp le
ĠAss oci
Ġcr is
2 7
Ġd ark
Ġ >
it ation
ĠThe n
Ġorgan ization
Ġalleg ed
Ġdri ve
Ġsc ore
Ġcond itions
Ġs at
ber g
Ġtou ch
Ġsus pect
augh ter
Ġmov ing
Ġd ate
Ġre asons
Ġt our
ĠR ich
Ġ ign
A D
? "
ĠDemocrat s
Ġp ark
Ġf an
ri ef
m ore
Ġn ature
Ġdiffere nce
Ġde g
Ġcomm and
Ġdev ice
Ġhapp y
Ġmy self
Ġmay be
Ġbegin ning
ĠS im
w ood
ĠSu per
Ġfail ed
Ġn om
Ġbud get
iv ity
Ġenc our
am b
Ġcharac ters
Ġn uclear
Ġcomput er
ch an
Ġcop y
y an
Ġa im
ĠM art
Ġ x
ock ed
Ġcomp ared
Ġtit le
ĠEng lish
ĠD ay
Ġw all
le ase
Ġcent ury
A P
Ġcol lege
Ġey es
Ġest im
Ġle ague
Ġsh own
Ġst ra
ĠV al
ĠF rench
Ġy es
Ġpos itive
our ce
Ġbook s
Ġpower ful
Ġref er
Ġcont ribut
Ġb al
ent y
Ġlim ited
Ġb and
4 5
Ġnecess ary
Ġsc he
ĠSt ar
Ġcitiz ens
Ġfor ced
ci ent
3 5
uf act
Ġcandid ate
Ġdis p
ĠH ere
Ġtr ust
Ġconf erence
Ġar ch
a ud
ĠR ober
Ġlarg est
Ġanal ysis
ĠSyri a
Ġsp ending
ig ration
or ks
ain t
Ġs al
2 6
ĠO f
Ġpresident ial
Ġnot e
M y
Ġa ware
Ġschool s
Ġth row
Ġme ant
Ġevent ually
Ġrelig ious
Ġexecut ive
ven ue
ĠT or
ĠB en
Ġcor rect
Ġphys ical
Ġfollow ed
ĠD is
a res
Ġfam ilies
Ġil leg
Ġstre ng
Ġfe ature
Ġc rowd
Ġm ix
B e
Ġconf ir
Ġb ott
ĠW ind
Ġf irm
Ġeas ily
Ġco ol
ĠA ir
or ney
Ġaut om
Ġes c
Ġ2 9
er o
Ġallow s
Ġp us
ub e
I s
Ġg ives
Ġyour self
Ġgr ad
Ġfe ed
Ġtreat ment
Ġact ions
ress ed
c ul
r ated
b and
bo ard
I D
Ġ19 6
k en
Ġd raft
c raft
ir ing
Ġdet ail
N ew
Ġsus p
Ġover all
et ro
ĠM ex
en cies
ĠB el
Ġsm art
Ġinc ome
B y
Ġan g
Ġide as
Ġapp eared
E C
Ġcent ral
Ġpolit ics
Ġdis play
Ġsign ed
O M
b um
Ġweap ons
Ġanal y
Ġh ar
Ġp sych
Ġdec ades
Ġprom ot
Ġn ice
Ġdis e
Ġfre qu
Ġus es
Ġsen ior
E T
Ġcr ime
Ad vertisement
D on
Ġl if
ĠB re
ĠGo vern
Ġun ique
ĠIntern ational
Ġcred it
ĠJ er
Ġdo or
r s
Ġcris is
) :
A ccording
Ġal tern
res h
Ġbenef its
Ġdevelop ed
Ġm ist
ut y
m ar
Ġconf lic
ri age
Ġtr uth
Ġnot ed
ĠC ap
Ġd rop
ĠÂ £
ur ance
i able
in n
Ġrel ated
Ġs ales
Ġgo als
Ġbe aut
Ġindividual s
ite ly
Ġcontin ues
2 8
b ox
ĠAr ab
ĠS chool
ĠAng el
in y
Ġr ates
ĠE U
Ġr ap
Ġl ic
Ġcustom ers
I A
Ġchall enge
Ġst o
Ġproject s
on ents
ĠAustral ia
ĠE arth
p art
Ġch arge
erv ed
Ġpred ict
Ġapp arent
n own
2 9
ĠPol ice
Ġint elligence
Ġpe ace
ch ange
ĠUn ion
Ġprev iously
Ġfull y
Ġmeas ure
ĠChrist ian
Ġl ines
ĠSm ith
Ġstra ight
ĠGerman y
Ġman ager
Ġadv ant
Ġbro ther
Ġlarg er
n et
Ġsuccess ful
2 1
Ġr ule
Ġexp and
Ġhigh ly
Ġcle arly
Ġre form
ot i
ĠGeor ge
Ġseem ed
or ter
ĠFr anc
P ro
Ġcr iminal
Ġem b
ĠCom p
k i
S ome
U n
Ġprim ary
ow ers
os h
at tle
ĠC r
ic ed
Ġmin or
ound s
ant ly
Ġsp read
Ġtr aff
Ġknow ledge
i ance
in ated
Ġinc ident
Ġatt ract
s er
ĠT om
ĠFl or
Ġres ources
Ġprogram s
wh ile
ate gy
ĠCoun cil
Ġre ached
Ġgreat er
Ġsa ve
Ġwe b
Ġsp ir
ol ic
ĠB er
e an
Ġke pt
ĠH igh
Ġar m
qu e
ot a
d om
sec ut
Ġem ot
Ġs end
Ġfe et
ĠA nt
Ġstud ies
Ġpre m
A r
ĠIntern et
Ġfavor ite
Ġpl aces
Ġcol or
ĠR ec
Ġman ufact
se y
Ġr are
ĠBro wn
on ent
ĠH am
ve re
1 00
Ġshoot ing
ic it
id ers
Ġknow s
od ay
ĠD ef
ĠGener al
oc ks
Ġreg ular
Ġr ise
lic k
ing ly
Ġlit er
ro ll
w ide
lev ision
Ġsour ces
Ġfight ing
Ġla un
ic ago
ĠM ac
v ille
Ġactiv ity
ter m
b on
Ġp un
Ġown ers
Ġstat us
Ġopt ions
Ġvo ice
E O
Ġf ine
Ġca used
ĠU p
Ġnorm al
us ion
IN G
a ith
Ġclaim ed
Ġsp end
Ġorgan iz
Ġend ed
m iss
3 3
Ġc ities
ad o
7 0
or g
ĠR ob
ĠG old
ĠL a
Ġen em
Ġ200 7
Ġcall ing
Ð ¾
m ission
il ed
ĠF rom
eng th
Ġref lect
Ġint egr
ĠE very
y a
if ying
ĠEng land
Ġsh ut
Ġresearc hers
Ġha ven
Ġpr ices
it ness
Ġfem ale
ww w
ol es
âĢĿ ,
Ġn ames
ĠM ag
Ġhapp ens
Ġv irt
Ġemploy ees
N ot
um an
m ark
Ġtr ou
Ġadd ing
Ġe le
mit tee
ing er
u ana
Ġsupp osed
Ġbas ic
Ġh ospital
Ġpl ant
Ġwa it
iver se
Ġpolic ies
Ġpro s
Ġpr int
Ġra ised
Ġj ump
ro l
Ġtrad itional
Ġal bum
ic a
Ġabs olute
Ġcharg es
Ġconcer ns
Ġsl ight
Ġst yle
Ġcreat ing
Ġac qu
S c
Ġgr and
Ġpat ients
Ġfund ing
rib ution
ro id
Ġauthor ities
Ġsc en
Ġf reedom
Ġbe at
Ġcom mer
Ġsee ing
Ġl ik
se e
. âĢĻ
Ġmin ister
ĠA P
ĠSc ott
Ġim pl
Ġc ry
Ġle aving
Ġact ual
Ġme chan
ĠB ay
Ġg reen
Ġbe g
al se
r am
E L
ĠFlor ida
on a
Ġbehav ior
Ġgo ld
Ġ ir
ri an
Ġb irth
Ġst ation
Ġp ush
ij uana
Ġagree ment
Ġm er
Ġoff ered
ĠM ost
Ġens ure
H ere
p en
Ġwe ight
Ġweek end
S A
Ġe th
Ġr ank
ĠM o
ĠHill ary
Ġv ac
it ude
Ġprop os
Ġreveal ed
Ġwill ing
Ġpost ed
Ġey e
Ġad op
Ġval ues
. '
Ġdeter min
ear ch
ĠWe ll
ac ing
Ġapplic ation
Ġmost ly
Ġestab l
ĠS un
ĠA ccording
ab y
so ft
p ri
ĠL et
O U
ĠA lex
Ġad ult
Ġpict ure
ĠRe g
Ġb rief
ĠL aw
Ġbelie ved
Ġstr ategy
Ġlear ned
Ġrecord s
ist ry
Ġcho ose
ĠTr ans
Ġwond er
9 0
Ġinst all
Ġwh atever
c her
ign ed
Ġqu al
Ġlaw y
Ġd ire
Ġen force
5 00
Ġbenef it
Ġmass ive
ĠFr ance
Ġc ars
Ġun s
Ġapp l
Ġm ount
ect ion
ĠCh icago
Ġf at
Ġstre et
Ġfeel ing
Ġpart ies
Ġw ild
Ġarrest ed
Ġdev ices
h ttp
ĠPe ople
I L
Ġwh om
Ġass ault
Ġw at
g en
Ġinflu ence
ĠP ort
E x
u ild
Ġent er
Ġask ing
Ġl ose
ĠPh il
Ġm ission
ĠO h
t ies
c ont
Ġshow ing
ĠSt ud
Ġtem per
li ament
Ġb order
Ġprov ides
ĠSec ret
Ġprodu ced
Ġjud ge
Ġcrit ical
Ġconfir med
ĠB ush
p oint
Ġoper ations
n o
Ġt end
Ġim ages
Ġneg oti
Ġdr ink
ĠL ou
or ial
ud d
Ġcele br
Ġres idents
u gg
st e
ak ed
S T
Ġprodu ce
Ġdist rict
ri ption
ĠHe alth
Ġrun s
Ġdeb t
Ġte ac
How ever
Ġc ru
ĠW all
Ġet c
ĠM at
Ġopp osition
C l
est ic
ra v
ĠCom mittee
ic ial
Ġbr and
r ont
ĠB it
ent ed
Ġc ore
Ġpat tern
m ine
Ġse ction
Ġdef end
ce ll
Ġindepend ent
ag s
ĠKore a
ĠWh y
Ġhe ro
ĠM od
ĠP ress
Ġadv oc
oc r
Ġdoll ars
Ġeffect ive
Ġt ick
ĠComm ission
ci ence
a e
ĠPal est
Ġsol ution
ord s
Ġinterest ed
Ġdig ital
Ġv ill
B A
Ġhig hest
Ġopen ing
ri al
Ġwor se
Ġrespons ible
ĠM al
Ġlear ning
ĠS am
C C
Ġoff ers
Ġtri al
ic ians
ĠG et
ĠFranc is
Ġrepl ace
Ġag reed
ĠO ther
Ġrest rict
Ġmem ory
i ation
Ġd aily
Ġinvest ment
ĠW estern
Ġtr ain
i pe
Ġ ;
Ġtyp es
Ġm ur
Ġocc as
ur ies
ĠB ecause
ĠL iber
ill ing
Ġthe ory
o ly
ĠJust ice
Ġmill ions
Ġbas is
Ġche m
Ġk ick
Ġmar riage
ĠOff ice
Ġexpl ained
ĠC up
Ġch air
Ġgener ally
Ġte levision
Ġhe avy
ĠD el
Ġprop osed
4 4
w in
Ġd er
C on
Ġmil es
ĠO ur
ĠF ound
The se
Ġopin ion
G et
Ġdef e
âĢ ¢
Ġb ur
r ad
Ġcond ition
ĠM icro
ak s
Ġ8 0
ĠM ike
Ġon to
Ġprot est
r ig
Ġre ject
v est
ĠN FL
Ġm ap
Ġbecom es
r ate
Ġachie ve
Ġpart ners
ĠM il
Ġassoci ated
Ġm ale
ic ip
ĠJohn son
Ġdest roy
Ġl oad
Ġass um
Ġhundred s
o om
== ==
az ing
Ġadvant age
Ġopen ed
Ġsur round
com ing
Ġco al
and er
Ġunderstand ing
we ll
out hern
ĠSec urity
u pp
Ġob tain
Ġannoun ce
ĠAd d
Ġlim it
____ ____
od es
ĠT er
Ġman agement
el ine
ad ing
Ġv s
Ġsh ip
Ġ ice
Ġsle ep
Ġb orn
ort hern
ber t
3 2
Ġeas ier
Ġ Ã
3 6
Ġcontro vers
l a
A A
k nown
Ġphot o
Ġlegisl ation
Ġth us
Ġinit ial
Ġacc used
ĠWind ows
Ġbecom ing
Ġilleg al
ĠL ab
wit ch
Ġun like
Ġspec ies
Ġs pl
ĠA tt
ĠB ig
G B
Ġprofess ional
Ġelect ric
Ġcamer a
Ġjo in
ĠG reat
Ġ3 1
ĠM any
Ġneigh bor
F C
ol f
Ġfr ame
Ġdou ble
! !
ĠU k
Ġh arm
l ant
Ġwe alth
Ġserv ed
M r
Ġr at
Ġloc ation
Ġbelie f
Ġres ist
Ġn ine
Ġser ve
Ġsh ared
Ġstri k
B S
Ġneg ative
z a
Ġextreme ly
Ġwin ning
Ġ3 5
Ġscient ists
Ġdoc uments
Ġbott om
ĠAr t
Ġact ive
Ġmach ine
ortun ately
Ġb ed
le vel
Ġpurp ose
Ġinc red
Ġvictim s
Ġsol id
Ġaud ience
ĠIslam ic
Ġ200 6
Ġredu ce
if ul
P S
Ġreturn ed
Ġdep artment
ir gin
Ġam b
i h
re y
ear s
Ġ9 0
Ġmar ijuana
ĠH all
or row
3 8
ĠSand ers
ĠComm un
land s
i os
3 7
h ouse
Ġch urch
ĠD ist
Ġr an
te red
ĠY our
Ġexist ing
ist ics
Ġnot ice
Ġcommun ities
Ġexpl ain
Ġvict ory
Ġb omb
Ġleaders hip
at ically
Ġdoub t
O L
Ġd ie
Ġcom fort
Ġarg ument
Ġun c
Ġte ach
Ġwatch ing
gh an
Ġf aith
Ġinst ance
Ġput ting
Ġnot es
Ġmob ile
Ġsepar ate
ĠInst itute
Ġm icro
Ġhe aring
m et
Ġintern et
ac ity
ĠM ad
Ġepis ode
ĠB ank
as y
i pped
ĠCanad ian
Ġdefin itely
ĠE v
Ġf resh
ad a
ĠP M
B l
ĠA M
om as
ill er
ar io
Ġveh icle
w orks
Ġconserv ative
Ġcommit tee
3 4
Ġapp eal
Ġview s
Ð µ
Ġp urs
ĠF in
Ġco verage
ĠIn c
Ġback ground
sc rib
i pp
P A
Ġfl oor
wh ich
res p
Ġlaun ched
Ġdire ction
ograph y
ili ar
ĠS l
Ġsupp orters
Ð °
Ġiss ued
Ġdanger ous
in ct
z en
Ġtre nd
it t
Ġcompet ition
Ġrad io
Ġn orth
Ġs un
Ġm ax
E M
Ġdrug s
Ġsuggest ed
Ġsit es
and om
ĠO ver
Ġlab or
Ġst ructure
ĠL ike
ã Ĥ
Ġsp oke
Ġc ards
Ġset t
ĠCar ol
Ġrepe ated
Ġit ems
Ġdec ade
go ing
Ġtraff ic
Ġcommer cial
Ġno vel
ĠD irect
om an
v ention
Ġst ated
ĠG ame
Ġf alse
g ency
ĠF ox
Ġwor st
Ġcont ain
ct ors
Ġref ere
ĠCh urch
Im age
Ġcl osed
ant ed
Ġcharg ed
rib ute
ĠS ince
Ġt ask
ĠF BI
Ġtrans fer
Ġdise ase
ampions hip
Ġsmall er
Ġh us
Ġdri ver
Ġre act
Ġn or
b ing
Ġd ed
Ġrest aur
b ut
ĠBrit ain
Ġd aughter
N A
A meric
Ġdri ving
Ġtell ing
se mb
5 5
Ġentire ly
ĠL os
Ġdisc overed
Ġh ack
f erence
Ġpl ays
he m
ĠU N
Ġtool s
Ġc ash
Ġsur face
ĠP ri
ĠW il
Ġexper iment
Ġ7 0
Ġg ay
Ġconcer ned
ak istan
Ġsupport ed
Ġex erc
Ġanim als
ĠQ ue
Ġtrans port
a it
Ġas pect
il ing
Ġcomp ar
Ġfind ing
ul ated
ĠIsrael i
ad y
ul f
Ġold er
d o
Ġc ateg
o very
az on
Ġcandid ates
s pe
oy al
ĠCh ris
4 8
ĠJ ones
Ġstreng th
C H
ic i
Ġfar m
Ġrequ ires
h ow
Ġple ase
e qu
and on
Ġbusiness es
Ġwe l
ann el
Ġcont ext
Ġactiv ities
ph one
ibr ary
n ight
Ġc aught
Ġlarge ly
Ġtest ing
Ġann ual
ĠA re
ĠUk rain
ic y
Ġcon sequ
Ġallow ing
N N
Ġf uel
ĠS up
S P
oss ible
! âĢĿ
iz es
Ġra ise
Ġbl ue
l or
Ġins urance
Ġmur der
ĠK en
Ġst ock
ĠRober t
Ġstr ateg
Ġgener ation
ar ant
Ġg e
ĠT y
cept ion
r ick
k ins
Ġconcer n
ĠT re
Ġbelie ves
4 7
Ġtr uly
i us
ĠA c
Ġaff ord
Ġacc ur
in ter
Ġdec isions
âĢĶ âĢĶ
r im
ter y
Ġph il
Ġconst ruction
os ure
Ġjust ice
ĠM er
it able
Ġhigh light
Ġw itness
av a
Ġhold ing
L e
ĠJew ish
ĠG ree
ĠM iss
b re
igr ants
Ġgu ess
Ġpres ence
ang ing
Ġun it
Ġatt end
ĠV er
Ġsc ale
âĢ ĺ
Ġplan ning
ĠS il
oll y
ck now
ĠAssoci ation
Ġref uge
Ġt im
Ġs an
ĠAfric an
Ġr ough
pect ive
ĠAfric a
Ġpl aced
Ġtell s
ĠP C
Ġl ength
ĠG OP
ĠJ im
Ġestab lish
Ġmention ed
Ġse qu
ĠAf ghan
an cy
Ġspokes man
Ġwa iting
Ġjo ined
Ġc atch
M ore
Ġk id
ĠP re
e y
3 9
Ġconflic t
Ġhas n
ocr acy
Ġmiss ing
Ġinit i
Ġdeli ver
Ġab use
n el
Ġinj ury
Ġrecomm end
ĠAngel es
ĠK h
Ġinterest s
Ġintrodu ced
Ġupd ate
Ġenforce ment
Ġprov iding
ic on
is ation
ro s
Ġestabl ished
ĠFr ank
Ġocc up
Ġe at
Ġrem oved
Ġcell s
b our
ĠY es
ĠInst ead
Ġconvers ation
Ġban ks
Ġcan cer
v ant
Ġdiscuss ion
Ġsto pped
Ġf ant
c ks
# #
ĠF ore
Ġuse ful
it z
Ġhom es
az ine
Ġnews p
Ġoff ensive
Ġass ess
Ġs outh
ĠJ eff
Ġsp orts
Ġdown load
ron ic
ĠSt ep
ĠPalest in
D A
ul a
Ġobv ious
Ġfour th
wh at
ot ed
Ġc ook
l ig
Ġmod els
ĠC EO
Ġb ul
Ġhous ing
Ġtrans l
Ġ200 5
Ġ201 8
k in
Ġmeas ures
Ġst ick
ont o
7 5
O ur
om s
ĠMicro soft
um n
ic ations
form ation
and a
Ġgirl s
m ail
ow l
it er
Ġoper ation
se ason
ĠLe g
ĠTH E
Ġset ting
Ġman aged
Ġfil es
Ġident ified
ĠCon st
ĠM P
re al
Ġha ir
ĠJ ud
Ġgr aph
Ġfoc used
ĠG roup
pl ace
Ġappro pri
Ġfin ished
Ġarri ved
Ġpre fer
Ġspir it
Ġsk ills
Ġear th
Ġve ter
Ġfig ures
ul ate
ĠT im
** **
4 9
ĠV irgin
Ġa cknow
Ġconc lud
up s
ĠJapan ese
ĠS al
ĠPro f
Ġcommit ted
Ġthere fore
ag n
Ġkeep ing
Ġfund s
Ġex clus
ĠR ock
ĠLou is
ĠP akistan
app ed
Ġident ity
ĠMex ico
Ġt ough
P l
out s
Ġex change
Ġfeel s
Ġother wise
D es
Ġpart ner
ĠSup reme
k a
ic ation
R A
w ing
ĠM et
Ġrelative ly
e ah
ens es
Ġown er
Ġsurve y
Ġdet ect
ig an
r d
Ġtri p
itution al
ĠAnd roid
Ġstep s
Ġ200 0
ĠR yan
Ġslight ly
Ġcl ick
Ġconnect ion
oc al
am m
Ġtwe et
Ã ¡
ĠAr my
ĠIn ter
ĠM ont
dd en
Ġphot os
ĠRich ard
Ġhus band
Ġdep end
u ct
Ġwe ak
Ġprotect ion
Ġg ender
Ġdef ensive
Ġme re
ĠI r
Ġele ments
Tr ump
ic ide
is f
ren cy
ver se
igh ter
Ġstri ke
Ġcirc um
Ġg ain
Ġcor ner
Ġkill ing
Ġcol lection
ĠGovern ment
" :
g ar
uck y
Ġf le
Ġro ll
Ġsuggest s
g a
pro f
m akers
anc ing
G o
Ġsu st
Ġag gress
ĠMart in
Ġd at
Ġcomm ission
ony m
Ġsupp ly
w ith
h i
T C
Ġtax es
an ia
hen s
v is
ĠAl though
od ies
Ġbig ger
an o
ĠN or
ĠS ur
Ġfail ure
il s
r ange
m as
Ġrem ind
Ġment al
Ġs ides
Ġam azing
Ġplan et
re es
Ġspe aking
Ph oto
Ġhappen ing
ĠD ec
Ġstart s
Wh y
Ġorganiz ations
u ate
ĠJ oe
ã ĥ
g ers
u ke
ĠO ut
Ġn one
4 6
Ġplan ned
hed ul
Ġsu dden
Ġgu ard
y m
ĠTe am
Ġwind ow
ĠG ood
Ġfam iliar
ad ium
Ġtal ks
ĠJ ose
Ġspe ct
Ġw ish
a wn
Ġh ate
Ġa ward
Ġcre w
ol it
Ġthan ks
Ġp it
Ġst ruct
ĠP et
Ġdec ide
ol a
gy pt
id ering
Ġimm igration
Ġar my
Ġ3 2
Ġcar ried
Ġsecond s
yn am
Ġreg ist
Ġapp oint
Ġscient ific
Ġp et
ĠS ub
el ess
L ast
Ġstand ing
ĠF ire
Ġhelp ing
ag ues
ĠM ary
Ġsc ript
ĠB ern
st ream
ĠWe b
ĠCol lege
ut ers
ĠThe ir
Ġ4 5
Ġbe er
Ġrev olution
ost on
r un
Ġmult i
l o
ĠTh omas
ĠRes earch
Ġfil ed
Ġenvironment al
Ġdom estic
ĠSecret ary
Ġstand ards
ars h
Ġqu e
oc ol
im al
g n
ĠAl so
Ġvar iety
Ġmark ets
Ġphil os
Ġs ch
er ous
Ġturn s
Ġt ack
Ġimp ossible
] .
ĠAt lant
Ġp air
Ġaccount s
Ġvot es
Ġdeg ree
Ġdro pped
Ġv ul
ĠU s
Ġac adem
Ġter rit
Ġneighbor hood
Ġinter act
Ġco ld
i ams
Ġposs ibly
ĠSyri an
a ven
Ġapp re
Ġoper ating
Ġbal ance
Ġprofess or
is er
6 5
ĠServ ice
are n
f e
H L
Ġaltern ative
ill a
Ġtest s
R ead
ack s
Ġwor ry
Ġhon est
ad ed
Ġser ver
Ġcut s
ad er
! "
I M
Ġincreasing ly
Ġun ion
Ġr ich
p m
Ġfell ow
c ious
Ġpr inc
ru it
Ġl ived
Ġl osing
ĠB ur
Ġchang ing
it ect
Ġapp ly
Ġapparent ly
ay er
Ġset tle
ĠFound ation
ar ks
rast ructure
ĠT wo
Ġun ivers
Ġdevelop ers
Ġult imately
ict ed
Ġhum ans
Ġag encies
ste in
Ġsound s
Ġtw ice
Ġrelig ion
ĠT ime
g u
ĠPr ime
ĠIm ages
Ġcol le
= "
Ġse a
ĠL ast
Ġabsolute ly
00 00
as hed
F rom
ore s
ĠM os
Ġat h
Ġsold iers
ans ion
ĠD en
Ġclos er
Ġinn ov
Ġun its
Ġsc hedul
Ð ¸
i ot
Ġauthor ity
Ġhealth y
Ġbeaut iful
Ġfund ament
Ġm ut
o ch
Ġposs ibility
Ġequ ip
Ġpay ing
3 1
rou d
ĠCarol ina
ob by
Ġdevelop ing
Ġexp ensive
Ġy ards
Ġfl ight
Ġcorpor ate
Ġv ast
Ġwrit er
Ġsk in
Ġap art
Ã Ĥ
c oh
I V
Ġregard ing
ĠCent ral
Ġad just
Ġseek ing
Ġde ploy
Ġexper ts
ĠP eter
O f
Ġimag ine
ĠS T
d en
ĠJ es
rel ated
ĠL at
ist ed
ĠU nder
Ġsol ar
Ġapplic ations
Ġt ast
N D
ap ers
Ġsit ting
Ġanim al
l ook
Ġv ision
ĠDist rict
Ġintern al
at ures
Ġcap acity
olog ies
ĠJ on
Ġhe at
ĠTor onto
ĠFrancis co
Ġc overed
Ġp il
st ate
u nder
os en
I P
Ġg ar
Ġar ms
Ġun less
ĠUS A
ain e
E ven
Ġrespons ibility
I ON
Ġtr ail
Ġelect ions
ĠA ri
Ġer ror
ĠM iddle
L E
ĠPl an
Ġun iversity
ov ing
Ġ200 4
ĠBit coin
Ġf ol
Ġfam ous
Ġpresent ed
ĠP ut
Ġfor ms
en ced
ĠAm azon
ĠC amp
idd en
Ġear n
Ġsurpr ise
Ġgu arant
i as
Ġf if
Ġatt orney
Ġconv ention
Ġo dd
ust er
ĠS ol
ur ation
J ust
Ġsy mb
ort ion
ĠE gypt
rib le
Ġt ight
Ñ Ĥ
Ġr id
h and
Ġsp ort
u zz
Ġbro ken
ro ad
Ġte en
Ġhelp s
Ġint ended
le ts
Ġinst it
-------- --------
in i
Ġveh icles
por ary
Ġestim ated
ĠJ o
p erson
ress ive
Ġfl ow
ĠP ublic
Ġcl im
U p
Ġstre ets
ĠB oston
Ġoccur red
( )
Ġsh all
Ġcons ult
Ġdeter mine
L et
all s
Ġdom in
g l
Ġexper t
Ġt on
Ġpie ces
ĠTh ose
anc he
Ġf ired
Ġtro ops
ĠG al
O W
Ġloc ated
use um
ter day
ĠCh ief
Ġpro ve
ĠM ur
Ġrap id
Ã ĥ
ot y
Ġprep ared
or age
EN T
Ġst ars
Ġspecific ally
ĠC ath
Ġbring ing
Ġpot entially
Ġequ al
Ġhy p
Ġn ar
Ġins p
Ġcon clus
Ġse ctor
ed er
Ġsc r
Ġf aster
Ġgovern ments
Ġst ress
ĠO nce
Ġpl enty
Ġbo ost
Ġr andom
ĠM ass
ĠJ ournal
A b
Ġvul ner
ĠSoc ial
Ġse lling
ĠPro t
ph as
Ġequip ment
T H
Ġb reat
Ġb aby
Ġse asons
Ġpropos al
Ġhe av
ĠAn y
Ġcoun cil
Ġj ail
w ar
ĠVirgin ia
D o
Ġrul ing
in ent
end ment
our s
Ġref used
ĠPar is
an ish
ce an
Ġfact ors
ĠS pr
Ġinf rastructure
Ġrem ove
h t
Ġd in
Ġer a
Ġ= >
Ġoff ering
Ġsec ure
Ġb row
ĠC ur
Ġbro ke
Ġweap on
Ġpro secut
cl ass
Ġdr am
Ġcl in
Ġexpress ed
Ġvot ed
Ġcl ot
ĠR ub
ĠGu ard
Ġchalleng es
E very
ĠF ederal
Ġconduct ed
Ġmethod s
ve y
i pping
n oon
ĠS ant
6 4
is her
ure au
Ġcomb at
ĠR iver
Ġelect ed
Ġcar bon
ĠIs land
Ġt ourn
Ġpoint ed
Ġpos itions
ĠMed ic
, '
y r
ĠP lease
Ġrem ained
Ġpr ime
Ġtr ig
ock ing
ĠLe e
ri e
Ġcult ural
Ġret ail
ĠAustral ian
th at
ĠM el
Ġorig inally
ĠO pen
0 1
ĠWh o
on om
ĠC ru
I G
ce l
ro g
Ġsign s
9 5
ash ion
Ġm aster
F irst
Ġfin ish
Ġcritic ism
ly n
Ġwere n
ed ia
m m
Ġsh ape
Ġpercent age
et ic
Ġgreat est
ol ved
Ġs ale
0 5
Ġsignificant ly
Ġthan k
Ġappear ance
ĠF e
Ġvot ing
Ġfac ing
ĠD uring
Ġyou th
ĠWill iams
Ġv ir
Ġinvol ve
ĠS ing
Ġaffect ed
ly mp
Ġst ret
Ġte le
S p
Ġdetermin ed
stand ing
Ġredu ced
Ġreg ime
Ġd ream
Ġchem ical
ri er
D P
Ġw ood
Ġb ought
ĠR o
ĠS aud
Ġher self
S ince
ĠR em
c ol
Ġind eed
Ġmod e
Ġobv iously
Ġmin imum
Ġg rew
Ġm arg
ĠFor ce
ĠB oth
ĠCol or
re ens
Ġrem aining
Ġth r
ĠPh oto
Ġ5 00
s en
Ġhand le
Ġh urt
Ġh un
Ġcont rast
al ing
Ġre nt
ord in
Ġpolit icians
Ġarg ued
igh ters
Ġc as
Ġsupport ing
Ġrecord ed
ĠSte ve
Ġpl us
Ġsub s
Ġlead s
Ġre venue
Ġsurpr ising
ĠF ree
Ġpurch ase
Ġs witch
Ġappre ci
Ġwe aring
ar p
Ġexc ited
Ġt act
Ġb ound
Ġcons idering
Ġvide os
Ġfil ms
Ġmin ute
Ġexpl os
g ment
Ġpro ced
ĠB ook
Ġbas ically
ĠP ac
Ġ199 0
ow nt
ĠCons erv
Ġexperien ced
Ġdiffere nces
Ġa id
Ġt urning
Ġcon cent
coh ol
Ġt ur
Ġacc ident
Ġident ify
ess ions
Ġsh ift
Ġhttp s
Ġopportun ities
h ab
Ġpan el
t op
Ġafter noon
ĠChar l
Ġbel ong
og ue
Ġobs erv
Ġpull ed
Ġsp ring
S S
Ġser iously
Ġair craft
Ġmot iv
ĠP ower
ru ption
Ġ //
Ġgl ass
l ife
od d
b ur
ĠN ov
ut s
Ġconsum ers
Ġpros pect
P D
Ġag ent
ĠR ad
Ġse at
Ġdep art
Ġend s
Ġdis s
Ġeven ing
Ġlist en
ĠH aw
as p
Ġemer gency
C L
os ite
Ġcomple ted
ĠI N
Ġvis ual
Ġtre ated
app ing
he red
Ġa st
ĠD aily
Ġe lement
ll er
ap ter
An other
Ġcomb ined
or al
I nd
H is
ang ed
Ġstrugg le
ĠR oad
ed s
h y
Ġenem y
Ġhop es
ĠSh ow
Ġconst ruct
Ġlot s
Ġm ort
Ġtalk ed
ĠO lymp
Ġapp s
Ġpass ing
k et
Ġ id
p et
P e
, [
T V
C ont
W ell
Ġpriv acy
om pl
un ction
ĠB et
uc ks
Ġ19 5
ra ud
ĠSp ace
ens ions
Ġp owers
ab ilities
Ġpl ants
ĠR el
Ġopp osed
Ġdisc l
ĠH ol
Ġwide ly
Ġsu it
Ġadv ance
ĠJack son
ive red
ne ll
al ed
Ġdis miss
Ġtrou ble
u ous
Ġcal cul
Ġfl at
Ġpro ceed
Ġpack age
ĠPro ject
Ġattempt s
Ġp ages
Ġb urn
it a
Ġfact or
Ġdist ance
Ġliber al
4 2
Ġz one
pl om
ok ing
ob e
Ġcopy right
ĠM att
tern al
ĠB BC
Ġref erence
Ġfr ust
ra wn
Ġt un
Ġc art
Ġre action
Ph one
est ival
at o
Ġst orm
Ġrep orters
Ġup gr
Ġcoll abor
Ġtyp ically
z er
Ġdef ault
P R
Ġgr ab
l ines
Ġval id
Ġs ac
U T
Ġ200 3
Ġinst ruct
Ġh ol
A pp
ribut ed
m osp
Ġqu ant
ad ow
Ġqu iet
st s
id el
Ġwrit es
Ġdisapp oint
resp ond
ac he
m es
8 8
Ġden ied
ĠM em
Ġappro ved
ain ts
Ġb odies
c are
raz y
ap ed
Ġmat ters
Ġent ertain
Ġm al
Ġrespond ed
Ġopt im
m ond
Ġstand s
Ġset s
A m
er ry
ĠT oday
ell y
ĠN AS
Ġcap able
Ġconf idence
Ġel imin
ÃĤ Ãĥ
Ġre new
Ġexpl o
ed d
ĠDirect or
Ġtrad ition
ok en
f ree
Ġem p
Ġcre ation
Ġspl it
es ters
se x
Ġg iant
Ġinstit utions
ani el
ĠSy stem
p ass
ĠS qu
Ġwe ather
Ġco ff
ĠM a
r ant
ĠY et
Ġconf ident
Ġun able
ĠP enn
Ġp itch
ĠWill iam
Ġsat isf
Ġbroad cast
R ep
Ġco ast
Ġse vere
D e
ĠH uman
Ġcl oud
Ġpers pective
Ġprom pt
Ġm and
Ġf ly
is ters
r id
Ġad vert
Ġ200 1
ĠOh io
Ġtrans ition
Ġnum erous
w rit
Ġtechn ical
ĠMed ia
4 3
un te
Ġcapt ion
ĠAfghan istan
ĠLab our
il it
h ost
I I
em ploy
ab led
Ġreported ly
ab in
Ġcr imes
Ġpict ures
ĠTur key
Ġord ered
ĠT ra
Ġ3 6
Ġl oved
Ġfac es
Ġfor get
Ġc raft
Ġadv ice
Ġexperien ces
Ġfl ag
ĠS cience
Ġshould n
Ġexpl ains
ĠAnd rew
Ġrout e
Ġdecl ared
Ġsuff ered
is hes
Ġviol ent
Ġappro x
] ,
Ġreport ing
ĠL in
as tern
amp ion
Ġmess ages
Ġp roud
Ġmov ies
us iness
Ġsubst ant
Ã ¤
Ġdel ay
c an
Ġnewsp aper
Ġon going
Ġb ull
ound ed
Ġcircum st
ĠW al
S e
Ġgun s
il ty
ĠGr and
Ġcan n
ĠF ollow
Ġdecl ined
Ġconnect ed
ov es
res ents
O ver
Ġco oper
R es
ul ations
Ġinj ured
Ġdel ivered
Ġpick ed
Ġthough ts
Ġex cell
Ġg ra
Ġev al
Ġacc ompl
Ġfind ings
Ġad mitted
ev in
Ġappropri ate
t ion
Ġfor g
O D
Ġle aves
raz il
ell ow
Ġg ather
Ġpr in
du le
ĠA v
Ġem phas
ang ers
Ġmar ried
ner gy
c alled
Ġro t
Ġed ge
D uring
Ġpublic ly
O ther
ess or
u ations
ion ally
7 7
M A
Ġupd ates
re land
Ġread ers
Ġr ail
d ate
ar l
, âĢĻ
ĠW ood
Ġarch itect
Ġwalk ing
Ġper man
ĠS ov
4 1
Ġem ails
L S
ans as
c os
Ġreal ize
Ġlawy er
Ġstate ments
Ġd ial
ĠChrist mas
o oth
Ġedit or
c ons
Ġdri vers
Ġa uth
ĠR on
ĠD ou
Ġconf irm
Ġleg it
ĠS her
ĠMuslim s
Ġactiv ists
Ġs ession
Ġexerc ise
Ġour selves
Ġpo ol
6 6
ĠSc ot
Ġar med
end a
ar n
Ġarg ue
Ġag ents
Ġcont ains
ĠA T
Ġterror ist
Ġpat ient
az a
ĠS um
Ġmor al
Ġtal ent
Ġquarter back
Ġobject s
Ġphilos oph
ou ston
Ġf illed
ĠRe v
ul s
Ġs ad
Ġbuild ings
Ġte ch
ent ure
ĠR od
M any
Ġcr ack
our ney
ĠI D
ĠG en
Ġtrans form
Ġlab el
Ġpract ices
l ong
Ġt ree
ĠPh ot
ÃĤÃĥ ÃĤÃĥ
ac ter
Ġd ynam
m ates
i at
ĠB ack
ĠTe chn
Ġeffect ively
Ĥ ¬
Ġ198 0
Ġmiss ed
ĠH y
Ñ ģ
Ġexam ples
T A
al a
ĠUkrain e
Ġcent re
Ġca uses
as ure
ER S
Ġsh op
T ube
Ġwe ar
Ġsub sequ
Ġalleg ations
Ġs ke
O h
w ord
u y
Ġf ish
Ġdeb ut
Ġsecret ary
ĠV ict
ĠSe attle
Ġb ond
ĠMich igan
or ry
Ġinj uries
ag ers
ĠSe e
ill y
Ã Ń
ord ers
ĠRe ad
am in
or se
Ġth inks
Ġess entially
Ġcl ient
Ġfl o
ĠJ ul
Ġart ist
Ġexp ansion
ĠI ll
ĠK im
S pe
F ollow
Ġs am
Ġmot or
ĠS ign
Ġr ain
Ġhe ll
r um
ar ters
d ef
Ġdes ire
ĠG M
ĠB at
Ġinit ially
Ð ½
ĠSaud i
Ġp ure
Ġmaterial s
Ġexpl an
Ġfr anch
Ġfact s
Al though
ĠF er
g ia
Ġnecess arily
ad or
ĠW ork
et te
Ġgovern or
Ġinc or
Ġv an
Ġ ing
Ġlink ed
Ġperform ed
ĠL ife
ĠSt an
Ġschedul ed
Ġdat ab
Ġaccept ed
en ger
Ġmy ster
ic ing
Ġwar ned
Ġdi plom
ri p
es ome
w ater
i est
Ġlist ed
k ay
ĠM ount
Ġvar i
Q u
Ġincre ases
Ġadv anced
Americ an
Ġsu c
Ġplay off
Ġfac ed
Ġmag azine
Ġj oint
Ġdo ctor
Ġb are
Y es
Ġne ither
ĠT O
Ġab andon
r ich
ĠL ake
Ġath let
ill ance
ĠWe ek
Ġyes terday
Ġannounce ment
Ġm ir
Ġevery body
Ġrad ical
Ġdec re
ĠR E
ĠSec ond
Ġn ations
ir ty
Ġoff ense
C an
Ġnear by
Ġi Phone
Ġfollow s
M ost
Ġfor t
ĠH en
Ġres olution
Ġbeg ins
ed y
Ġat mosp
g ent
Ġconsequ ences
Ġmov es
Ġsurpr ised
ath an
semb ly
ot ic
Ġdist ribution
Ġp ra
it ors
Ġal t
Ġimpro ved
l aw
Ġ \
Ġappl ied
ĠD an
Ġrep resents
Ġsp ons
Ġch art
Ġplan e
ĠDe velop
ĠI reland
ĠC NN
Ġst ood
T S
Ġa f
Ġp hen
Ġen h
Ġwar m
8 5
Ġadd s
Ġr ide
Ġconf ig
ĠCol umb
Ġdem ocracy
Ġrem ark
ĠA ff
Ġfl ood
ĠBl ue
om in
The n
Ġ3 3
Ġgu ilty
Ġt rib
Ġthreat s
ird s
Ġpus hed
Ġbr ings
Ġmanufact ure
ide o
Ġsh ots
Ġout put
ĠBar ack
w hel
Ġal cohol
ĠRom ney
Ġsong s
Ġre in
Ġwith d
ĠJew s
Ġtot ally
us al
ĠV ol
Ġb ot
Ġbehav i
Ġdiscuss ed
v in
Ġhistor ical
ĠBo ard
ĠSt r
ĠC ub
ĠSw ed
ocrat ic
Ġlaws uit
ĠOn ly
Ñ Ģ
Ġs ought
Ġconsist ent
t witter
ard en
Ġent ry
Ġr ising
Ġrece iving
Ġinvest ors
Ġf ill
Ġent ered
Ġk it
ĠD iv
Ġcomb ination
ĠN BA
ĠW he
Ġro w
Ġexist ence
Ġrestaur ant
Ġboy s
Ġbr ight
Ġn ative
Ġis land
ĠP rem
ĠL ib
Ġart icles
st ood
Ġhead s
Ġcreat ive
ab b
Ġsub scrib
Ġst orage
Ġ200 2
ĠKore an
Ġsc ored
Ġcor respond
Ġbut ton
ĠB razil
Ġrough ly
f ortunately
ac le
Ġres ident
al ty
Ġclass es
Ġsqu are
Ġin put
P U
Ġunlike ly
Ġse m
du c
Ġsa v
Ġb oss
Ġcont est
ic ious
Ġnet works
Ġconsum er
ĠAn other
Ġl ie
ĠIt s
z ona
Ġfair ly
Ġ3 00
ĠS ports
ĠIS IS
Ġsuc ceed
ĠAs ia
Ġwar ning
Ġres c
Ġtemper ature
Ġcolle agues
A dd
Ġfun ctions
b orn
ĠH ist
Ġheav ily
iss ions
Ġl ibrary
Ġl ock
M an
ic ian
Ġpar liament
Ġhouse hold
Ġsy m
Ġsymb ol
Ġdeath s
ĠS ky
ĠCl ub
8 6
ĠW alk
Ġany where
ok ed
Ġpro hib
ĠF ar
Ġprot ests
ic an
Ġcur rency
ĠMay be
Ġyoung er
Ġtarg ets
en a
Ġpl ot
Ġstr ing
Ġimport ance
olly wood
Ġdef ined
ĠR ights
Ġto w
ĠM s
d is
ĠB ob
Ġbre aking
Ġb ike
on na
Ġman age
Ġr ally
O b
Ġexpress ion
Ġmet al
Ġclass ic
Ġf raud
ock et
iqu es
Ġl inks
Ġc ere
het ic
Ġstore s
ere nces
Ġrepl aced
Ġs now
ĠE ach
Ġdo ctors
Ġem pt
Ġsh if
Ã ³
Ġbu ying
Ġn av
S ee
Ġmarket ing
Ġfac ility
ĠR am
Ġbl ow
Ġregul ations
w est
and al
Ġwas te
Ġsome what
P ol
I F
p ret
Ġfav our
Ġopp osite
Ġ3 7
Ġalleged ly
Ġsch ol
Ġl augh
Ġess ential
Ġill ust
ĠH ouston
ch o
Ġbu g
Ġprom ise
Ġhold s
ĠB oy
ĠColor ado
Ġcamp us
Ġopp onent
Ġvers ions
m l
ag an
Ġh at
' ,
Ġmot ion
O C
Ã ¶
ĠY ear
ĠD C
Ġmom ents
Ġhard ware
Ġv ice
Ġadult s
ol ve
Ġev olution
in em
Ġrele vant
ĠE lect
Ġr um
Ġb ag
Ġse es
Ġz ero
Ġad m
ĠBro ok
Ġhop ing
Ġhard er
ĠEx p
Ġclose ly
Ġch ain
op y
Ġfew er
ter ing
erv es
Ġs ick
Ġto m
Ġd ownt
Ġb on
omet imes
Ġindust rial
Ġact s
om a
ĠAn n
g ame
Ġvol unte
c hen
ĠE r
E n
ĠVal ley
0 9
Ġint ention
I R
Ġreturn s
Ġsy n
v a
Ġmechan ism
s hip
Ġacknow led
Ġh ur
Ġparticip ants
ĠW ik
it tle
ens us
Ġf ashion
Ġcustom er
g reg
Ġm ine
ĠC IA
Ġdiv ision
Ġsqu ad
ĠSov iet
ĠG ames
Ġis ol
Ġemot ional
Ġimmedi ate
ĠH el
ĠYou Tube
Ġg rown
ĠC ard
N C
etro it
Ġext ent
om ing
ul ous
Ġbat t
Ġcircumst ances
el lect
O RE
Ġtourn ament
Ġ4 9
i i
ĠIm age
olog ist
ig er
ĠO F
ĠG ar
ï ¿
Ġsuff ering
ef ully
ĠD ie
ate ll
Ġexcell ent
Ġdetail ed
Ġw ins
Don ald
Ġter min
Ġ3 8
Ġcy cle
0 8
al ian
Ġw ave
cer tain
Ġche ap
n ame
Ġan cient
Ġrelationship s
st r
Ġc razy
f riend
p an
Ġdescrib e
ĠE ric
Ġl ies
Ġcarry ing
Ġfundament al
Ġkind s
es c
Ġimm igrants
ĠI P
ĠJes us
ĠPalestin ian
ord an
6 7
Ġun us
Ã ¼
Ġt iny
ay ers
Ġgu ide
Ġdec line
Ġfeat ured
ke l
pr int
ot al
Ġsk ill
Ġp ip
ĠL ong
ĠM ot
Ġear ned
Ġauth ors
n ic
st yle
Ġcompet itive
u a
Ġtr ick
Ġstr ange
Ġart ists
Ġact ing
Ġinst ru
F P
Ġfor med
Ġeff icient
ut ch
ĠW atch
Ġc ert
ĠCath olic
or a
Ġpus hing
Ġem br
ĠE ll
oc key
ĠC y
n am
P er
aw a
Ġman ner
c hers
Ġreg ional
Ġsh aring
Ġsign ing
ĠG ra
Ġcomfort able
um ber
Ġrefer red
Ġfrequ ently
ĠPut in
Ġown ed
Ġcontrovers ial
ĠE conom
Ġr ing
ĠW ild
Ġupd ated
ĠH ome
Ġw ire
u ated
ĠDav is
b ar
Ġalong side
Ġrepeated ly
0 7
h us
Ġhot el
Ġm outh
Ġcommit ment
Ġ4 8
Ġme at
â ĸ
Ġattempt ed
Ġ3 4
ĠC le
ĠA ut
ĠW ay
Ġcol umn
ĠD i
we ight
ĠO ld
0 4
ĠN Y
Ġup coming
Ġe gg
ĠE nergy
Ġur ban
Ð¾ Ð
an es
Ġreal ized
Ġsent ence
u able
Ġfem in
Ġsche dule
Ġint ent
f oot
Ġdep th
ĠS ar
Ġded icated
iven ess
Des pite
ĠAri zona
x y
ĠChar les
rom e
Ġstru ck
Ġsu icide
r ison
ï¿ ½
b el
am ily
ri ve
Ġl iqu
ĠR ight
ce ived
Ġpre gn
iam i
L ike
Ġinsp ired
k o
Ġun iverse
ĠT op
Ġwalk ed
T wo
D S
ĠJ ava
Ġtarget ed
ograph ic
ĠW ars
y ou
Ġpl ed
u gh
Ġdes k
iz z
ob b
Ġus ual
ĠDe v
Ġj ourney
Ġopp onents
Ġmed ic
Ġag enda
Ġord ers
Ġass ets
Ġca using
Ġnews let
Ġfl u
Ġmain stream
Ġrep ut
Ġs ister
Ġserv ing
Pe ople
ay lor
Ġstud io
Ġvirt ual
ĠAg ain
ĠSu pp
x ual
Ġsurve illance
0 6
ĠD own
Ġch annel
ĠDef ense
ĠL ord
Ġwat ched
lud ing
Ġchair man
Ġtrans p
ad el
Ġover whel
b urg
Ġsurround ing
ĠM en
Ġcoff ee
Ġlat ter
at i
Ġliter ally
Ġobs erved
Ġsubs id
Ġs and
az i
Ġpost s
ĠCru z
ĠT al
Ġh all
Ġprotect ed
Ġ7 5
> >
Ġt ort
az e
Ġteac hers
Ġknow ing
ĠV an
Ġbat tery
Ġstre am
ĠYou ng
av or
Ġf asc
Ġprec ise
Ġappro val
M ay
Ġra pe
Ġdeep ly
Ġk ing
ph y
Ġs ending
Ġsim pl
% )
0 2
i pl
Ġcommunic ation
Ġcon gress
ren ce
Ġdeal ing
Ġw al
ici ency
Ġfol ks
Ġas ide
Ġn arr
Ġsk y
Ġnot iced
im ents
Ġrem ote
Ġexc iting
Ġpass ion
Ġd u
Ġfix ed
O r
ĠP y
Ġg od
Ġbas ket
I nt
m un
Ġform at
Ġwin ter
ack ing
Ġfor th
Ġproper ties
so le
g or
b oy
Ġvol ume
ac c
Ġris ks
Ġal ive
ĠJ r
Ġrequire ments
r ors
F r
Ġ Î
Ġcr ash
t a
Ġrefuge es
Ġexpl ore
al le
ĠP an
ĠW at
Ġne ut
i ro
Ġw ake
Ġex hib
L A
ult ure
8 9
w oman
Ġd iet
all as
Ġun known
r ations
ens ity
Ġany way
Ġdefe at
ĠBr ad
Ġtest ed
ab is
Ġre ward
p ost
Ġ197 0
Ġprom ised
Ġun employ
ĠT it
Ġnar row
Ġg ang
ger y
Ġswe et
Ġg ap
ĠStep hen
Ġmist ake
Ġe ating
Ġinvol ving
Ġattack ed
ĠAr ch
ĠM ax
onym ous
Ġhe ight
ĠF il
Ġw est
Ġloc ations
Ġphen omen
Ġdestroy ed
Ġbl ame
et her
Ġwel come
ĠCh ild
Ġw age
Ġse lection
Ġproper ly
um s
Ġext ended
Ġpro of
i xt
Ġimp ressive
Ġput s
Ġsudden ly
ĠEn ter
Ġapprox imately
ap se
ĠC ast
Ġmat ches
ĠPol it
Ġterrit ory
ang es
or ation
Ġs ample
ĠK evin
ing u
Ġcon ver
Ġn orthern
Ġsust ain
ĠIn s
oc ation
Ġd ry
ig g
âĢĻ .
Ġprot esters
st one
Ġdisc over
og an
ĠF ort
ar ry
Ġslow ly
ĠM iller
ĠB est
Ġmere ly
Ġp al
Ġfranch ise
Ġprom ote
Ġterror ism
ĠW omen
Ġch ose
Ġmax imum
Ġw id
Ġtyp ical
5 9
Ġteac her
Ġsh o
Ġlic ense
Ġrequ ests
Ġdi agn
Ġselect ed
d ro
a o
ĠP R
ow ered
Ġf uck
ob ile
Ġshe l
l ies
Ġob lig
ĠWil son
Ġmod er
0 3
Ġthem e
Ġe ast
Ġdis ag
ver ty
l v
as er
ĠL u
Ġret ire
it arian
Ġwor ried
f ire
Ġrecogn ize
ins on
Ġass ume
ĠSt and
ĠD etroit
l ist
R el
as ks
Ġtop ic
ĠD am
p ool
ig ure
ĠAg ency
Ġde als
Ġsupport s
Ġconf ront
ĠH ollywood
ĠC amer
Ġpo verty
ĠCl ass
Ġpro te
ĠM ic
Ġab ortion
Ġad apt
Ġlik es
V ER
p o
Ġnom ine
Ġr ub
J ohn
Ġall ies
Ġfac ilities
T e
ĠSoc iety
ĠAd minist
Ġarg uments
Ġit em
Ġunder stood
ax y
ra id
Ġcontro lled
Ġfe es
C A
ĠP S
uild ing
Ġp ed
ĠF our
ce ler
Ġso le
Ġsome how
Ġconst ant
au g
5 7
Ġresist ance
ĠJer sey
h an
ar ity
Ġhon or
ĠIt aly
GB T
Ġd ress
Ġcrit ics
g ender
Ġdr ag
Ġjournal ists
Ġph ase
ĠComp any
Ġsche me
Ġequ ival
Ġreg ions
ĠL and
ĠF ord
a ire
Ġcommunic ations
Ġvill age
ast s
os is
Ġb unch
Ġst im
al o
Ġobtain ed
ll s
Ġlim its
Ġperson ally
< /
Ġpun ish
Ġexp osed
ĠSp anish
Ġev il
Ġch ampion
red it
Ġth read
ĠD un
Ġstrong ly
ĠCar l
rim ination
Ġfall ing
Ġdec k
Ġsome where
p es
c ers
c ript
ĠO k
Ġcond em
Ġvac c
ort ed
Ġprof it
c ow
ĠN ight
ĠK n
Ġesc ape
Ġdefin ition
Ġhar ass
Ġcompar ison
Ġempt y
st ers
ost er
ĠGeor gia
ĠNAS A
Ġpoll s
ow a
Ġmeet ings
Ġencour age
Ġf lex
Ġwin ner
end ers
Ġem issions
Ġtr uck
Ġdec ent
Ġdatab ase
Ġp ic
pect ed
ĠM iami
Ġcut ting
or ic
Ġbe ar
if orm
Ġb id
ĠL ove
w an
6 8
Ġs outhern
ur a
Ġcomp rom
ĠAs ian
Ġemploy ee
ĠNet work
m od
Ġtre es
ci ples
Ġdes per
z ens
ĠDes pite
nes ota
Ġh its
a un
int end
Ġan x
Ġstrong er
Ġgood s
ĠN HL
Ġgot ten
ĠD aniel
ĠIr ish
ĠC am
C S
C E
Ġpurp oses
m o
Ġide al
Ġdirect ed
ig ation
ad s
Ġde leg
ĠE nd
Ġin qu
ĠL abor
Ġclaim ing
Ġben ch
U R
ĠD ar
ĠV iew
Ġint ellect
ĠN ations
Ġfind s
in er
Ġ3 9
Ġch osen
Ġfif th
Ġs oul
Ġoffic ially
r ary
Ġcol on
Ġ icon
Ġelectric ity
Ġdevelop er
Ġdri ven
Ġf old
Ġamount s
Ġext ensive
ĠC D
Ī Ĵ
Ġstret ch
ick en
Ġt ies
ĠB ell
Ġrul ed
An y
Ġd rawn
ĠTh ank
se a
Ġinc l
Ġs ight
Ġpay ments
ep ing
ow ed
as ters
ĠC at
r as
Ġthreat ened
Ġend ing
Ġre tain
ĠD NA
Ġdog s
Ġreason able
ĠIn f
E W
Ġreject ed
un ning
Ġperfect ly
Ġdist inct
Ġaspect s
Ġsp in
ĠJ ordan
Ġcapt ured
Ġansw ers
Ġsome body
Ġeng age
Ġpar am
ĠS k
ĠTh ough
Ġprim arily
Ġconst antly
C om
ĠO S
ld er
Ġtrad ing
Ġf ighters
ĠSe a
Ġad mit
ĠRe al
ĠAtt orney
ĠL ight
Ġb le
6 9
Ġse ats
l ock
reg on
Ġr ig
Pol ice
Ġfield s
Ġcho ices
Ġhous es
ĠG all
ĠServ ices
z y
Ġpark ing
Ġany more
Ġt ank
Ġestim ates
Ġr ival
Ġf lying
Ġb oot
Ġp od
f ast
ĠTur k
Ġconst it
Ġsol utions
Ġtechn ologies
ir ms
ĠDis ney
Ġreg ularly
Ġelse where
Ġcour ts
ĠD ark
im p
Ġresult ing
ĠM S
O nce
ĠL ew
s m
Ġpay ment
Ġact or
Ġcont em
Ġnarr ative
Ġno body
Ġemploy ment
Ġout come
Ġenc oun
ap es
Ġex ists
ĠH un
Ġprov ince
ĠW here
hip s
Ġaw esome
Ġbre w
ĠAc adem
is an
Ġprof ile
Ġkeep s
Ġcontrol s
in ations
ĠScot land
Ġm urd
Ġcomp onents
Ġmix ed
ĠW ater
Ġcontribut ed
Ġlet ters
ĠU t
M S
ĠVict or
Ġmay or
Ġsign al
Ġworld wide
Ġap artment
8 7
ot ten
ĠB owl
ĠB rian
ag ram
ĠA uthor
ĠAd am
Ġsit uations
ĠB ru
Ġincred ible
ian a
on ic
Ġfound er
ĠB as
D r
ear ing
3 00
Ġconclud ed
al i
ĠOr gan
Ġbase ball
v y
ĠSte ven
Ġcl ients
Ġenem ies
ĠT w
Ġcoal ition
ĠMo ore
ĠCh ampionship
ic er
Ġbill s
Ġatmosp here
Ġwe ird
ĠI d
em en
Al so
Ġcru cial
Ġk il
Ġlo an
ĠR og
ĠT urn
M P
Ġcontin uing
Ġregist ered
Ġu pper
Ġincred ibly
Ġ4 2
Ġaccur ate
Ġdem ands
Ġun p
Ġinform ed
T oday
ĠConst itution
in ity
Ġfeed back
c r
Ġent hus
Ġt ied
ack ed
.... ....
m ont
Ġassist ant
Ġdrink ing
Ġcons cious
Ġrep orter
ind ing
ĠS outhern
Ġang ry
Ġcateg ory
Ġprov ed
ot es
Ġst ead
Ġst uck
Ġter rible
Ġrout ine
the re
S ec
Ġgener ate
ĠIt alian
Ġexplan ation
il arly
ĠCon f
Ġcon ven
Ġtick et
." [
Ġim per
er a
Ġinf ect
Ġdo zen
Ġmach ines
Ġr us
ĠC ivil
ĠA L
ĠSp ain
e z
Ġret urning
Ġra ising
Ġinn oc
isc al
Ġnew ly
ons in
r ates
Ġwrit ers
Ġaggress ive
Ġ5 5
Ġrepresent ed
ĠE p
Ġconclus ion
se ll
ĠJose ph
Ġrec overy
r age
Ġman ip
isc onsin
Ġex cess
ĠTh anks
Ġg aming
k er
ĠD allas
Ġpain t
Ġconsum ption
ĠPro gram
Ġcomp ens
Ġ %
adel ph
Ġest ate
l ers
ar on
Ġpen alty
ĠA R
Ġmy th
Ġg ro
O ff
Ġdoll ar
Ġro ster
Ġprogram ming
Ġorgan ized
b al
Ġinter pret
Ġcapt ure
ry pt
Ġcons pir
Ġcompl aint
ĠT est
anche ster
ess ed
ri a
ĠE duc
Ġcompl icated
Ġorig in
ann y
ific ations
B ecause
Ġt all
Ġs atell
Ġgr anted
ĠW in
re p
Ġ( $
Ġch ances
Ġassist ance
Ġmag ic
ĠS n
ĠS C
ĠG i
Ġcount y
Ġpl astic
st ar
Ġsym pt
Ġpil ot
u an
Ġha bit
Ġn ut
Ġaud io
im a
Ġsh ares
ĠMin nesota
adelph ia
Ġbit coin
Ġ6 5
Ġthe rap
r ating
Ġsuccess fully
ur b
M L
ĠT em
ĠO per
Ġ iron
Ġro ot
E d
Ġtechn iques
ĠH ot
act ions
Ġlaw makers
In st
k ed
he nt
gor ith
ĠC ross
Ġveter an
if er
re te
Ġdeg rees
es y
ĠZ eal
Ġant icip
Ġautom atically
ĠO s
ĠCont in
Ġscen es
Ġhe l
==== ====
ĠPac ific
ĠPar liament
Ġr u
ĠC oll
Ġeng aged
ĠRom an
Ġext ract
Ġoper ate
it als
Ġaim ed
ĠC are
ind er
Ġt aught
Ġph r
ch ain
Ġsurv ive
Ġbl ocks
id ency
Ġteach ing
a ed
Ġperman ent
the w
Ġad s
Ġinst alled
Ġtit les
ĠF re
Ġmon it
Ġsol ve
C ol
ĠSen ator
ĠSpe cial
Ġ199 9
Ġatt ended
Ġ6 4
Ġw estern
ĠFore ign
b a
Ġext rem
Ġp in
ĠN BC
Ġmark ed
ĠI T
it ar
Ġacadem ic
Ġacc omp
ĠT aylor
ĠA h
Ġind ex
Ġval uable
Ġr ating
r ific
) )
Ġvulner able
Ġc up
ever al
% .
ab ama
Ġtast e
Ġh idden
Ġun certain
5 6
Ġlawy ers
Ġf ake
ĠB alt
ĠLin ux
ĠB usiness
ĠL ook
H S
Ġb om
u ine
Ġpriv ile
Ġwork er
ĠN ick
Ġdep ending
ĠL GBT
Ġen able
Ġregard less
ib ilities
Ġcomp re
Ġd ict
Ġcollect ed
Ġch ampionship
Ġp ace
Ġpass es
re ams
Ġdownt own
Ġaf raid
th is
Ġvis ited
ĠK elly
ath y
as hes
Ġins pir
Ġc able
Ġrec ording
Ġ1 50
Ġover se
Ġwar ming
Ġadv is
Ġsuff icient
Ġreput ation
Ġsur gery
Ġtrack s
Ġel ite
Get ty
ĠDe ad
ĠT ony
Ġb es
ul es
Ġdis aster
Ġenjoy ed
d a
ĠMos cow
Ġcom ic
Ġe lev
Ġequival ent
ĠA venue
Ġth in
atur ally
Ġrac ial
Ġap olog
Ġprin ciples
Ġbus y
et ary
Ġexp osure
ĠB ull
ĠAn th
E A
Ġph ones
19 9
Ġsh it
m al
Ġgener ated
Ġprocess es
Ġport ion
mon th
ĠSt ill
ĠSer ies
Ġprom inent
Ġtrou b
ĠN ation
Ġcry pt
âĢĻ ,
Ġsp r
ĠR ay
ĠCo ast
Ġint ense
Ġnegoti ations
Ġperson nel
f rom
Ġmain ly
Ġd uty
act ive
Ġent it
Ġgr ant
ĠO regon
ĠJ osh
Ġdef ence
ĠE astern
qu arters
ĠV iet
Ġg all
ĠIn vest
Ġresult ed
Ġfun ny
w orld
Ġne uro
man n
pr ise
ĠT ake
Ġp ounds
ĠL o
f all
P r
ĠC all
b ro
ã Ģ
Ġch at
f ront
Ġext ension
Ġunus ual
Ġm ail
Ġemer ged
Ġdescrib es
Ġbr ut
Ġengine ering
Ġpattern s
y e
ĠK urd
7 8
Ġ âĢĻ
il er
Ġadop ted
ĠC ome
Ġcompet e
Ġevery where
or ne
ĠI owa
up id
Ġf ought
ic ate
M ean
ĠM u
Ġbl ind
Ġdisc ipl
R ec
Ġposs ession
Ġtax p
H A
Ġhad n
rap h
Ġco ordin
Ġexpl icit
ĠZeal and
Ġd im
ĠK ent
Ġmed ium
Ġfeel ings
re ll
cl ing
Ġcor ruption
ĠH as
Ġbrow ser
l og
AT E
Ġ4 00
ant ic
ĠV eg
g un
ĠBe fore
t es
Ġprop ag
ĠF ood
ĠGree k
c les
sc ape
te xt
Ġsan ctions
Ġc ited
Ġst ations
Ġen orm
Ġcontract s
Ġrare ly
Ġth ick
ĠO l
L C
Ġrec ru
v iously
il ton
ĠPol icy
Ġminor ity
Ġin ev
Ġexpect ations
he rent
ol t
ĠS af
ĠN orthern
ĠG er
ĠM ars
Ġcamer as
or ough
Ġshort ly
Ġrec ip
idel ines
ist ent
5 4
Ġsu p
Ġstr ict
ĠW isconsin
if ies
Ġthous and
Ġf irms
Ġfin ance
Ġscen ario
Ġh o
C o
ĠN avy
ĠA li
m aking
ink ing
Ġper mission
Ġvis ible
Ġimplement ation
ob s
Ġlight s
Ġt or
Ġparticip ate
Ġm el
Ġadvert ising
5 2
Ġl oud
Ġprior ity
Ġw ing
y stem
Ġun w
ĠR ick
Ġ4 4
ĠGl obal
Ġac celer
el and
c us
n i
re f
Ġpl ug
ĠAm endment
B O
Ġv en
az z
Ġloss es
ĠHen ry
og en
ĠPhil adelphia
5 8
Ġphot ograph
ĠH om
Ġbr idge
: :
ĠF oot
Ġaff ili
M ar
ent h
ur rent
wh o
Ġhistor ic
Ġsh ock
ab s
Ġcreat es
Ġstrik es
Ġla id
og ether
ĠAs h
Ġdo zens
ĠL ive
am ber
ĠDevelop ment
Ġcomput ers
Ġve get
c ar
Ġob st
f ound
Ġair port
ose xual
at hered
ĠP ay
Ġun com
ĠV is
U s
Ġt ag
Ġclub s
Ġfound ed
Ġcoun sel
u er
ĠE SP
Ġbeh alf
as ion
we et
Ġsc oring
ask a
Ġ4 7
Ġy ield
ĠG reg
Ġag ric
Ġwonder ful
Ġform al
ĠO ak
Ġal gorith
iz on
Ġg ained
Ġfe e
e lect
Ġprinc iple
Ġepis odes
Ġf ault
Ġto ler
Ġbasket ball
ig en
s he
Ġgen uine
Ġmanufact uring
j o
Ġinter face
ĠA D
ĠH it
+ +
U L
ĠH T
Ġp ump
Ġcomp onent
ĠM ajor
Ġestablish ment
oun ced
Ġrid ic
ĠS now
ĠE mp
Ġcy ber
prof it
um in
5 3
Ġrel ief
um er
ar lier
Ġg ift
Be fore
Ġphilosoph y
ĠR oyal
Ġh ole
Ġun iform
Ġsa ved
Ġmag n
im ore
Ġst able
ĠPrem ier
ĠAl abama
et ime
ĠM id
ol is
le te
ĠKe y
p read
Mean while
op her
Ġfound ation
Ġdraw ing
ĠRe view
Ġjournal ist
ĠTh us
Ġexcept ion
rat ors
Ġst adium
ĠF red
ili pp
r ative
l an
Ġj u
Ġwhe el
Ġhead ed
a us
Ġb orrow
Ġstrugg ling
Ġsp ark
Ġc rop
Ġfoot age
Ġed ition
ĠS P
Ġrecogn ized
Ġindic ate
ĠM oh
ĠKing dom
am i
Ġdo ors
Ġban ned
Ġcann abis
ĠA S
ĠJ ac
5 1
ĠTh ree
ĠK ir
Ġsh arp
u ce
Ġre ly
ĠM anchester
Ġleg end
b ell
j a
Ġprofess ion
epend ent
Ġbelief s
Ġro les
Ġpl ate
ĠAr m
port ion
N e
Ġst ab
ĠR and
Ġsy nt
an ing
ides pread
Ġback ed
Ġ19 60
ĠR et
Ġcont aining
Ġwithd raw
Ġneut ral
em an
m ate
Ġdin ner
ĠAdminist ration
te en
ou red
Ġneigh b
Ġlik ed
Ġsh ips
Ġent ering
Ġprodu cer
c a
Ġh ang
Ġch a
ĠRep ort
ĠMc G
Ġachie ved
Ġr iver
Ġfl aw
E P
Ġmove ments
Ġdeli ber
Ġg onna
ul ating
Ġtack le
Ġredu ction
u per
Ġh ired
Ġwall s
et ts
Th ose
Ġ- >
Ġfarm ers
ĠF C
4 00
Ġar range
ĠAtlant a
ĠO tt
ĠJ ason
Ġf inger
Ġdest ruction
i el
R S
Ġ4 1
ĠAcadem y
bur gh
rou s
ĠCon ference
ĠDie go
ĠN ote
ĠM ir
Ġinterview s
Ġ199 8
Ġnomine e
Ġb ath
Ġlangu ages
________ ________
7 9
sy lv
Ġbare ly
int erest
ĠP oint
c ription
Ġdisc rimination
ĠF und
Ġa ver
os a
ĠN ob
ĠCent re
ach ing
Ġstruct ures
Ġpro ven
Ġinc ent
Ġfore ver
Ġdeli very
P ost
Ġto x
Ġconv in
ĠV R
aw ay
ĠF air
Ġprocess ing
Ġ4 3
Ġcont ained
ĠD id
ĠEduc ation
Ġchalleng ing
ĠPer haps
o en
ĠRe uters
Ġup set
M e
ĠHar ry
ri ers
Ġe uro
Ġconv icted
Ġun ex
Ġo cean
ay ing
AT O
ĠF ield
Ġre n
ĠB ry
t hen
ol en
Ġro se
Ġprodu cing
ĠP ack
ĠP en
Ġtechn ique
ĠAb out
ĠD ata
ĠTurk ish
Ġrestrict ions
P G
Ġhit ting
l s
ĠF ed
us ive
Ġret ired
Ġintellect ual
enn y
Ġill ness
is p
P resident
abin et
ĠRad io
l ad
Ġas ks
sylv ania
Ġut il
Ġindic ated
Ġelect ronic
% ,
ams ung
St ar
Ġsm ooth
Ġh ide
Ġdesc ription
Ġrapid ly
ow ing
ĠH ay
ĠH or
ĠDiv ision
Ġcorpor ations
Ġreview s
ĠChrist ians
Ġsuggest ing
y ard
ĠH ard
Wh o
P M
ĠS at
Ġbeg un
ĠMay or
Ġnot ion
p ower
Ġexclus ive
ĠJud ge
olog ists
Ġfl ash
h o
it i
Ġbr anch
Ġb ra
Ġrecogn ition
ik es
p age
Ġnorm ally
Ġper pet
Ġequ ally
Ġw idespread
ĠO K
less ly
Ġl oyal
eng ers
ĠR ose
ou ver
ĠN C
7 4
Ġtick ets
ĠC O
Ġex ternal
ĠMark et
Ġlist ening
Ġb urd
ĠR ef
ri k
7 6
Ġreach ing
ĠC irc
Ġ201 9
ud es
i y
Ġcont ribute
Ġ4 6
Ġwebs ites
Ġfriend ly
Ġgr ass
ĠMcC ain
S ub
um a
ĠA ND
Ġinv ent
Ġrepresent ative
Ġcoll apse
L ook
ach us
ion e
Ġrob ot
http s
Ġsettle ment
Ġprogress ive
el f
Ġhard ly
ĠArab ia
ust ed
ĠN ext
Ġcampaign s
arr ass
ĠU FC
D av
Ġm o
r ical
Ġview ers
ri ent
Ġterror ists
Ġpract ical
Ġwe lf
Ġprep are
Ġb ail
app y
sel s
Ġcare fully
omet hing
c ore
Ġsm oke
Ġredu cing
Ġex ceed
Ġar ray
th on
Ġfr ag
ĠMus ic
ĠK ansas
Ġunc lear
ĠB attle
ĠN ic
ĠBe ach
ĠO nt
ĠD ig
Ġwelf are
ĠF urther
R ef
Ġeth nic
im m
Ġoverwhel ming
Ġmind s
Ġsens itive
ĠL uc
Ġiniti ative
ned y
Ġrespect ively
Ġh ook
ĠL ind
Ġt ail
Ġrac ist
ĠA BC
ĠL y
Ġrec over
ĠR us
b ec
Ġdep uty
Ġassoci ation
Ġinvolve ment
Ġf iscal
anc ouver
ro lled
Ġth rown
ĠI ce
M c
igr ant
Ġconvin ced
d em
Ġl ists
ĠT enn
Ġmil k
ann a
um es
ut ies
ĠESP N
U N
ĠBern ie
Ġdev ast
if est
Ġv ital
Ġfeat uring
B ack
ĠS ir
ec ut
Ġv ary
Ġconnect ions
f r
Ġel ig
b n
ĠS S
7 2
ĠLat in
Ġframe work
he ast
? ?
rat or
ĠF ull
Ġdeep er
Ġstat istics
Ġfant asy
ĠG ov
Ġinv ited
ĠM ah
Ġunemploy ment
Ġinvestig ate
Ġrem em
un ior
Ġimprove ments
Ġbehavi our
Ġsu gar
Ġstrateg ic
Ġjo ining
Ġany body
Ġcompl aints
Ġw ine
Ġl uck
achus etts
ĠL ittle
Ġmen u
Ġconst itutional
Ġst eal
ivers ary
ĠP it
ou ch
ĠN SA
Ġindepend ence
Ġscore s
Ġw ars
ĠH D
ĠMin istry
Ġan ger
w orth
Ġdef ine
Ġsubject s
ĠB rew
pl oad
Ġsc reens
ĠPenn sylvania
Ġno ise
Ġschol ars
W ill
Ġroad s
ĠT own
e en
Ġj ury
Ġf iction
ĠN ever
Ġtouch down
ĠE s
âĢĶâĢĶ âĢĶâĢĶ
U nder
Ġcitiz en
ĠK at
ĠSqu are
Ġowners hip
Ġtr ained
Ġfail ing
os it
Ġg ear
level and
ĠU lt
Ġal ien
Ġdisc overy
Ġl obby
ih ad
ino is
ĠAnt on
Ġg athered
od ing
Ġcontrovers y
Ġfear s
R I
Ġimplement ed
Ġcompre hens
F F
ick ing
Ġw ages
Ġin ject
ĠBro ther
Ġsc andal
Ġc os
Ġlic ens
Ġdem ocratic
C he
Ġreg ister
Ġf ab
Ġcap tain
Ġover t
Ġcollect ive
m ad
Ġserv es
ĠM useum
ĠO N
Ġult imate
Ġt ip
Ġincor por
Ġs oph
ĠCommun ity
Ġst upid
Ġneigh bour
Ġpe ak
Ġtrans gender
Ġpro sec
ĠIn formation
Ġrefer ring
Ġdisag ree
" )
ty pe
Ġtem porary
ĠA le
Ġleg s
ĠMed ical
Ġvers us
Ġhand ful
ag g
Ġ199 6
ĠJ ay
Ġaware ness
Ġrecomm ended
ĠX box
m ary
Ġsympt oms
Ġre ven
Ġplatform s
ĠC ore
c ific
Ġcas ual
Ġr ural
Ġrep rodu
ang el
Ġtest im
Ġrem arks
Ġt asks
ĠCamer on
Ġacc us
Ġattempt ing
Ġdynam ic
G E
Ġattack ing
h our
ĠProf essor
Ġt one
ĠA ction
Ġhead ing
Ġdiscuss ions
ĠVeg as
Ġs in
Ġsuff er
Ġreg ulation
Ġvisit ors
' .
ĠAll en
c ase
Ġlay er
ĠPat rick
st ract
Ġsam ples
ĠSant a
Ġsp aces
ĠP ent
ĠM ake
ac on
Ġing red
Ġcivil ians
Ġest imate
Ġw ww
ĠMat thew
ĠWalk er
ĠR en
ĠB udd
Ġlog ic
Ġexpand ed
S m
Sc ript
ĠII I
ĠSpr ing
Ġign ore
Ġpublic ation
ph ones
Ġpo ly
ick et
ak a
Ġthe at
ĠB all
are t
ĠQue en
inc luding
G O
Ġext end
Ġgen etic
ĠAnth ony
Ġliqu id
Ġatt ached
ĠPh ilipp
g ener
R C
Ġsett ings
Ab out
Ġne ck
Ġeas tern
Ġhyp ot
ition ally
ĠSt one
ĠAl bert
Ġground s
New s
Ġdis pl
Ġr aw
Ġbr ill
Ġpurch ased
all ing
P C
Ġenorm ous
ĠC ook
Ġâ Ĥ¬
A ss
Ġ199 7
omm od
Ġs orry
ĠChe ck
ĠHist ory
ĠGuard ian
Ġaff airs
Ġentertain ment
ict ions
Ġsuspect ed
Ġtweet ed
Ġfact ory
Ġres ource
Ġrank ed
Ġhol iday
ĠBalt imore
ĠA p
Ġhor se
ĠG aza
es h
Ġbrother s
ĠAust in
Ġact ors
à ¤
Ġst ake
Ġview ed
Ġlegit imate
s erv
Ġinter vention
ĠAP I
ĠSt at
Ġimprove ment
Ġr ational
ĠColumb ia
l ah
Ġr aces
Ġactiv ist
ĠGold en
W here
ĠConserv ative
intend o
ĠGree ce
ir y
Ġc ro
ult ural
ar ms
S en
Ġseem ingly
Ġout s
ĠS uch
Ġinvol ves
re pre
Ġpres um
Ġhuman ity
Ġinvestig ating
Ġopin ions
Ġfall en
Ġco aches
Ġdram atic
Ġtom orrow
Ġemb arrass
ov al
Ġinvestig ators
Ġro ok
iver pool
Ġsubstant ial
b i
ĠMass achusetts
Ġsal ary
Ġd iversity
ĠCh air
oty pe
re c
ĠSt adium
Ġabs ence
our se
Ġco vers
Ġfore st
Ġbo at
ge on
ect ive
ĠSe ason
. -
ĠR oy
Ġrefere nd
Ġmedic ine
F A
Ġlo ans
Ġoffic es
Ġf ulf
ĠA cc
Ġsusp ended
Ġadvoc ates
in f
qu est
ĠP ot
Ġstay ed
Ġg am
Ġconspir acy
ĠHe ad
ĠRev olution
Ġprov iders
repre ne
Ġmon itor
Ġk m
d it
Ġcele b
Ġc ogn
co ver
ĠKen nedy
Ġres ign
Ġch apter
Ġp apers
ĠIran ian
Ġb ars
Ġj ur
Ġ5 2
ist ing
Ġover s
ĠH o
x it
R uss
Ġcare ful
Ġam id
ĠW W
cl aim
Ġb ureau
Ġi OS
ĠCont rol
am med
we red
Ġ 00
Ġf oss
ĠT ri
Ġh am
d ri
Ġdis rupt
ix ed
Ġaut hent
Ġp orn
ĠR oss
Ġpre ced
Ġconsist ently
ES T
Ġtransport ation
Ġsh r
ĠC BS
Ġthrow ing
ĠAnd erson
Ġdep ends
re ts
m at
Ġaddress ed
Ġc oc
Â Ĵ
Ġpre f
Rel ated
Ġcol ors
Ġperson ality
u ction
Ġmin ing
Ð »
v ard
Ġi P
ĠT ro
Ġatt itude
Ġhand ed
un es
Ġmiss ile
Ġpet ition
Ġinfl ation
ip al
Ġread s
Ġclot hes
Ġnot ing
ĠV ancouver
Ġmount ain
Ġsur f
Ġvirt ually
Ġj e
B oth
Ġf ruit
6 3
S te
ĠR a
ĠF reedom
ic ity
Ġconvers ations
ien ces
Ġste el
ke ep
ple te
h ot
ĠMe an
il a
Ġwar rant
Ġspeak s
ord on
! )
Ġprof its
Ġcon ce
Ġlow est
Ġg ains
ĠH ospital
P art
ĠSh are
Ġshould er
i ability
Ġgu est
Ġhor ror
m aker
Ġfant astic
Ġcl osing
Ġtri es
sc ale
ĠF amily
Ġast ron
d es
Ġread er
rop ri
Ġspirit ual
Ġappreci ate
iv als
Ġw rest
Ġent r
fl ix
ĠC leveland
Ġcontribut ions
Ġinc idents
pl ate
ĠIll inois
ĠInt elligence
Ġacc ommod
E E
in ch
ĠC re
Ġhand ling
ĠBro ad
Ġst one
7 3
6 1
z ed
Ġguarant ee
Ġmar ks
u its
pp ers
Ġdep ression
ĠB ang
Ġte a
" .[
ĠEn vironment
Ġprot ocol
am ac
Ġvot er
ĠHow ard
Ġh int
Ġd rew
Ġd ance
ĠL as
Ġr het
Ġsubsequ ent
Ġball ot
Ġphot ograp
Ġm aps
Ġencour aged
ut ed
Ġr anks
Ġl ucky
Ġsp oken
Ġsw ing
av al
sen al
Ġin ner
p at
Ġprom ises
ĠEng ine
ĠLew is
Ġb acter
N ote
6 2
Ġcover ing
Ġcon sole
Ġl ands
ĠHar ris
port ed
ĠUn fortunately
Ġdiv ided
Ġtre m
P lease
ĠE xt
l ow
Ġinnov ation
ĠC H
Ġjud ges
Ġg rav
Ġsh out
Ġprem ium
ĠB a
Ġbro wn
un icip
it age
20 16
ed ing
Ġbu ff
ĠWh ich
oun ce
Ġche cks
Ġmus ical
H er
ĠIraq i
ĠGet ty
ĠD et
Ġport ray
Ġ _
Ġth rew
ab eth
ĠB ad
it ting
hel sea
Ġimpro ving
Ġre vel
## ##
Ġeff iciency
Ġdist ributed
Ġdr ama
ĠP o
Ġsil ver
Ġmist akes
ann els
Ġ5 1
p ie
pl ed
ĠInd eed
Ġreplace ment
Ġl ocked
Ġtemper atures
Ġspokes person
Ġacknowled ged
ĠWith out
Ġc ust
ĠS ony
Ġjo ke
8 00
ĠPat ri
Ġl ying
Ġrespons es
Ġcom edy
ĠA C
Ġpar alle
ĠMex ican
arg o
ir a
Ġd ump
Ġ199 5
Ġprotect ing
Ġso il
ĠHe ll
Ġbreak s
ap ing
Ġg al
Ġbar rel
x x
Ġliter ature
Ġhom eless
Ġper mit
ĠCon nect
ĠS et
Ġinstru ment
ĠSt art
Ġleg acy
Ġy ellow
Ġreferend um
back s
d ated
er ies
amac are
iet ies
Ġr om
Ġle ts
ĠN ATO
ĠC ost
he im
Ġabandon ed
y er
ĠL A
Ġj oy
Y our
ĠS amsung
Ġm ad
ij ing
Ġvir us
ĠN OT
V E
Ġpass engers
ĠPl us
Ġsc an
Ġord inary
ĠM oon
ĠFoot ball
in ction
Ġf estival
Ġm oon
og s
ĠU se
Ġcommon ly
ĠK ong
Ar t
Ġbl ast
hes is
Ġdemonst rated
ĠH ind
er ted
Ġign ored
ĠC A
Ġcop ies
Ġd iverse
ĠG un
Ġtw enty
P P
ĠN ev
S ource
Ġst olen
C ons
ass ador
Ġnom ination
ĠMar vel
Ġt ape
ar re
od ed
Ġfund ed
con f
Ġmid field
ĠB uff
Ġfall s
ĠL yn
ack et
Ġ( âĢľ
oc ument
ĠDo es
Ġr if
Ġn aturally
Ġhelp ful
Ġex it
Ġacqu ired
Ġgr id
Ġcom pe
ĠA st
Ġstud ied
H T
Ġre ar
est y
Ġl es
Ġupgr ade
Ġd ad
lah oma
Ġsc ope
Ġst y
ile y
Ġmeas ured
al ia
h igh
Ġb ub
com es
Ġtrans actions
aw are
ĠP op
y o
ĠA I
Ġcount s
Ġarri ve
Ġass ert
ĠE ag
Ġpartners hip
er g
9 8
Ġm arch
Ġins isted
Ġmonit oring
Ġsy mp
Ġf ro
Ġst ages
Ġhead quarters
ĠB ron
u h
Ġdef icit
on ly
Ġrepl ied
h op
Ġcap abilities
i ate
ĠC apt
Ġrat io
Ġske pt
ĠD ave
ĠPr ince
Ġrepresent ing
Ġrece iver
ĠâĢ ¢
Ġprote in
ĠAtlant ic
Ġmat hem
et ers
Ġcl ock
ĠEmp ire
el a
ĠB on
k ing
ct ic
Ġsupp lies
Ġtrack ing
ĠT our
F acebook
a ver
Ġdist ract
Ġperform ing
Ġus age
K e
ĠDe ath
ĠPro v
aed a
" >
ĠM arsh
Ġun ions
ĠIndian a
ĠM aster
Ġrac ism
sh ire
Ġa x
Ġgu itar
Ġconserv atives
Ġunivers ities
Ġassess ment
Ġpropos als
c ut
Ġaut o
ĠS cient
Ġ199 4
Ġequ ality
br idge
T R
Ġpl ain
Ġaccompl ish
Ġcritic ized
Ġhop ed
Ġt ie
N S
Ġwat ers
B M
Ġtr ave
ĠR os
z ing
r imin
ĠT rib
Ġconc rete
j i
Ġconvention al
orm al
ĠS ometimes
Ġre nder
ĠP ass
en cing
Ġwar n
Ġdom ain
Ġbeaut y
m ade
Ġsho pping
pl us
ĠDen ver
ecut ive
nt il
d oor
Ġappoint ed
Ġr amp
Ġprogram me
Ġlet ting
ĠA ud
ĠB ureau
Ġex ch
h ar
Ġrel iable
f und
or ge
om es
ugh t
ĠS us
Ġ20 20
Ġin equ
AN D
pt on
ĠGal axy
Ġintrodu ction
usal em
Ġabs or
a is
Ġdismiss ed
Ġab road
ĠM ill
Ġd ust
Ġe c
ir ts
r ite
Ġcan ce
ĠAb b
ol ph
C omp
Ġappear ances
Ġart ific
Ġv es
Ġvis iting
ĠAssoci ated
d ney
or gan
c rib
Ġland scape
arch y
m ony
O K
Ġclass ified
the less
ĠL im
ĠJ am
Ġdro ve
ag ic
ĠUt ah
Ġtrig ger
Ġresc ue
ĠCor por
Ġveter ans
20 15
ene z
Ġentit led
Ġhy per
Ġpres idency
Ġh ung
6 00
ĠA ge
ĠOr ig
ing ton
Ġb read
Ġm useum
ĠâĢ Ŀ
ĠA ward
ĠPort land
ĠL ine
ĠTechn ology
7 1
ult ane
Ġtrans it
Ġp atch
Ġur ged
Ġblock ed
ĠOnt ario
Ġh ockey
Ġsen ator
ian o
Ġcent ers
Ġpop ulations
ĠFr ont
Ġcongress ional
Ġspokes woman
f ol
ĠSwed en
ĠC ode
room s
Ġpredict ed
ag a
Ġd ub
Ġrock et
Ġass ign
Ġpolit ically
Ġwhen ever
Ġf iring
ĠW H
p ed
Ġcl ar
Ġw ider
Ġtarget ing
Ġc ig
ĠCo oper
ĠL ow
Y et
Ġ ~
j ud
ĠOlymp ic
Ġbreat h
Ġsequ ence
Ġrequest ed
Ġsurv ival
ĠN intendo
Ġd ates
Ġsw im
ĠU r
th rough
Ġtestim ony
Ġpurs ue
Ġpers ons
St ill
Ġdocument ary
ĠK ar
Ġappro ached
20 14
ĠG irl
the y
Ġcomp are
Ġmembers hip
ord inary
ac co
ĠB ible
af e
Ġrec all
A re
Ġm ole
Ġsub mit
in ating
ĠH a
b ow
ĠRober ts
iz abeth
Ġrepresent atives
Ġtact ics
Ġemploy ed
ol ves
Ġsoc cer
Ġqu ote
T y
**** ****
Ġbrill iant
âĢ¦ âĢ¦
ĠL iverpool
Ġpopular ity
Ġviol ation
tr ans
Ġp ig
Ġt ips
ĠJust in
Th ough
ĠC ro
p a
Ġcont rad
in als
Ġintrodu ce
ĠAlex ander
ber ry
bre ak
ound ing
ra pped
Ġs alt
Ġsatell ite
Ġsh adow
or ous
Ä ĥ
Ġdis order
at ar
Ġmonth ly
ĠF orm
Ġphr ase
ct r
ĠT ed
ĠD O
Ġf ighter
Ġrestaur ants
w as
Ġbank ing
is ons
Ġth orough
Ġdesign s
ĠM ach
Ġbon us
Ġsa ving
d on
Ġprison ers
Ġm ac
Ġobject ive
ent er
Ġm it
Ġretire ment
old s
Ġh osp
d ed
Ġac id
Ġfocus ing
ĠH ur
Ġr ush
Ġpip eline
Ġent reprene
ĠPro p
es ter
Ġexper iments
Ġunex pected
o is
Ġw edd
ĠP A
ik i
ou ri
ĠA k
ocol ate
Ġgener ations
ĠH op
Ġprodu cers
C O
Ġch annels
Ġpre par
Ġscient ist
ĠAd v
em ed
Ġfor cing
ĠC ow
Ġbut t
ĠL ist
Ġcelebr ate
Ġser vers
Ġfore cast
ik a
Ġab ilities
f are
Ġlo ose
enn is
8 4
Ġm os
Ġdemand ing
he ld
Ġc ul
ĠJer usalem
Ġanx iety
er ts
Ġke ys
Ġb ab
eder ation
Ġden y
Ġoverse as
Ġsett led
Ġinvestig ations
ĠB ase
Ġchild hood
ĠV ill
Ġarg ues
Ġact ively
Ġprep aring
ĠC lick
ĠMary land
Ġun pre
Ġphenomen on
Ġt ab
ĠLiber al
m ans
is k
ĠR un
ĠBr idge
ĠY OU
Ġst ability
Ġweek ly
Ġunivers al
Â °
el son
oen ix
ĠBe ijing
Ġmaintain ed
m ers
ĠDes ign
ĠH ave
ĠGovern or
ĠHar vard
ĠB ra
Ġwealth y
Ġinnoc ent
ĠD utch
min ute
Ġsh ame
o z
Ġo kay
Ġf ool
ĠOb amacare
Ġfl ags
Ġwe igh
ĠAm ong
Ġroom s
m ind
ast y
Ġencoun ter
Ġdifferent ly
Ġcirc le
Ġrele ases
Ġarg uing
Ġsure ly
ĠW as
Ġt ens
Ġround s
Ġmin i
Ġex ha
Ø §
Ġsp ots
ah u
vern ment
ĠF all
Ġann iversary
S im
Ġsecond ary
Ġl unch
omp son
Ġhealth care
a a
Ġsav ings
Ġprov ision
ir lf
Ġ ?
ic ism
Ġtit led
Ġsil ence
Ġhy dro
Ġ5 3
Ġlegisl ative
ĠOk lahoma
ht ml
Ġreve als
Ġsm oking
Ġar bit
av ed
Ġbroad er
Ġrel ax
Ġton ight
Ġland ing
Ġa er
Ġsub mitted
irlf riend
Ġsmart phone
re ction
is a
Ġf ate
Ġquestion ed
Ġ9 5
ĠP D
ĠWar ren
ĠDe b
ĠBel g
Ġsm ell
ĠPr ice
Ġal arm
Ġdead ly
ten ance
Ġs orts
ĠS om
Ġout rage
Ġro of
Ġf ur
ĠEd ward
Ġodd s
Ġqu oted
Dav id
Ġharass ment
w alk
Ġwind ows
Ġrat ings
Ġf ing
est ed
Ġer rors
ag h
Ġ9 9
Ġche st
Ġre verse
Ġafford able
e als
Ġmort g
Ġde lic
ond er
or ious
Ġgrad uate
Ġcivil ian
ĠC S
ĠBe ck
es see
Ġreform s
ore t
Ġse ar
Ġg ent
Ġpr on
ĠSt ory
Ġcons ent
Ġâ ĪĴ
Ġse vent
Ġthreat ening
E l
ĠEx pl
Ġprosecut ors
D em
Ġimportant ly
ĠG ulf
Ġpropag anda
Ġst ored
Ġadv enture
R L
US T
ĠViet nam
ĠSil ver
it ter
Ġinstruct ions
l ined
Ġcal m
V D
Ġprecise ly
Ġh al
Ġstrik ing
Ġtort ure
Ġcere mony
Ġcomprehens ive
ĠTe ch
Ġstrugg led
r ace
p ress
Ġp uzz
Ġpers u
Ġposs ess
d iv
Ġaward ed
ĠW olf
ĠL ink
Re uters
ail ed
Ġsh ield
Ġint im
Ġ199 2
act s
- >
Ġbi as
a fter
Ġvo ices
Ġd ying
Ġch icken
et he
Ġp icks
Ġb irds
it ary
ĠBl oom
Ġag es
Ġkil omet
ie v
Ġb orders
Ġdemonst rate
Ġconsider ation
Ġb urning
Ġw aves
ĠBer lin
ĠS ab
Ġpoint ing
ater n
Ġtrem end
ĠInd ust
Ġstre aming
ĠLe ft
ĠB ud
ĠMag ic
Ġcooper ation
ĠPalestin ians
Ġdifficult y
Ġdes erve
ak h
Ġtr illion
Ġrook ie
ĠH on
ĠLe ader
ĠGra ham
ut en
as ant
G A
Ġexec ution
ĠNet flix
8 3
ĠM ORE
Ġstay ing
Ġass ass
Ġsim ultane
Ġdial ogue
iz er
ish op
ĠRub y
Ġnewslet ter
s l
Ġsem i
ier ce
port ation
ĠComm on
st ep
it ol
W atch
row s
Ġdist ingu
Ġarchitect ure
Ġassum ed
Ġaut onom
Ġste pped
Ġcateg ories
as ury
Ġanaly st
St ep
Ġprom ising
Ġjud gment
le e
T P
ĠCar ter
Ġdri ves
Ġcons ensus
ĠM ain
ĠScott ish
Ġphys ically
Ġproced ure
Ġplayoff s
St ory
ĠY emen
ig ious
Ġgreat ly
rib utes
ĠMean while
Ġstrateg ies
scrib e
Ġst em
y es
Ġwant ing
Ġg if
ÃĤÃĥÃĤÃĥ ÃĤÃĥÃĤÃĥ
b ered
Ġan s
hold ers
Ġimpl ications
op en
Ġwhere as
Ġrepe at
Ġc ow
Ġcre am
Ġhighlight s
cept ions
Ġinter f
b ury
part y
om y
M s
Ġinc hes
ĠSar ah
ĠC helsea
ap olis
ced ented
E X
ĠAr k
Ġexecut ives
Ġass igned
ors hip
et ch
ra ig
ll a
ĠF al
ov a
ĠL t
Ġal ter
h att
Ġform ation
ĠS ix
ĠTe le
Ġsm ile
ĠV ice
ĠP erson
Ġsuper ior
ĠCr ime
Ġfrequ ency
it ual
Ġdefe ated
Ġremark able
Ġcont ribution
se ct
ĠHam ilton
ĠP res
Ġ1 20
Ġcontact ed
Ġemer ging
ĠT en
Ġaccess ible
Ġ5 4
ĠA z
Ġco inc
r if
ĠLe on
om ed
Ġw ounded
Ġdisp ute
c est
Ġcr imin
Ġmeaning ful
ig ate
Ġman aging
st al
ad i
Ġparticip ation
Ġhost ed
Ġop ens
H z
S L
b its
Ch rist
Ġn ic
o ice
ch ild
con st
ĠCap ital
Ġbl ank
ann on
ĠMar x
Ġdr one
Ġcompet ing
iff s
Ġdon ations
ĠT es
j s
Ġre vers
s es
ĠG T
Ġmin istry
ĠH ong
Ġe ase
ar ation
it o
um ble
Ġcent uries
Ã ¢
Ġmem ories
ĠAff airs
ĠAnd re
Ġclot hing
âĢ Ĳ
Ġn in
Ġpromot ing
Ġindic ates
Ġ199 3
ere nt
Ġtri als
Ġkn ee
ĠSy dney
ĠJon athan
Ġg ross
Ġathlet es
s a
ĠBru ce
Ġopen ly
Ġpass age
ere my
ĠBre xit
Ġend orse
Ġclin ical
M us
Ġr iding
A Y
Ġgu idelines
ĠSt ore
Ġman ifest
Ġinvest ments
ĠF estival
Ġrec ipe
Ġenthus i
** *
Ġt ired
Ġ !
vertise ments
P re
Ġins pect
Ġleg ally
Ġsuspect s
Ġph arm
er ia
Ġsubst ance
Ġd ating
Ġfac ilit
Ġb in
Ġ19 50
Ġmarg in
9 6
ar ia
Ġelig ible
Ġgr ade
ak i
8 2
Ġdam aged
v ision
ĠMan agement
ater al
ĠC redit
Ġenh ance
Ġtrans action
Ġn a
Go ogle
Ġcust ody
Ġfoss il
ĠAs sembly
ĠMr s
iss ue
Ġspe ll
ĠMor gan
ĠV ideo
v an
ac hel
Ġinf o
Ġm ood
ĠLib ya
Ġtherap y
Ġl ux
Ġpo ison
Ġdiv or
Ġmem o
ĠM ess
ĠInst agram
Ġbatt les
ĠTr ade
Ġg ate
ĠP ict
a uthor
Ġt ap
ĠH old
Ġdef ending
Ġag ed
Ġh ip
Ġdis h
Ġchar ity
Ġstud ying
ĠBat man
S C
Ġeduc ational
ĠE ff
e ven
Ġrac ing
u z
Ġper ceived
ĠD er
d y
Ġspect rum
Ġb owl
Ġmus cle
Ġaddress es
w atch
T ER
ĠTh rough
Ġst ere
ĠSe an
ĠE th
Ġpresent ation
ĠEx per
Ġse ed
D ef
Ġexpand ing
ĠU ber
ĠL am
Ġman agers
ĠB oe
ol n
Ġback ing
we ek
b ase
Ġt ables
ol ar
Ġdiscuss ing
art s
Ġl apt
ĠT ok
Ġthe ories
8 1
Ġpick ing
Ġburd en
Ġ2 50
it udes
Ġmiss ions
Ġkit chen
Ġdomin ant
ĠPent agon
ĠChild ren
Ġhop efully
ĠT ai
Ġv ig
ri ors
Ġfollow ers
ac her
h ard
Ġt ons
Ġcapital ism
od ox
Ġp ocket
Ġcounter part
play er
Ġunder lying
m ath
or able
Ġimp ression
A ct
ass y
ĠA N
ĠSt ation
O ut
ĠK ick
Ġn erv
Ġdisc ount
al ysis
ĠOak land
ĠO p
Ġdise ases
ĠY eah
yl um
V iew
Ġstop s
Ġfood s
Ġindust ries
ge red
AL L
F O
Ġgather ing
igen ous
ĠV ik
Ġbot tle
Ġsh ipping
Ġsurv iv
it ure
Ġcomp at
Ġunf air
Ġcoach ing
Ġrec ruit
le ft
Ġbe ings
ĠE qu
Ġfund ra
Ġtim ing
Ġhe lic
ĠM etro
Ġs ed
r ac
mark et
M od
Ġarri val
oc ial
Ġgraph ics
Ġorgan ic
Ġscr ut
ĠRep resent
ĠC reat
ĠB al
ĠM L
land o
ĠG ary
ĠS on
Ġbe ach
Ġb ow
Ġ5 6
A F
pt ions
Ġob sc
Ġcreat ures
Ġshe ll
Ġfl ed
ĠKe ep
": "
Ġe ager
Ġinst itution
s ub
miss ions
R eg
Ġexpl aining
Ġproced ures
Ġh ire
Ġcr us
Ġvar iable
og y
Ġt ut
ro ph
i ac
Ġro y
ĠTenn essee
enez uel
Ġhosp itals
ĠR oll
ĠHaw ai
ĠEm ail
ad ers
R em
ĠM LS
ang le
C al
ative ly
ĠEl izabeth
Ġ( "
Ġsign ature
Ġpunish ment
Ġset up
Ġans wered
am ous
Ġregul atory
Ġrec re
Ġst ance
Ġso vere
Ġrhet oric
ri or
Ġar r
Ġpull ing
Ġprefer red
Ġins ult
M ich
G e
Ġengine ers
Ġmod ule
Ġreb els
ĠCl ark
ĠW ales
Ġd ies
Ġrequire ment
Ð º
opy right
ĠAss ad
Ġtrend s
Ġm ath
ĠF riend
ĠMur ray
ĠCome y
ag ger
Ã ±
Ġacknow ledge
Ġhelic op
ĠL i
ĠB ox
Ġbe ating
ĠS ure
alt ies
u i
C lick
Ġe cho
Ġp ill
Ñ ĥ
Ġtop ics
Ġl ad
Ġgen es
Ġmer ch
Ġsearch ing
Ġover come
Ġinter action
ol ving
Ġbad ly
em ic
Ġsix th
iz za
Ġevery day
Ġperiod s
du ction
w ill
Ġprinc ipal
Ġpsych ological
m ic
ĠM it
Ġstat ist
Ġadv iser
Ġre nd
se ction
Ġsign als
Ġsent enced
cos ystem
ĠTh ompson
Ġcommand er
Ġbill ions
ĠEx ecutive
Ġout lets
Ġcl er
ĠB i
Ġline up
ab et
h as
ri x
unicip al
N BC
che ck
new s
ke e
Ġunder t
ĠG il
oc a
v ia
E arlier
Ġspeak er
br id
Ġgen re
Ġse ctions
Ġpoll ution
Ġocc urs
Ġg ig
Ġesc al
ĠMc K
ĠF inal
Ġconv ince
ĠR ather
Ġblock chain
P L
gr ade
Ġl oves
d s
ĠUs ing
aren cy
ts burgh
Ġrequ iring
Ġsh oes
F inally
ĠH art
Ġse gment
9 2
Ġtwe ets
Ġunpre cedented
Ġhom osexual
Ġdi am
T op
Ġpart ly
ĠDel hi
ĠI ron
ĠF inally
Ġcor rupt
Ġcoll aps
Ġinst ant
Ġeconom ics
Ġar ts
ĠCharl ie
ĠKent ucky
Ġle ct
ĠH oll
Ġrem oval
ĠB ow
Ġsp an
Ġtem por
net ic
Ġc iting
Ġm igrants
Ġattract ive
ent al
Ġb old
ĠG O
Ġconcept s
Ġappro aches
ĠG ordon
Ġcar ries
Ġv end
Ġcompens ation
St ate
Ġengine er
ĠMic hel
Ġbul let
Ġc ock
Ġe lder
Ġweak ness
Ġextra ordinary
" ,"
at us
ĠY an
ĠS av
ĠThere fore
li est
Ġegg s
Ġfab ric
Ġ199 1
ð Ł
ĠE vent
Ġlo op
Ġam endment
Ġshe et
Ġfrequ ent
Ġper ception
V P
Ġridic ulous
ĠJ ean
ĠP sych
Ġro ots
ĠAn na
Ġro lling
Ġu pload
Ġg ene
Ġpost ing
en ess
Ġelimin ate
Ġinst ances
ol i
U M
ows ki
ĠS ound
art ed
Ġinv asion
Ġs its
ĠE st
ne cess
ĠV e
Ġmain tenance
Ġf o
Ġdead line
c or
ĠInt el
Ġm ice
9 7
Ġtal ented
Ġ ).
ĠG DP
Ġun ve
is dom
ĠWhe ther
ixt ure
ot ing
Ġm ask
ĠO x
Ġar c
Ġcol our
Ġpubl ishing
sc reen
F l
ĠPri v
c re
Ġconstit u
Ġnot able
row ing
ĠP age
Ġdram atically
C omm
ĠHar per
Ġdisplay ed
ĠZ e
Ġpar ad
P aul
Ġcontem porary
g us
Ġcom ics
Ġmyster y
Ġb ene
Ġaim s
Ġut ility
Ġcorrect ly
ĠSim on
Ġcamp s
ĠPhot os
ĠP ers
Ġanaly sts
Ġinqu iry
ĠCap tain
Ġfunction al
Ġins ight
Ġ5 7
Ġencour aging
Ġd reams
Ġbu ck
ĠKh an
Ġlab our
ĠRus sell
Ġgl ad
Ġneighb ors
Ġassoci ate
ib an
ĠB M
Ġpri ze
v i
Ġrecommend ations
Ġche aper
ro t
Ġde light
Ġcollabor ation
Ġex port
ĠBel ow
th rop
ĠDr agon
Ġdeploy ed
Ġg est
Ġres erved
Ġcommunic ate
arg et
Ġmanufacture rs
Ġfat al
Ġl ift
el le
Ġtox ic
ĠPh ill
Ġdisappoint ed
2 50
ĠRe agan
A B
Ġdiplom atic
ĠT ax
Ġ8 5
og a
Ġprompt ed
ĠB ol
Ġdist ur
inc oln
Ġtr aged
Ġrep air
Ġemploy ers
ĠSt ew
ĠPh oenix
est yle
Ġinterview ed
igh th
Ġint r
Ġdemand ed
Ġland ed
M ark
ap ore
Ġmoder ate
20 13
ĠA ccess
ĠH and
Ġhero es
w a
Ġcou ples
Ġfight s
Ġviol ations
Ġn ose
ĠE ver
Ġse ized
ĠBrook lyn
Ġs essions
Ġcou p
T ON
Ġexplos ion
ĠEconom ic
Ġkn ock
Ġprospect s
on z
in stein
ĠF ant
Ġinequ ality
Ġingred ients
Ġoccas ionally
Ġple ased
D is
Ġsub sc
Ġc ens
1 50
Ġcogn itive
Ġrepresent ation
Ġaccomp an
f it
Ġp unch
ĠO cean
Ġartific ial
ĠAuthor ity
Ġbirth day
Ġmod ified
p ack
Ġbi ological
Ġconst itution
ĠE T
Ġgu ests
Ġres olve
Ġless ons
ĠJava Script
Ġp a
lud e
Ġs li
ĠS a
Ġconscious ness
ist ant
ĠMont real
ĠO cc
h ist
9 3
ĠCo le
d r
Ġe cosystem
Ġrec on
ro ck
Ġir re
ĠDig ital
Ġint ellig
ric ane
Ġown s
Ġopp ose
m ir
ĠE PA
ĠRes erve
ĠG iven
ĠOr der
el ing
Up date
ip edia
ll y
Ġdr unk
p g
ĠJ enn
Ġad equ
Ġbut ter
ix on
Ġtown s
Ġparalle l
Ġperform ances
le ans
Ġdesign er
Ġadop t
ĠD ick
N ext
Ġter r
20 17
Ġpregn ant
Ġinter pre
Ġvolunte ers
ac re
ĠAnton io
Ġlif etime
Ġdef ender
ĠF ive
Th anks
Ġh anging
Ġrel ation
ĠSt aff
Ġemot ions
ag en
Ġan onymous
Ġlog o
ĠH al
Ġass et
W he
ĠG ro
Ġmaintain ing
Ġstim ul
ail able
ĠB ul
ĠB urn
Ġl ibr
G ener
ĠN on
( "
ult y
Ġimp osed
Ġche ese
Ġ5 8
gr aph
Ġsh irt
is ition
end ar
T ime
Ġsold ier
Inst ead
ĠL ear
Ġcl ip
w ed
9 4
Ġb ands
i ens
Ġprofession als
Is rael
Ġmilit ants
Ġconf used
ial s
Ġg irlfriend
Ġst amp
Ġwedd ing
ik h
Ġs wit
aw ks
Ġjump ed
Ġtravel ing
ol s
Ġless on
ump h
g ets
h uman
Ġsh ocked
Ġn urs
Ġunder ground
ĠMar ine
ac les
s ome
ĠCon vention
Ġacc um
Ġab stract
Ġbox es
ĠD ur
hatt an
app ropri
Ġrec alled
E G
Ġgu id
Ġisol ated
Ġst ro
Ġinter ior
ĠPlay er
ĠK now
D R
ear ly
ĠL ibrary
Ġv ocal
Ġopp osing
Ġexist ed
ĠMiss ouri
w ind
Ġst ack
Ġconcer ning
Ġconfig uration
ĠV enezuel
ĠDo ctor
Ã §
Ġqu it
Ġadvoc ate
Ġann oy
st arter
ĠHit ler
Ġcreat ure
Ġsurround ed
t ra
ĠC ustom
Ġsum mit
Ġdescrib ing
Ġs ne
Ġsub ur
Ġpod cast
ĠProt ection
ĠCh annel
Ġfor um
Ġ vert
Ġj ihad
own ed
ĠS H
Ġp m
ĠOr leans
ĠAl an
â Ķ
lud ed
Ġmin imal
Ġsc ream
Ġinspir ation
Ġ6 00
Ġm ile
N et
Ġdesper ate
ĠCap itol
Ġsil ent
Tr ans
ab e
Ġbrut al
F i
ĠAr gent
Ġin herent
Ġut ter
bour ne
Ġkick ed
Ġintegr ation
l u
Ġcho osing
Ġref ers
K E
ĠR ome
Ġpeace ful
ĠTr ust
Ġrefere nces
U C
h r
N ame
Ġh oles
ĠH an
Ġintegr ity
Ġorgan isation
ou b
ĠCo al
Ġide ology
Ġy ell
he ro
Ġdesk top
A g
Ġelect oral
Ġmoment um
Ġbur ied
Ġregist ration
ĠAre a
f ather
Ġbank rupt
ĠR s
Ġy eah
ĠC ase
Ġstrugg les
ĠH amp
ĠNev ada
Ġsusp ic
Ġteam mates
Ġembr ace
book s
Ġev ident
ĠSte el
od ge
Ġme al
Ġcred its
to o
e lection
ar o
Ġref use
Ġ7 2
Ġan cest
tain ment
com mun
g ate
Ġpro be
Ġsustain able
ĠFollow ing
Ġte eth
im ize
m its
D C
Ġkn ife
Ġexp ense
âĸ Ī
Ġwond ering
ĠAr senal
Ġpromot ion
Ġj er
Ġat he
Ġnerv ous
Ġbom bs
ĠOn line
Ġaccept able
Ġrefuge e
Ġsc ar
Ġd ual
G u
re nd
h ire
Ġ198 9
Ġfle et
ĠLe ban
ĠMount ain
in st
Ġb ird
Ġgu ards
ĠM ove
Spe aking
ĠM un
b ound
ĠBar b
Ġpr ide
Ġsubscrib e
Ġclos est
c al
AR T
inc ome
20 12
Ġrem oving
Ġcon vert
ĠOr lando
Ġexp enses
Ġprof ound
b en
str ong
d ict
ĠW ord
ib l
st op
Ġdom inated
che ll
Ġfl our
ĠI M
ĠPit tsburgh
Ġst ating
St ation
Ġelect ron
f unction
Ġoccas ional
Ġbrief ly
ĠM ail
ĠInd ependent
Ġjust ify
ut ter
Ġcomprom ise
ĠD ream
Ġas sembly
Ġcharacter istics
ĠS ource
Ġexclus ively
us er
Ġeng aging
ĠPort ug
ĠR est
Ġconsider able
ĠAll iance
ĠW rit
Ġsurv ived
gr ad
Ġjournal ism
Ġdon ors
Ġtremend ous
ĠC ould
Ġinterpret ation
Ġexecut ed
H P
Ġbre ast
ok er
Sh are
oc ated
ĠAd ams
ĠEvery one
Ġload ed
Ġmon ster
sec urity
ĠB an
c ap
Ġpro st
ĠN azi
ĠInd ones
ĠSh ort
Ġsubsequ ently
el ve
Ġkey board
Ġdisapp ear
Ġout comes
Ġfle e
Ġh arsh
ing e
Ġcont rary
Ġsoph istic
ot te
Ġconf usion
Ġor bit
at tered
ĠC ON
He y
ĠP ant
Ġcha os
ars on
Ġprint ed
Ġstead y
Ġeng ines
Ġmin isters
orne ys
Q L
Ġres erv
Ġrob ust
ist le
ĠAnd y
ĠÂ ±
Ġl obb
Ġsp o
Ġobs er
Ġo rient
---------------- ----------------
G l
ĠSher iff
re ck
. ]
Ġspeak ers
Th ank
ĠR aj
Ġdistrict s
Ġgame play
ĠN orm
Ġcert ific
ĠB u
Ġsex ually
Ġconcer t
Ġcur ious
Ġf el
re tt
Ġmir ror
Ġrout es
P al
L ist
ĠD uke
Ġas ylum
ĠMan hattan
sc ar
Ġspec ulation
li hood
im mer
Ġpro portion
} }
Ġphys ics
m ble
Ġatt ending
Ġbr ands
Ġrevolution ary
Ġ5 9
Ġch ip
Ġfail s
ĠW right
B N
Ġh iring
Ġp ir
le ep
Ġg ri
ĠC C
ĠTes la
g ood
ĠTre asury
ĠO R
Ġpat ent
app er
ĠH aving
Ġc abinet
ĠL es
ĠN one
ol id
ubl ished
ĠH u
Ġcrimin als
ĠA ren
Ġnow here
Ġch ronic
Ġde emed
Ġpass enger
R ed
C ar
Ġwitness es
Ġpack ages
ĠOff icer
ĠSp ir
Ġchalleng ed
ï ¼
ĠTal iban
ĠM ult
wh ite
Ġem bed
ment ed
ĠL incoln
ĠG h
ĠStand ard
Ġstreng then
ĠV en
ĠCur rent
if ier
Ã ¨
ĠH oly
an im
Ġc inem
R ight
ĠL ater
e le
ĠGi ants
ĠCh ange
Ġend ors
Ġpres ents
ĠEd ition
Ġf ert
om ic
Ġcharg ing
Ġo xy
Bl ack
Ġ6 2
Ġdro pping
Ġev ac
Ġjur is
ĠUkrain ian
Ġguarant eed
Ġcor rel
ĠB and
ĠA aron
ĠF uture
c ard
ree k
Ã³ n
ĠT s
ĠJ un
Ġfig ured
ern and
v as
Ġav o
Ġas semb
Ġpack ed
Ġle aked
ĠK ings
Ġal ert
ĠE b
Ġd a
Ġsusp ension
ĠNet her
oph ob
ĠF A
Ġhost s
ĠV lad
ĠC raig
res hold
Ġdef ended
Ġ8 00
ĠT ower
Ġmathem at
Ġattract ed
ĠPer ry
ĠA lp
ĠT el
Ġprodu ces
n ie
ĠP ope
Ġhun ting
Ġeng agement
Ġdevelop ments
Ġcheck ing
ĠJ eremy
Ġple asure
Ġsl ot
Ġt ear
ĠD u
is hers
ĠSing apore
ast e
Ġep ic
Ġsimultane ously
on ed
Ġcap s
âĢ¦ .
lim ited
7 00
ĠS U
Ġresearc her
Ġpat ri
th ood
Ġw et
t est
~ ~
n an
Ġblock ing
Ġrepe al
Ġv oid
ate ful
ĠRob inson
ĠC PU
Ġintegr ated
ĠK it
ĠD ak
ri v
Ġl in
Ġbacter ia
g ly
ades h
T E
Ġrec overed
Ġbo om
Ġen act
Ġang le
am ine
ĠW ould
mer ce
lyn n
im ir
Ġexam ine
r ics
Ä ģ
o ft
Ġj unior
Ġv it
ĠG ill
Ġfl avor
Ġl ane
ĠStud ies
Ġsol o
ĠUS B
Ġcy cl
Ġvari ables
Ġbomb ing
w ich
AT CH
iz arre
Ġfing ers
Ġdepend ent
Ġb its
ĠC B
gg ed
ĠChair man
C or
Ġtaxp ayers
Ġagree ments
Ġedit orial
Ġr ic
Ġmet h
th odox
Ġrad iation
J P
Ġhousehold s
r c
Ġsurprising ly
ĠPl ace
Ġ< /
th ur
ĠT otal
Ġfl ights
Ġra ises
ĠRuss ians
m ay
ĠH ung
ĠRed dit
b in
op t
d ep
Ġpubl ish
Ġimpact s
ER E
Ġback s
Ġbl amed
ĠG ib
ĠB or
Ġdecre ase
Ġforg otten
Ġsc ared
Ġexpect s
Ġcon secut
ĠU b
Ġbat ter
Ġmotiv ated
ĠEnter tainment
B r
ĠMP s
Ġ6 6
Ġaccur acy
B ook
ĠGr iff
Ġen abled
Ġall iance
ĠO pp
ress ing
Ġproduct ive
Ġun necess
Ġin her
Ġintim id
Ġburn ed
ĠMiss iss
b ul
b at
b ian
Ġkill er
Ġcontin u
ĠS ci
ra h
Ġv ent
ĠTh ings
look ing
com p
ĠPol and
Ġtow er
Ġb arg
Ġrank ing
Ġrest ore
ĠS D
Ġinflu enced
ut er
ter ror
Ġt anks
Ġident ical
ĠH IV
ethe less
ĠStew art
Ġl os
Ġign or
Ġacc ord
ĠComm and
ĠMod el
olit ical
Ġcour age
Ġoccas ion
ĠOlymp ics
Ġfl av
Ġexpect ing
Ġre ass
Ġoccup ied
Ġv enture
in ite
ick ed
M AN
ĠSh ould
r ition
D own
ĠTh ink
Ġcourt esy
ĠWar ner
Ġh ub
i ar
am ents
Ġexplicit ly
Ġcrit eria
For mer
Ġqual ified
Ġinev itable
l arge
id en
ul se
Ġvis its
Ġdist ribut
ac o
Ġsub tle
Ġsh ops
for ward
Ġev olved
ix el
9 1
ah oo
ie re
Ġtransfer red
Ġsen ators
Ġtrail er
Ġanim ation
Ġconflic ts
Ġdes p
ipp i
ĠL og
l ink
Ġrele asing
Ġfunction ality
Ġcheck ed
Ġnation wide
Ġuncertain ty
ach ment
Ġtele phone
ĠTy pe
ĠCanad ians
S U
Ġdepart ure
ou p
Ġstri p
Ġpromot ed
Ġorgan is
Ġpolit ician
Ġbel t
Ġin aug
T O
Ġch ocolate
Ġmet ers
Ġbab ies
ĠChrist opher
ĠW i
ab out
ĠM other
ĠN iger
ĠK r
z one
le ading
ĠOtt awa
Th ree
ĠE nt
ĠSupp ort
G r
Ġsc rew
ĠMar io
Ġimp rison
Ġearth qu
Ġst ats
u ating
ag ine
Ġtransp arency
Ġinvestig ated
unt u
ĠJ ane
ond uct
Ġappl ies
Ġall y
Ġmod est
Ġw ise
ĠCapt ion
Ġprivile ge
ard o
oll ar
Ġsing er
Ġpain ting
ry ing
ĠN i
Y eah
Ġb ases
ĠUn ivers
act or
Ġsole ly
Ġprov ider
v ar
ĠN O
be ing
Ġins ist
Ġ6 3
ĠM arg
Ġt ent
Ġj et
Ġun re
bre aking
Ġuncom fort
Ġconcent ration
Ġrel uct
Ġk iss
ĠiP ad
im b
ĠJer ry
k es
G ood
Ġst atic
ol as
ĠMore over
Ġvol unt
ĠCor p
ĠC old
ĠEgypt ian
Ġball s
S upp
Ġform ula
rif ice
Ġv oc
Ġo ught
eral d
Ġinf ection
Ġhead lines
ke ley
Ġthe ft
ĠMedic aid
Ġd imin
Ġsa ke
Ġb ol
ĠB C
ĠD rug
Ġinvest ed
iz ations
Ġentr ance
Ġimp ressed
Ġalgorith m
ĠPro duct
Ġhand led
Ġp y
Ġlif estyle
ĠQue ens
ri ke
Ġdis abled
le ted
Ġregard ed
o vers
Ġinflu ential
bl ock
ĠT am
Ġpo et
Ġover l
angu age
Ġl ens
AT ION
off s
or ate
Ob ama
d f
ĠH ug
ĠHamp shire
Ġanal ys
ĠK l
Ġin box
Ġsim ilarly
il ation
Ġconsecut ive
ist ance
Ġch ips
b es
ut her
v o
Ġprov isions
amp a
? âĢĻ
Ġm art
ĠC as
Ġcol leg
Ġbul k
Ġprosecut or
Ġpass word
Ù Ħ
ass ion
IL L
Ġsu ck
Ġdest ination
ĠW y
Ġabs urd
ĠD al
Ġb one
ĠBl ood
? )
un ity
Ġaccept ing
ĠCorpor ation
ist a
Ġg ym
Ġprosec ution
Ġfil ter
s uch
ĠS N
Ġimm une
ĠUn like
Ġguid ance
id al
Ġin ex
ĠFil m
olit an
Ġdest ro
Ġt ears
ĠNether lands
ĠAl aska
Ġant ib
ĠR angers
Ġoper ated
ĠMar c
ĠH ad
Ġro lled
ĠO il
Ġle an
ĠW inter
t arian
ĠD a
). [
d og
Ġrec k
Ġlaunch ing
ĠGr ant
Ġcompl ained
Ġke en
Ġtraged y
ĠLouis iana
ous es
ĠN S
t own
ant e
Ġoper ator
ar med
Ġm ales
âĢĿ )
Ġg arden
on ing
Ġpres erve
ur ches
Ġdet ention
tr ack
Ġne ur
o pp
Ġb other
as m
m illion
Ġbo ards
ĠQu est
n on
ĠF ather
viron ments
ĠMedic are
ĠTre k
ĠBe ing
ĠM ap
ĠV in
Ġpo lling
ell o
Ġlux ury
B el
ĠStan ley
boy s
ĠAb u
ĠN elson
ll or
ism s
I O
Ġsy nd
Ġconv iction
Ġcompe lling
Ġbene ath
ĠMod i
Ġemphas is
ĠB ir
Ġbet a
Ġa wards
ĠS everal
Ġexc use
Ġg ut
Ġf its
ĠSnow den
E m
ĠF O
ĠC R
Ġad ap
Ġen for
Ġel abor
Ġthe ater
bit ious
Ġfuck ing
ĠSt ock
Ġkid n
Ġmiss iles
Ġexam ined
c itation
friend ly
Ġphotograph s
Ġparticip ating
p ing
Ġsust ained
ĠOrgan ization
ay a
ĠJim my
ite ment
Ġneighborhood s
Ġcons ists
ĠStan ford
Ġrese mb
ĠCh ron
un a
Ġmand ate
Ġb ump
ch ing
Ġshel ter
ĠSc he
f ish
Ġn u
ĠM A
Ġpost er
Ġf ed
ĠH ans
l aim
ĠTok yo
Ġoccas ions
uck er
ĠG ard
ĠVictor ia
Ġcirc uit
Ġreal istic
E ach
Ġtr ains
Per haps
ĠPhilipp ines
Ġproject ed
F urther
ust ing
ĠFore st
ĠT R
Ġb ags
Ġreflect s
Ġrec ession
ĠM orm
ig e
ĠPlay Station
ne g
ĠAb d
ĠS EC
Ġent ity
Am ong
Ġm ouse
Ġle ak
Ġt ension
ĠEd it
c ott
Ġaffect s
J o
ĠFl ash
Ġaccus ations
Ġsupposed ly
Ġaccompan ied
Ġman ual
ĠCh ampions
u ccess
Ġadv ent
Ġposs ibilities
ĠD E
ĠNot hing
ĠLe vel
ĠEvery thing
w all
ot ion
Ġresident ial
ĠS port
Ġp ose
Ġsto pping
B ar
ĠT able
Ġback up
Ġf er
Ġsee ks
ia h
Ġexperiment al
w ords
Ġsur ge
Ġer u
Ġ6 7
ĠMal ays
âĢ ³
spe ed
Ġsignific ance
Ġinnov ative
f irst
Ġd ressed
Ġcook ing
Ġprevent ing
Follow ing
Ġdr um
Ġ1 000
cent ury
Ġin hab
Ġrenew able
ber y
ug by
ĠP a
ĠK a
Ġint rig
Ġdocument ed
ĠN ature
Ġconstruct ed
ĠPy thon
Ġcop s
ĠM ind
Ġinf ant
Ġlay ers
ĠN ich
Ġass ists
al id
ĠE mer
ĠSo ft
Ġg olf
S E
Ġout standing
ĠL ad
Ġw isdom
Ġfavour ite
Ġ `
Ġthe oret
Ġspeed s
Ġlong time
ĠOther s
Ġhe s
â Ĥ¬
Ġold est
any ahu
Ġbeat en
Ġf ut
Ġpain ful
Ġco in
ĠL ocal
il st
ect s
ĠHam as
Ġsec ular
ĠTh ird
for mer
ĠP ear
Ġoccup ation
M on
Ġm m
ĠF OR
io x
Ġdocument ation
ĠS in
Ġ6 1
Ġtrad ed
Ġfin ishing
r ons
th al
ĠIm m
or i
Ġpol ar
Ġmyster ious
Ġpra ised
Ġicon ic
Ġcontro ller
Ġpan els
ĠF le
g al
Ġreview ed
Ġwire less
Ġgl obe
ĠFin ancial
Ġinteract ions
ĠK night
inc ial
ĠContin ue
ĠR h
Ġliber ty
Ġcle ared
ĠComm ons
ĠRub io
ĠKurd ish
ĠMan ning
Ġt orn
Ġspot ted
Ġtri ps
st ra
ur i
Ġit er
Ġaw ful
Ġb icy
r in
m ons
Ġwal ks
ĠSum mer
k ind
On ly
Ġsent iment
Ġautom atic
EM ENT
Ġd irty
Ġcross ed
Ġreven ues
Ġthe r
Ġcross ing
ard ed
Ġhost ing
ĠPatri ots
ĠN ash
Ġf ishing
Ġb ip
ĠSte am
Ġth reshold
ĠS ection
Ġres ort
l ied
ĠC itiz
Ġen vironments
B en
Ġcontain er
Ġal ign
Ġproduct ivity
Ġan ch
D E
sel ess
ĠD rive
ĠRed s
Ġwh is
m ap
Ġearn ings
Ġdispl ays
Ġr anging
b et
Ġdeal t
Ġoper ators
Ġb izarre
Ġbur st
ĠA FP
ĠSing h
ĠCl imate
Ġmortg age
X X
Ġr iders
Ġl ady
c ount
ĠColl ins
Ġto ss
Ġfil ing
ĠMag azine
Ġconven ient
Ġrob ots
er r
ch arg
Ġconver ted
is ive
ĠWay ne
amb ling
Ġjuris d
M art
Ġdisc rimin
Ġunf ortunately
at al
ĠK al
Ġadminist rative
AS H
ĠL arry
Ġgraph ic
Ġsl ide
ĠCl oud
ĠE C
ight ing
ail ing
Ġcreat or
Ġmother s
Ġlibr aries
Ġt ale
Ġdevast ating
re qu
be at
qu es
IC E
Ġcalcul ated
j amin
ĠAir port
Ġear ning
ĠD VD
I d
Ġmurd ered
Ġdo ctr
ĠCub a
i ors
ari os
c ular
Ġpred ec
Ġreg ret
Ġh iding
Ġres erve
Ġaddress ing
Ġatt orneys
P s
t wo
sh ore
cel ona
g ence
Ġreflect ed
ĠN ative
Ġover night
ĠN ik
oy d
Ġp our
Ġsp ray
Ch ina
Ġdrop s
Ġam bitious
u ably
Ġ198 8
Ġre wards
go vernment
Ġor g
Ġrestrict ed
D id
ir s
n amed
Ġsleep ing
Ġappear ing
Ġsafe ly
Ġexplo it
ĠP i
ĠM and
Ġnewslet ters
ow der
ĠDe ep
Ġm unicipal
p in
May be
or ia
k ward
ĠMc Donald
Ġindic ation
Ġw ore
Ġ6 8
ĠIn n
Ġview ing
Ġuncomfort able
Ġscrut iny
s ize
Ġcompet itors
Ġarrest s
Ġamong st
ĠWik i
ĠS E
Ġco ins
Ġadop tion
Ġavail ability
Ġcomb ine
ĠMad rid
ĠRon ald
Ġlimit ations
ĠI V
u els
arm a
Ġ3 60
Ġrel ie
Ġcur ve
ĠP ir
Ġse eds
Ġdepart ments
Ġnewsp apers
win ning
Ġr ivals
Ġcomplex ity
Ġd uties
Ġpe er
Ġme ets
ĠF ig
prof ile
ac ies
Ġs ons
ĠTr ue
ĠWh it
Ġdelay ed
ar ians
Ġwin ners
ag u
Ġpubl isher
Ġexpl oring
Che ck
ĠBl ake
Ġcomm od
ĠPe ace
ĠTai wan
Ġprepar ation
Ġpregn ancy
Ġintellig ent
Mich ael
Ġtou g
Ġsophistic ated
o j
Ġcollect ing
Ġp ension
ac cept
ĠFurther more
Ġinter ven
Ġnight s
Ġm isc
Ġhor rible
Ġre ign
Ġdes ert
put er
Ġreb el
Ġbuild s
Ġemploy er
ĠHe art
ĠB ah
Ġbe ef
d ev
Ġin du
Ġan onym
ĠN az
Ġpr ayer
Ġcelebr ated
Ġr itual
at ter
ĠT oy
Ġact ed
Ġv iable
Ġab und
Ġco ord
Un fortunately
S D
Ġthem es
ĠP oll
Ġce ase
Ġsepar ated
ĠHT ML
Ġor ange
Ġdes erves
IS T
Ġrel atives
Ġt issue
om er
ĠT an
Ġsuggest ions
Ġrad ar
Ġcor n
ern el
ĠN a
ĠS ac
TH E
Ġdeleg ates
b urn
Ġparam eters
ath on
o op
ĠD isc
Ġcar rier
Ġt u
ĠMur phy
ĠBl u
. ),
ĠN ame
P at
ĠB ab
Ġcour ses
ug s
ĠMississ ippi
b ably
ĠPh ys
Ġchemical s
Ġw rap
ĠMcC on
Ġmechanism s
ĠBl ock
Ġdet ained
od a
Ġmean while
âĶ Ģ
ĠF ederation
ĠO w
b u
Ġ198 4
Ġquiet ly
Ġoxy gen
Ġf et
ĠEag les
Ġpsych iat
Ġlight ing
are r
ĠV ar
Ġca ution
ĠC L
p ot
Ġth ro
ĠSwed ish
Ġfire arms
em in
DA Y
Ġworld s
Ġcomm ands
oc ur
Ġp ending
Ġequ ipped
Ġstart up
Ġas pir
n atural
ĠD omin
Ġgrad ually
Ġbug s
ĠN ap
em it
is ode
ren cies
Ġdeb ates
F S
Ġens uring
u j
om ach
Ġremem bered
Ġnot ably
qu er
el come
Ġgent le
Ġamb assador
Ġwitness ed
N T
ers ion
ond s
Ġcat ast
Ġc ave
Ð ²
AT ED
ĠB enn
W orld
Ġdeliver ing
Ġt ends
ĠC rit
Ġf ires
Ġto b
Ġch amber
pie ce
ĠL uke
Ñ ı
Ġcount less
Ġcomment ary
ĠP od
Ġinstall ation
ell er
R O
d ata
ĠQue bec
ect ed
ĠS M
hy th
Ġoff season
Ġgr ants
Ġdemonst ration
Ġven ue
f ile
Ġtransl ation
Ġfor b
st ring
op les
Ġpled ge
ĠL ions
ut o
am an
sh ot
found er
Ġm igration
ĠCh rome
Ġpr icing
Ġviol ated
Ġquestion ing
Ġgra ve
Ġlog ical
Ġ198 6
Ġt empt
Ġimp ose
p y
Ġact ress
Ġdiscipl ine
Ġver ify
ĠBer keley
Ġpart ially
ĠA y
M edia
les h
Ġgold en
out ing
ĠAr ts
Ġhapp iness
Ġt um
Ġcru el
ĠPro gress
Ġsum mary
Ġann ually
Ġbond s
Ġfrust ration
es ides
ĠK y
Ġcom ed
ĠOr ange
ĠH uff
ĠDe an
wit zer
Ġrepl acing
Ġexpl oration
Wh ite
u ates
20 11
g roup
Ġs izes
Ġg host
ĠS ex
f i
Ġincor rect
Ġare na
Ã ¥
ĠCor ps
arent ly
vers ion
Ad vertisements
ĠMan ager
Ġhighlight ed
Ġad j
Ġdem o
ĠKick starter
ĠChristian ity
ĠM as
ĠRog er
Ġdisapp eared
Ġw ound
form ance
ĠC ry
Ġpoor ly
Ġsty les
Ġdr inks
ĠFer gus
ĠJ en
c at
Ġf urn
ĠSt orm
Ġprevent ed
ra it
Ġal ike
Ġdesign ated
or ical
Ġtechn ological
A tt
ĠL ady
Ġpre view
ond a
ĠL en
Ġend less
Ġpra ise
Rep ublic
Ġtrans mission
Ġpro l
Ġcon ced
Ġst arter
Ġsupp orter
s k
Ġmarg inal
Ġenter prise
-- -
ĠR ow
Ġper mitted
Ġh unt
ĠRe id
Ġpros per
ĠSpe aker
Ġprotect ions
Ġclim b
Ġplan es
g ments
Ġhonest ly
Ġcult iv
Ġcompl ain
ĠCoal ition
tt es
ur ities
f s
ĠExp ress
/ .
Ġlapt op
ĠHe at
T witter
M in
Ġobserv ations
Ġfasc inating
au cus
ĠG ene
ude au
Ġalt ogether
ĠP el
Ġpar ks
Ġsuggest ion
ĠR ound
ĠVlad imir
C D
Ġbath room
h ill
Ġcont ents
Ġbub ble
B L
ĠBe at
olog ically
Le aks
Ġd il
Ġinst antly
Ġtable t
Ġfac ulty
Ġelect rical
Ġre cept
Ġappoint ment
ĠW ard
ier re
Ġcitizens hip
ĠE ve
anc hes
ĠY ang
Ġcomp r
Ġpat rol
Ġagric ulture
The ir
ĠMot or
Ġst unning
Ġdam n
U D
F e
Ġc ous
Ġ7 6
ĠMel bourne
Ġp owered
Ġc rown
Ġvacc ine
Ġun l
med ia
Ġreact ions
ĠAren a
og g
W ar
ĠU I
Ġan arch
Ġsac rifice
ĠHun ter
ĠQ ual
Ġdr ones
d i
ĠF R
appropri ate
ĠEnvironment al
ĠFor ces
Ġcap ability
Ġfle w
Ġsupp lement
ore r
id th
Ġm akers
ĠSm art
ĠL aur
ĠM uch
ĠAdd itionally
Ð ¼
ĠMarsh all
ĠDak ota
Ġaccompl ished
g ov
Ġto ll
Ġst ressed
Ġwe aken
pl ing
Ġg reet
Ġm ic
o ard
ĠCongress ional
Ġeth ics
lect ed
Ġheart s
Ġess ay
s ur
ĠCommission er
Ġdraft ed
Ġas h
Ġr ice
ĠMit chell
Ġtr ucks
ĠF lynn
Ġceleb ration
Ġtob acco
Ġarg uably
Ġbuy ers
Ġadv ised
ĠNC AA
pro t
Ġcirc les
Ġassum ption
c ode
Ġmet aph
ĠRes p
B re
Ġdev oted
con nect
d ec
Ġ7 00
Ġep id
Ġsing ing
Ġmount ains
im s
ch ron
ĠF ind
d am
Ġder ived
Ġfr act
Ġscr atch
Ġdirect ors
I E
ru p
Ġdec or
b ie
Ġsevent h
Ġaw kward
ĠWat son
Ġpress ing
ĠS aint
ĠMod ern
S everal
Ġadvoc acy
li ver
Sec ond
ĠInd ians
Ġbound aries
Ġy ard
ĠD or
it ate
ĠS essions
Ġst ir
ĠE D
fl ow
ĠEd itor
Ġdep os
v ol
G M
Ġsh ake
witzer land
augh ters
Ġtravel ed
M en
H ave
le ments
Ġc ats
Ġmechan ics
Ġhost ile
ĠK as
l ast
b rew
ĠR ap
oc us
Ġaud iences
ĠSaf ety
T ake
Ġ) ;
Ġhistor ically
ĠH ann
Ġline back
ult s
ĠLaw rence
ĠHis pan
ĠCh all
ĠJac ob
ue z
writ ten
W S
ĠG ab
Ġsp y
Ġha z
ĠG re
ĠP rom
ĠH us
ĠCamp bell
Ġapp lying
j an
ip her
Ġl one
Ġsup rem
act ory
Ġent ities
ĠB aker
Ġorient ation
â Ħ
Ġreveal ing
ll i
ĠHot el
on ia
Ġconfirm ation
ĠIm p
form ed
ĠR ain
B ig
it ivity
h alf
Ġl yr
um ing
G iven
iv an
Ġbu nd
T IS
and ed
Ġsa uce
g ary
Ġshoot er
Ġrespect ive
Ġin eff
ut t
Ġfocus es
Ġquant um
Ġunnecess ary
at oes
Ġpain ted
Ġexpert ise
m are
Ġsh ocking
ĠFergus on
Ġad vertisement
Ġinter rupt
m other
hand ed
ĠT odd
ĠHawai i
Ġconclus ions
Ġmotiv ation
ĠC os
Ġfrust rated
ĠOx ford
Ġpen alties
m id
k m
Ġilleg ally
m atic
Ġstrong est
Ġmand atory
st orm
Ġacqu isition
v ious
Ġcrop s
ĠBar celona
ĠNet anyahu
ĠL ie
z es
h ol
ĠPark er
Ġst omach
? '
Ġunderstand s
Ġfr ank
ĠS ud
Ġlong est
mind ed
Ġdist inction
Ġt ill
uer to
E ng
Ġprint ing
Ġv ague
Ġexperien cing
Ġint ensity
Ġd uration
and y
Ġenjoy ing
P I
L a
F igure
ĠS ide
H ist
Ġconvers ion
Ġ197 9
Ġbre ach
Ġrespond ing
st an
Ġn ode
st ory
Ġsw ord
Ġoper ates
à ¸
Ġce iling
Ġbe ars
ĠAgain st
Ġpl acing
n or
Ġst un
ĠU C
Ġm ild
lim inary
Ġfemin ist
Ġt ar
Ġcoordin ator
Ġhack ing
Ġcomput ing
at re
Ġsaf er
ĠF CC
le ton
20 10
Ñ ĭ
ĠR oc
Ġpartic les
ag raph
Ġcontribut ing
oty pes
Ġcount ies
Ġqual ify
Ġachieve ment
ĠD J
Ġadd iction
Ġrece ives
Ġgro cer
ĠR T
Ġcomp osition
Ġovers ight
en cer
Ġd ensity
ac ular
Ġbit ter
Ġsl a
Ġcal endar
Ġinc omp
M ed
Ġdiv ide
Ġaccept ance
Ġemer ge
ab ling
Ġfast est
Ġg aining
Ġc am
bor ne
ĠBr us
m n
Ġped est
at in
ry ption
ĠRem ember
ĠMor ris
Â Ķ
com ed
t it
Ġ198 7
Ġscen arios
ĠE lection
ĠR y
ĠC a
out heast
Ġ6 9
Ġconserv ation
ĠJ ess
ĠLeg isl
ast ed
Ġcomp osed
Ġimper ial
Ġdirect ions
ĠMedic ine
ĠSw iss
Ġdist ant
or ient
Ġinvest ing
Ġb io
s upp
Ġover d
Ġd ign
Ġins ane
ĠTem ple
pro duct
PD ATE
Ġrot ation
Â ·
Ġpri est
ĠH P
Ġl ung
Ġtrans formation
w estern
Ġu gly
Ġiniti atives
Ġhe aven
Ġmanufacture r
Ġexch anges
ĠBloom berg
Ġsc ary
Ġdes ired
ĠTe a
Ġf illing
ĠF if
spe cific
ĠF ro
Ġrespect ed
Ġbal anced
ver ning
ĠB eng
um m
in itely
by n
Ġp ione
Ġsent ences
Ġt une
Ġcontro lling
ac er
Ġp or
ay ed
E uro
ec onom
ortun ate
val id
ĠH end
Ġto ile
ĠS ong
Ġmon etary
m art
ĠN eed
Ġcondem ned
Ġpop ul
umb led
ĠI an
Ġm amm
Ġw ings
Ġser ial
Ġtou ched
Ġtun nel
Ġsh orter
AC K
b ecause
Ġpe ers
H ar
Ġprot otype
ĠRec ords
ĠSte in
Ġch urches
ĠB art
d eg
Ġra id
Ġoper ational
Ġtut orial
ĠEv ans
Ġp ink
Ġcrowd s
Ġrif le
Ġres erves
w hen
ĠG a
ro c
Ġb ones
Ġsla very
d rop
Ġcult ures
ere n
ĠR io
D ata
ĠPost s
Ġres idence
Ġro cks
âĦ ¢
ĠM ov
Ġpan ic
ĠLa ure
âĢ ĭ
ĠBen jamin
Ġhuman itarian
Ġtreat ing
ĠBr andon
m ain
Ġpress ed
r ane
bo ards
Ġsec ured
Ġide ological
Ġflex ible
Ġexplos ive
Ġanim ated
idd ing
ock ets
Ġis lands
Ġsubsid ies
th ink
Ġp ays
ĠAr ctic
Ġinf ring
Ġnon profit
ĠCh ance
Ġanticip ated
or ph
Ġgreen house
Ġagric ultural
Ġform ally
Ġhigh way
ĠR aid
Ġspace craft
ĠBe h
Ġfr ight
( '
Ġt el
Ġn aked
ĠR ice
Ġ198 5
ĠMcCon nell
Ġcomple tion
Ġwor ship
Ġfree ly
Ġher itage
Ġres igned
Ġe ars
val ue
Ġvolunte er
ĠK u
ock er
Ġj okes
Ġacqu ire
Ġjud icial
Ġrespond ents
Ġl anes
Ġatt ributed
ĠB uilding
Ġappro ve
UT ERS
Ġh ier
Ġattend ance
ĠT ampa
i ary
Ġinstru ments
ict s
Ġconsequ ence
Ġprior ities
im ens
ul pt
In ter
Ġex em
S et
Ġdifficult ies
d ing
ic ut
Ġs her
ĠAbb ott
Ġ19 30
ĠMc M
Ġdis par
ĠK erry
ere r
Ġ= =
at ile
Ġparticip ated
Ġinc ons
Ġcon j
he alth
ĠA wards
gl as
ch i
Ġbu zz
s ized
Ġdiscl osure
ĠK yle
ab l
Ġto ken
Ġelder ly
w he
Ġch ap
ud ge
( );
ĠM obile
il ateral
Ġspread ing
ĠD raft
Ġ7 7
Ġcr ude
Ġqu otes
ĠF igure
ĠAlbert a
ĠP ur
P ar
ĠR ail
Ġworth y
Ġcle ver
Ġflex ibility
ĠF arm
Ġz omb
b art
A V
Ġc ake
Ġapp eals
ici ary
iz ard
Ġgr ateful
z b
ĠT un
C urrent
d ale
ĠCh ap
cont rolled
ĠT alk
Ġre aches
Ġexc itement
z o
Ġexp ed
ow ell
ĠCirc uit
Ġre hab
Ġdesign ers
Ġaff air
Ġhat red
Ġadvant ages
Ġinst inct
inc inn
ĠSm all
erv ing
Ġdisp os
Ġdecl are
N G
r ust
ĠCo hen
e u
on er
Ġz ones
Wh ich
ĠJ ets
Ġconst rain
Ġrum ors
are ttes
ĠM itt
ĠCent ury
ĠBar ry
B est
Ġb ass
Ġeconom ies
Ġassum ing
Ġmechan ical
ig ers
K ey
Ġfin an
is en
Ġl un
ĠT a
Ġteen ager
ĠS witzerland
ĠM D
VER TIS
abet es
Ġkn ocked
Ġw rapped
o ons
ch arge
ĠKir k
or ig
ĠN atural
ĠS aints
Ġs ends
Ġcrypt ocur
f ox
Ġdeliber ately
ĠBl og
Ġ7 3
r idge
Ġt ensions
au c
ĠB uck
Ġmag ical
Ġrus hed
A ust
Ġinter rog
ĠD ate
Ġres olved
Ġaltern atives
Ġannoun cing
ĠArt icle
Ġref using
Ġp osed
Ġlegend ary
Ġprob ability
Ġharm ful
Ġdetect ed
N orth
Ġdecl aration
es is
Ġrep ly
Ġflu id
pr ising
Ġhar vest
Ġpled ged
Ġgr asp
ĠI ss
c rat
Ġvir al
Ð ´
ĠM aine
ation ally
ĠT reat
ĠWik ipedia
incinn ati
Ġwel comed
ous ing
ĠPart ners
urn ed
ĠOcc up
ĠTer ry
Ġabs ent
Ġtext s
Ġflo ating
ra ham
it ably
Ġdistur bing
Ġtrig gered
Ġcondem n
ĠGr ay
Ġident ifying
Ġg rip
b age
ne ver
ĠAnt i
ĠE arly
est one
Ġf est
Ġedit ors
Ġtr apped
az y
ĠD om
ĠF ried
Ġequ ity
Ġport fol
Ġavo ided
Ġtransp arent
m i
Ġsatisf ied
ĠCommun ist
Ġab ol
ĠFrank lin
Ġin hib
Ġha bits
] :
ĠM om
i ated
Ġshif ted
Ġremind ed
ust ers
Ġprev al
Ġsu itable
Ġtend ency
Ġd iver
ĠP ok
ĠBuff alo
Ġass ured
Ġwh istle
Ġsh ar
Ġhope ful
Ġarm or
ĠH ide
f old
ĠV ery
keep er
rop olitan
Ġbreak fast
g t
Ġst ocks
ĠI C
Ġimm ense
Ġinn ings
1 10
Ġindic ating
ĠTe xt
oc ate
ĠG PU
Ġbrow s
T ION
Ġmut ual
ĠJ e
Ġste ep
Ġ7 4
Ġtechn ically
Ġbr ains
p ace
Ġimag ination
b les
ĠFant asy
Ġf are
Ġear liest
Ġoptim istic
Ġprov incial
ll ers
Ġwa ited
Ġthrow s
Ġdeploy ment
b est
g i
ĠO scar
ĠCamp aign
st ock
ĠP uerto
Ġl ib
B R
Ġexcess ive
Ġdec iding
Ġtempor arily
ĠB E
ell a
ĠPr in
Ġhy brid
Ġm ixture
Ġtrust ed
Ġdivor ce
Ġcolle ague
Ġn ull
H aving
st art
Ġpresum ably
Ġfit ness
ĠCh o
b ig
ĠLyn ch
qu ality
be it
Ġedit ing
ĠLiber ty
Ġbel oved
l ib
Ġdefend ers
Ġcompl iance
l as
ĠPhil ip
N ever
ar ound
Ġconduct ing
ĠDou g
F ree
ac ent
ĠB und
iv a
ĠF un
Ġr all
ank ing
Ġemp ire
Ġcast ing
ab il
ĠS ep
Ġminor ities
Ġn ick
Ġwid th
se ud
Ġsupp ose
Ġhead line
Ġgrab bed
Ġa est
Ġdo se
Ġess ence
ĠAl t
Ġsocial ist
Ġfro zen
Ġsoc ieties
Ġbl ess
f il
N EW
Ġf t
ĠÂ ©
w al
Ġclick ing
Ġres on
enn a
ĠG arden
Ġl ake
âĸĪ âĸĪ
Ġch ampions
A nt
Ġpurs uit
Ġ7 8
ne red
V ideo
Ġparliament ary
Ġve gan
Th rough
Ġstruct ural
Ġimm igrant
s ki
P ress
Ġ vel
ĠD ub
Ġbutt ons
Ġw ishes
Ġcolleg es
ĠTr udeau
Ġbar riers
Ġatt itudes
Ġwh ites
Ġspark ed
ig hed
ĠB ou
Ġlif ted
Ġsurviv ors
m aster
Ġinfect ed
th an
ĠI RS
ĠChrist ie
ĠA w
s ky
T om
Ġhum or
Ġident ification
ĠM oney
iff erent
Ġtradition ally
ĠBrus sels
per ial
Ġplan ets
Ġbar rier
Ġtour ists
Ġpurch ases
Ġsqu ee
Ġthere by
Ġpen et
Ġex ports
ĠE V
ĠArk ansas
Ġmet ab
Ġrec y
Ġ Ï
te ch
Ġlegisl ature
ĠIs lands
ĠF DA
G ame
V al
Ġf ru
Ġstr ain
ĠB h
Ġdam aging
ĠWW E
Ġdec ides
af i
Ġprocess or
ĠP ed
Ġdet ain
Ġadm its
ĠRog ers
au kee
Ġur ge
not e
p owered
ple x
ur se
Ġeconom ists
pl an
Ġsc rap
ot ton
Ġapproach ing
Ġcart oon
Ġcomp os
s ign
Ġgrow s
R T
Ġrom antic
ruct ive
Ġa uction
Ġt rop
Ġn ons
ĠE X
Ġh orm
ĠMor ning
p ublic
ĠBr ady
ĠB ears
ĠVenezuel a
AD VERTIS
Ġmeant ime
S ch
Ġeth ical
ĠWar riors
ur red
ĠU ntil
Ġathlet ic
ĠCh uck
o a
Ġliber als
Ġpurs uing
Ġremind er
Ġdis g
S er
ĠAm b
ĠK arl
Ġ7 1
IV E
M C
Ġret reat
un ct
B et
Ġag greg
Ġver dict
Ġ8 2
Ġunder mine
ĠR aven
ect or
ĠW orks
Ġal ph
Ġunf ortunate
Ġun ity
s chool
ĠKe ith
force ment
Ġfl ip
Ġsac rific
L Y
Ġobserv ation
ĠY ahoo
Ġhack ers
Ġsec rets
Ġt ang
Ġembed ded
Ty pe
Ġt at
======== ========
ĠColumb us
Ġf ont
Ġwal let
Ġpure ly
ĠK rist
ĠConserv atives
own ers
r int
Ġt ong
r ained
Ã £
ĠHar vey
Ġm asc
ĠF isher
Ġdon ated
per or
Ġbreak down
t ics
) |
Ġwind s
ĠUn iverse
Ġbe ll
ĠC rown
d ig
ĠTh under
v ation
Ġex empt
on i
Ġpre ference
ĠC orn
Ġcomp ly
t ail
roll er
p op
Ġpassion ate
Ġoff set
f ive
Ġp ist
Ġfail ures
Ġemot ion
ĠE ss
L O
Ġlicens ed
Ġper mits
ĠGu ide
Ġwarn ings
Ġexp end
w aukee
vis or
ors es
Ġeconom ist
op es
Ġam pl
icial s
Ġrec ount
ing ing
Ñ Į
s ource
iz able
en c
ĠE li
Ġout er
ĠWiki Leaks
ĠNor way
C NN
ĠDep uty
back ed
Ġvar iation
Ġaccount able
L ink
D B
Ġbott les
Ġbatter ies
Ġdraw s
Ġvert ical
ol k
im age
Cl inton
ĠJeff erson
point s
ol o
Ġsens or
g ian
Ġstab il
ĠSh an
Ġsequ el
Ġs illy
Ġscreen ing
Ġcomp aring
ank a
Ġconclud e
Ġexec ute
h ave
Ġsucceed ed
ĠBr and
sec ond
Ġregul ators
Ġlobb ying
ĠTurn er
Ġarri ving
ĠCor byn
Ġdem ol
Ġfr action
Ġche er
Ġ( )
Ġafter math
Ġl aser
Ġwond ered
Ġgif ts
ĠE mb
Ġ18 0
Ġcapital ist
Ġsl ave
ĠMem orial
ĠConnect icut
Ġund ers
M B
Ġcount ing
Ġdecre ased
O rig
Ġdis orders
Ġh oney
ĠSc ar
Ġtreat ments
p ath
ĠR oom
Ġdiagn osed
Ġdestro ying
Ġcre ep
Ġsu ed
n ormal
Ġd ys
Ġtr agic
Ġd aughters
Ġlast ed
Ġfeed ing
S outh
Ġfin ancing
l en
ir able
ĠN ort
Ġdon ation
Ġgo verning
Ġmass es
Ġre un
S y
Ġrec onst
g iving
Ġfem ales
ĠSpe ed
is ers
writ er
Ġintent ions
Ġh ill
Ġmill enn
Ġf ence
Ġadv ances
ad vant
ĠB uy
Ġde ce
Ġcomp ound
Ġgener ous
Ġlack ing
ut ical
ĠPri ze
ĠN av
ĠD NC
ĠS alt
ĠMad ison
Ġin sect
h aul
ĠCam bridge
Ġtr ash
Ġsl ower
uss ion
h ome
Ġsepar ation
th a
ĠCommun ications
Ġcorrespond ing
accept able
S ign
e or
Ġr ib
Ġl ip
ĠNe il
ĠRE UTERS
d irect
Ġmed ian
Ġdis pro
U E
st ore
p x
Ġtreat y
ãģ ®
W A
ĠÐ ¿
Ġun h
ĠRod rig
Ġc ort
ĠU RL
Ġcontact s
O s
ĠJ u
arent s
ĠLuc as
Ġ Ø
ank ed
ĠMil itary
US A
Ġp izza
Ġfar ms
ĠProf ile
M et
Ġenh anced
it bart
f ly
Ġins urg
ĠD est
Ġhelicop ter
Ġf ierce
F our
Ġvill ages
ol er
Ġbenef icial
ĠHoll and
Ġc ub
ĠTy ler
aren thood
Ġten ure
Ġretail ers
ĠP ap
Ġcare ers
Ġcollaps ed
Ġaw a
ard ing
sh irt
Ġcons iders
Ġcl uster
ool s
i per
ĠM ission
ĠHind u
Ġele ph
Ġed ited
Ġsuspic ion
ĠMc L
Us ing
ĠEb ola
Ġfe ared
ĠGu y
Ġstre ak
Ġ198 2
Ġtransform ed
ĠDown load
Ġfound ing
Ġbe ers
ĠC z
ed ed
aw s
ĠRob in
Ġb oring
Ġtaxp ayer
J an
angel ical
Ġcommission er
ĠPlay ers
Ġisol ation
Ġenc ount
ĠSci ences
Ġtra its
ĠCharl otte
ard less
ol ine
Ġ: :
ĠMar ia
ĠSus an
crib ed
Ġencount ered
Ġincl usion
Ġsusp icious
Ġsm ugg
Ġorganis ations
Ġinter ference
Ġcont am
ĠStud ios
Ġsoon er
ip h
are st
in ance
id ays
Ġth irty
m outh
Ġind ict
Ġ198 3
ham mad
Ġclean ing
Ġtem plate
ĠC ut
ĠAr thur
Ġdoub led
Ġgrav ity
Ġag ing
u cc
ĠC incinnati
amp s
W ork
Ġcred ibility
ur able
her ic
Ġdirect ory
Ġag rees
ĠB os
ĠVer mont
M al
Ġbelie ving
ri en
Ã© s
ĠSpir it
Ġcivil ization
ĠD og
Ġking dom
Ġd umb
A h
Ġmon op
elt a
ĠT ob
ĠWith in
claim ed
c end
Ġden ial
Ġobs erve
ir k
Ġgr ace
Ġstatist ical
Ġnovel s
Ġle verage
Ġcontin uous
Ġbreat hing
Ġout right
ĠP interest
Ġsp awn
Ġf ib
oll ah
Ġ ì
Ġinv ite
Ġste am
Ġm ock
l ive
ĠCount ry
ĠStud io
ĠO liver
J ames
Ġgam ers
Ġauthor ized
ĠMorm on
Ġboy friend
ĠR ams
Ġcomp iled
Ġa ired
Ġ0 1
Ġur ging
ĠMer kel
Ġpil ots
ad ows
ĠLe af
ĠF el
Ġwar fare
Ġshif ts
ĠUb untu
Ġhe nce
Ġmagn itude
Ġl au
Ġjust ified
Ġinst itutional
Ġrecru iting
N Y
ĠPol ish
Ġinst ruction
Ġdisc our
ĠPr inc
ĠSt ars
Ġelimin ated
Ġeduc ated
ch a
C ap
St ud
Ġwork place
ah a
ĠAd vent
ear chers
ĠPet ers
ĠInt erest
ADVERTIS EMENT
Ġgl ob
it ative
w idth
ĠIslam ist
Ġr hyth
Ġroutine ly
Ġc odes
ig ma
Ġeval uate
Ġtraff icking
ĠThe atre
G od
Ġbr anches
Ġgen et
Ġple aded
Ġdam ages
Ġn an
ĠD anny
Ġspons ored
Ġlicens ing
Ġwhe els
ĠPakistan i
Ġcry ing
Ġwrest ling
Ġlab els
A lex
ĠP ence
Ġen ables
Ġr iot
Ġac res
ĠC ass
Whe ther
st age
Ġcreat ors
Ġreal m
out ube
Ġpart ial
ess ional
t able
Ġinv ented
Is lam
Ref erences
ĠH ills
ian g
op ard
Gener al
Ġrus hing
ĠTh or
H D
dri ven
ĠB ash
ace utical
i ots
Ġsc ulpt
F ig
ĠFor mer
Ġorgan izing
Ġincent ives
Ġfirm ly
ĠAM D
Ġtermin al
ĠG host
au x
Ġd irt
c s
ĠK am
co ins
Ġ8 8
ast ically
Ġdec ks
Ġ' '
Â £
pp y
H ill
Ġconnect ing
Å ¡
ĠC arson
ĠBrad ley
Ġentreprene urs
Ġvis a
Ġincent ive
ĠJ ake
rodu ction
Ġhypot hesis
ch ar
Ġult ra
Ġscream ing
Ġtransl ated
Ġsolid arity
Ġvac ation
N ET
ĠCow boys
ill o
Ġcoc aine
if ting
Ġmidfield er
ale y
Ġpe oples
res a
Ġmon sters
Ġcompar able
Ġte ens
ĠZ h
ĠSt re
Ġunve iled
ĠGl ass
Ġreg ards
Ġpre liminary
Ġlyr ics
Ġlay out
Ġment ally
Ġintrodu cing
M ake
O ct
Ġarrange ment
A G
ĠA th
Ġv ibr
ĠSol ar
Ġtouchdown s
ck er
Ġto y
ĠM M
Ġjump ing
Ġpsych ology
eng u
l ie
ĠH ub
ugg ed
ĠIndones ia
Ġgr ain
ĠJ oy
O V
Ġb ust
Ġproceed ings
Ġfun eral
Ġexcept ions
Ġadequ ate
Ġdetermin ation
Ġun rest
ue ller
Ġshould ers
Ġwork force
W est
air y
Ġun st
ĠBelg ium
Ġtrad itions
Ġtrans f
ord able
. âĢľ
ĠSen ior
ĠO d
p ur
fe ld
ll o
Ġclim bing
oc c
Ġcomment ed
ĠB Y
Ġconv inc
ate ur
Ġsn aps
J ack
Ġaccur ately
Ġcomp assion
Ġ19 20
Ġshe er
Ġmar ine
Ġtr ace
ĠBro s
umb ling
Ġcelebr ity
D ay
Ġd ivers
Ġswe at
te es
ĠN ixon
Ġwild life
Ġappeal ing
Ġmatch ing
Ġse ctors
U I
Ġtri ple
Ġan ime
an ium
ĠVer izon
Ġwilling ness
ias m
Ġthreat en
is ible
Ġtw ist
Ġtem ple
ĠCol omb
erv ation
200 9
Ġlike lihood
ĠG arc
St art
ĠB JP
ĠR C
arth y
ĠLeban on
ri ving
ĠBook s
Ġcr icket
aff e
Ġpath s
Ġp upp
ĠB ond
ĠFriend s
Ġcount ed
Ġbet ray
Ġcounterpart s
k g
ul ative
Ġlength y
ĠS ox
ĠM ort
IT Y
Ġinvest or
ubl in
Ġnegoti ate
ĠA ve
re nder
Ġprec ious
ĠN in
Ġc ents
Ġshe d
Ġam end
Ġf ict
Ġdesc ript
ĠK le
ĠA B
iss a
Ġdisappoint ing
ĠF ab
Ġavoid ing
ĠUnivers al
d ays
Ġmag netic
Ġcreat ivity
D ec
. :
Ġsmart phones
Ġearthqu ake
Ġdub bed
Ġme als
Ġn it
Ġestabl ishing
Ġpl aint
Ġshif ting
Ġj ew
1 20
Ġalbum s
u ced
ĠQ aeda
R ich
Ġind irect
ĠLt d
Ġsevere ly
Ġprohib ited
ack er
ro se
ĠM ust
ĠWe iss
h al
Ġmotor cy
Ġover look
P N
at on
Ġsp are
Ġsens ors
Ġendors ed
as i
Ġdis m
ĠL ane
Ġpar agraph
B ER
ĠG onz
ul um
ĠBern ard
Ġaver aged
pe ople
Ġint u
pr ing
ĠC her
ss on
Ġgener ating
C OM
Ġrenew ed
R ober
l ash
Ġo x
ĠR osen
p se
Ġaccount ing
Ġfold er
ell ar
Ġimplement ing
ĠH unt
Ġkill s
Ġwor n
Ġd ivid
iv ic
Ġconsum ed
Ġmusic ians
Ġfire f
ĠAn ne
Ġle agues
Ġm erc
Ã Ĺ
Ġimp ress
Ġcertific ate
ĠPok Ã©
b ull
it ated
Ġref lection
Ġmar ry
OS T
ett a
ĠFin ance
Ġind igenous
ak u
Ġwood en
Ġfilm ing
G reen
Ġcor ners
RE AD
ĠSer ge
Ġaccomp any
Ġlaws uits
Ġspecial ist
Ġ198 1
H igh
ĠAn im
Ġsh aped
Â ®
U PDATE
Ġ1 10
agh d
Ġbra ve
ac ious
Ġproblem atic
ĠL ED
Russ ia
Ġassum ptions
S ON
Ġesc aped
T or
w art
G erman
red ict
qu al
re r
oot ing
Ġfol k
ah l
ĠBl ues
Ġsubsc ription
ĠC elt
Ġtrad em
Russ ian
Ġsl ip
ĠPolit ical
ĠJ a
Ġd iox
Ġreason ing
Ġin mates
Ġinteract ive
Ġin ch
Ġrec alls
Ġliter ary
r ament
j ar
n ik
ĠCl ar
ĠE c
Ġv on
âĶĢ âĶĢ
Ġtri umph
Ġ ðŁ
Ġch ains
ĠArgent ina
C R
ĠDou glas
Ġless er
ĠM ason
ĠBron cos
Ġattack er
ugg ing
ĠS ad
Ġspec ified
Ġsl aves
ĠH um
ĠP AC
olph ins
oc aly
ĠT ell
Ġbankrupt cy
Ġaggress ion
Ġconsult ant
mun ition
Ġunder way
ĠGall ery
ĠTrib une
Ġle af
Ġ196 7
cl osure
Ġaffect ing
Euro pe
Ġp owder
Ġadapt ation
Ġdark ness
oc ity
Å į
Ġfar ming
Ġh ij
ios ity
Ġfundra ising
Ġvulner ability
B rit
Ġwhere ver
Ġroy al
ĠGl enn
he w
Ġcontin ent
Ġsa il
Ã£ o
S ometimes
Ġy e
Ġw reck
Ġtim eline
Ġhe aling
Ġres ume
Ġcompat ible
v als
ĠBrazil ian
Ġrel ating
T unes
Ġh oly
â ĪĴ
Ġp ants
bl ack
ah n
Ġtrans cript
W rit
Ġdet ection
ke es
Ġ7 9
Ġp ub
Ġt ub
Ġ1 30
Ġmount ed
ĠPalest ine
ec hes
ĠS omething
ĠT D
ili ation
orn s
es ity
ant o
ra pe
lev ant
Ġes p
ĠSp ider
Ġle ather
au er
ull ivan
ĠMil waukee
Ġswim ming
ID S
Ġexha ust
Ġstat ue
Ġcy cling
Ġdel ays
Ġpredict ions
mar ks
ol utions
Ġsher iff
ig nt
ĠGM T
i op
Ġdem on
ne ath
Ġsupport ive
pp o
ĠSe ah
u v
Ġaud it
t or
Ġform ing
al ph
Ġm aker
Ġ19 40
Ġpurch asing
ĠG ates
ĠPh one
Ġb ite
row th
ather ine
Ġsu its
Ġcr ashed
S uper
Ġf uels
j e
Ch ris
Ġad mission
Ġres et
Ġtr ap
Ġthorough ly
Ġhe d
ĠHigh way
Ġgod s
Ġ196 8
Ġorig ins
Ġgar bage
f our
Ġab used
Ġmort ality
Ġsk illed
Ġsw ift
Ġshoot ings
Ġadjust ed
ĠL ess
ĠJ oh
ĠK ind
Ġphotograp her
ĠRe ading
M I
Ġlaugh ing
ĠT ry
Ġafter wards
ĠE dd
Ġs ie
Ġgr ay
h is
ĠMar co
pe red
Ġpract ically
Ġsuper hero
W H
ĠSuper man
Ġresign ation
ĠL iving
IN E
ĠEx change
add y
Ġdi abetes
Ġm ph
ĠV A
C ity
Ġclass ical
Ġlect ure
Ġsound ed
Ġap ology
ĠGer mans
iss ance
Ġenc ryption
al in
ĠBud get
Ġin appropriate
Ġve to
Ġ8 4
Ġcost ly
Mus lim
Ġloc ally
ĠS W
Ġteen age
cul es
Ġblack s
Ġbus es
Ġindepend ently
Ġoblig ation
Ġl ap
Ġsh ore
i ology
ĠN ex
Ġbroad band
Ġmob il
Ġloc als
ol an
Ġpe pper
un s
Ġins ists
Ġclin ic
u um
ĠS or
Ġrep ublic
ail and
ĠEl sa
w er
Ġair line
ĠM ember
Ġunf old
ä ¸
ĠUp date
be an
ĠSystem s
ĠW oman
Ġpubl ishers
ĠP T
Ġtest ified
Ġautonom ous
Ġed ges
Ġcons olid
Ġdis k
Americ ans
Ġcorpor ation
Ġrank ings
Ġtra uma
v iol
Ġdis advant
Ġun anim
ĠIs a
S M
se lling
ĠC reek
.. ."
Ġveget ables
Ġinter cept
ĠH em
Ġout fit
Ġfor ums
Ġeval uation
Ġint end
Ġcolon ial
AR D
ĠBet ween
et ing
ab ul
ĠG ate
ĠL oad
M ike
Ġstraight forward
Ġne at
ap y
umb l
Ġpre st
Î ±
Ġh alt
act ic
ill ery
Ġ10 1
al og
Ġorgan ize
pro of
Ġb urg
Ġswit ched
Ġoff shore
ĠCom ics
in os
ocument ed
ĠWal ter
Ġportfol io
Ġdoctr ine
ĠH at
Ġemb assy
ĠAr men
ik ing
ĠM MA
Ġinf amous
Ġr ated
ĠAl f
Ġfrust rating
re ach
Ġpro x
Ġk ernel
Ġl oving
ĠJohn ny
Ġaltern ate
Ġreb ell
Ġbes ides
ĠA qu
Ġlabor atory
RE S
Ġqu ery
Ġo h
Ġd ated
ĠP arenthood
Ġexp ose
oca ust
2 000
Ġchart s
Ġn uts
ri el
Ġpred omin
ĠSub scribe
g el
Ġqual ities
RE L
ĠD iam
fund ed
ur u
ĠT ory
Ġle aks
epend ence
oub ted
S uch
ignt y
Ġlim iting
op ing
Ġse iz
Ġpriv ately
Ġobser vers
ĠK och
ke ys
ion ed
Ġmat ched
ĠL ock
0000 0000
ĠMu hammad
ĠA CL
Ġout break
Ġ197 6
ĠW onder
ic he
Ġf ame
Ġath lete
Ġspot light
Ġsac red
Ġnom inated
ĠQ B
ĠMove ment
Ġdiagn osis
Ġbehavi ors
Ġimag ined
As ked
Ġunc ons
Ġe ighth
ĠSer ver
Ġarch ae
k h
Ġsear ches
ble m
ĠBull s
Ġlist ing
Ġstrik er
Ġexam ination
Ġatt ributes
Ġinf er
ĠW ATCH
ĠAg ree
Ġexerc ises
oth y
Ġdeal ers
ĠG PS
ĠGold man
Ġelabor ate
Ġmod es
pe lled
osit ory
ĠA my
Ġc m
cc a
Ġ197 3
Ġmis leading
Ġaccommod ate
ĠF at
Ġs isters
n esty
Ġor che
id ges
f eed
Ġ8 1
ĠP as
az ed
A c
Look ing
Ġun e
ĠD R
ab el
L D
Ġst ays
ĠRe ed
ĠRel ations
Every one
Ġsp ill
Ġp orts
ĠTrans portation
ĠB ased
Ġ197 2
Ġterrit ories
Ġmem orial
min ation
Ġ ^
ĠV eter
Ġfl owers
resp ons
D oes
Ġgall ery
Ġc her
Ġs ink
Ġves sel
ĠW R
ĠM erc
Ġgr at
Ġtrib al
Ġkill ings
Ġdemonst rations
Ġenthus iasm
Ġeffect iveness
ĠBr un
A K
Ġclass room
le m
ĠI l
Ġhe ter
Ġ197 5
ĠH ockey
th s
Ġent ries
Ġhistor ian
ĠRaid ers
ĠG ear
ĠCo ach
it is
Ph ot
ĠM C
Ġdiox ide
Ġrub ber
Ġd rought
Ġcon vey
ĠP ast
Ġcelebr ating
ĠUn it
ov ic
D ep
Ġdelic ious
Ġfundament ally
Ġhung ry
ĠL uck
n ational
ĠMichel le
Ġfriends hip
ĠCarl os
Ġsk ull
ĠN umber
ĠIn v
Ġam munition
A ng
ĠB B
Ġdem ographic
ĠHom eland
Ġrap ed
Ġp ipe
ins ula
put ed
ĠVik ings
ential s
Ġl oses
A v
Ġloyal ty
art isan
Ġ8 3
rep resent
Ġh ood
li ent
ĠBrook s
ĠS oul
Ġdesper ately
he lp
writ ing
Ġdiff er
Ġd angers
Ġple a
Ġp ile
S emit
Ġmet res
Ag ain
200 8
uk i
Ġex agger
Ġwh ilst
Ġsubstant ially
Ġinev itably
ĠSeah awks
Ġclos ure
ab ad
9 00
Ġredu ces
p rom
ir i
ĠSh adow
Ġw and
we alth
Ġcar riers
Ġformer ly
Ġmed ication
Ġd ash
Ġblood y
Ġpre jud
Ġme g
ĠDen mark
Ġrein for
Ġwithdraw al
Ġanalys es
Ġexpress ing
Ġmod ules
Ġarr anged
ĠCal gary
Ġb ikes
Ġmeasure ments
ĠTe h
Ġal tered
ĠPal in
Ġb ind
ro ots
rem lin
ING TON
Ġign oring
iz ont
ĠEm ploy
Ġsh y
se mble
Ġch ase
ft en
ab a
Ġaccount ability
Ġqu ad
ĠSh ar
Ġlineback er
Ġfulf ill
work ing
Ġbelong s
Ġyour s
........ ........
Ġconf using
ĠR ah
S an
ort ions
ĠR ou
ur ring
Ġvari ations
h ole
Ġrespons ibilities
R ob
Ġtw in
Ġalgorith ms
Ġlast ing
Ġp seud
ĠJ uan
ĠHar rison
ro lling
ĠS el
ĠSoft ware
ĠVill age
Ġc od
Ġphot ography
ĠG it
Ġrev ised
Art icle
O G
P oint
âĢ¦ âĢĿ
ĠBl air
Ġto ys
n ames
Ġmid st
ph p
Ġexhib ition
ie val
Ġstr ings
Ġre ception
OR T
ĠBenn ett
Ġout door
h ner
let ter
Ġsol ved
Ind eed
Ġgar age
Ġ9 8
ur l
w ear
Ġins ure
Ġbed room
Ġ8 6
ĠCh ile
Ġdiscl ose
al so
Ġconsum e
B it
Ġmed al
ĠD ublin
Ġrel ies
ag ging
R et
!! !
ĠZ ion
ĠR ico
ĠÂ ĵ
s is
Ġchem istry
ĠV irt
L ife
Ġbrief ing
Ġ197 8
ĠPhot ograph
S l
Ġsh apes
Ġoccur ring
uls ion
m ines
ĠH ud
Ġlock er
Ġ Ñģ
Ġspect acular
Ġregul ate
Ġaccident ally
w ick
Ġju ice
ĠG ay
Ġun le
Ġinhab it
ĠSp encer
ĠA gr
oubted ly
Ġde leted
ĠLiber als
Ġperman ently
ĠWall ace
ĠF ame
Ġsymbol s
Ġnew est
Ġconsider ably
B ay
ĠÐ ²
Ġmaintain s
ĠL isa
ct ive
Ġdecl ining
ĠN PR
ĠB uild
Ġpro c
Ġpit cher
Ġb inding
Ġa ide
d el
Ġfan cy
Ġsche mes
Ġman ages
Ġfin als
ane ous
ĠB uzz
pro v
ch air
ĠTer ror
in ate
ig a
ĠR ace
ĠRes ources
Ġr age
ĠT ill
Ġskept ical
ang o
B E
ĠPal ace
Ġvol umes
Ġexcept ional
ĠPlan ned
p ic
on ge
Ġrel ate
Ġdisp ens
p it
Ġth umb
Ġoblig ations
ĠD ennis
man uel
m el
Ġf oul
A ug
et e
deg ree
ĠSil icon
z i
Ġf iber
Ġn odes
ĠL ost
IT H
ĠTit le
Ġplay back
P H
Ġlabel ed
Ġi Tunes
sp ace
dis play
ĠD od
ĠShe l
E r
Ġfin es
Ġun limited
Ġsh ipped
ĠL E
ĠTr uth
Ġmon ument
Q aeda
Down load
Ġfresh man
sc he
Ġstrict ly
App le
C r
) (
Ġfil med
ĠSh ield
ĠEd wards
' '
A uthor
ĠConf eder
ĠÃ Ĺ
ul u
Ġdefin ing
Ġtun ed
Ġsp ite
ĠMalays ia
ĠFor um
Ġf lesh
ĠN E
Ġmid night
ĠC art
Ġtack les
Ġw ip
Ġh orses
Ġden ying
ĠA ld
all ow
Ġpuzz le
Ġpresident s
ĠP ick
Ġw ounds
Ġg rey
aret te
Ġprocess ed
ĠCh apter
S ur
ĠB us
Ġcance lled
Ġspir its
Ġteen agers
r ong
ĠRepresent atives
bor ough
Ġt ribute
Ġret rie
ĠBill y
ĠR at
ãĢ Ĥ
Ġgenuine ly
ĠCh arg
ĠM ack
Ġbillion aire
Ġpres cription
ĠSun ni
run ner
ri pp
Ġgovern ance
Ġautom ated
ung le
Ġrest ored
ĠPr int
ĠC ond
ĠY ears
ĠN DP
Ġin ability
Ġ Ù
Ġvig il
oc ide
Ġtoler ance
Ġint ake
Ġdemonst rates
ĠUr ban
Ġorganiz ers
Ġstre ams
C opyright
Ġout lined
lement ary
Ġshut down
Ġsan ct
ĠD M
L eg
Ġprem iere
Ġd ive
ĠB L
ĠM i
Ġreason ably
Ġun acceptable
clus ion
ist ically
ĠS i
= âĢĿ
ĠF ly
Ġc argo
th irds
b ad
Ġmisc onduct
Ġd ancing
bs ite
Ġmilit ant
Ġlove ly
ĠS elf
ĠJenn ifer
ĠChron icle
E v
olute ly
ĠM ueller
ic ers
ĠK el
ai ro
ĠCub an
rane an
Ġext ends
Ġsp ends
Ġr ings
ap or
Ġart ic
Ġm ature
Ġt ier
AN T
ĠF itz
ĠBet ter
Ġqu o
Ġab oard
Ġsell s
Ġbattle field
Pro f
ĠOb viously
Ġsexual ity
Ġdiv isions
Ġhero in
com m
Ġris en
Ġsub mar
Ġover haul
ĠRet urn
it ial
ĠCz ech
M em
ai res
ou st
Ġunder neath
Ġpar ade
ES S
ex p
Ġlin ear
ĠPokÃ© mon
M icro
ĠBang l
Ġvict ories
Ġp ound
heim er
Ġste pping
light s
ĠS ay
raw l
iz ards
Ġgu ilt
ĠElect ric
Ġbo ats
ed ge
ĠF ast
Ġm elt
form ing
Ġ8 7
Ġpublic ations
ĠS A
Ġspe eches
ag ged
M er
ret ion
Ġ9 6
Ġpart isan
ĠGriff in
Ġfel ony
Ġexhib it
Ġconsist ency
Ġment ions
Ġname ly
c ill
Ġsuccess or
ĠP ere
ĠAr n
ĠT ib
Ġcoast al
hold er
id o
Ġtransl ate
ĠBre itbart
Ġinc umb
Ġfacilit ate
Ġim pe
Ġfl ows
head ed
ĠP L
ĠIce land
Ġdisc on
Ġsn ap
ĠIn valid
Ġl ined
ĠS ent
Ġl uc
Ġm ate
C are
cl osed
E arly
ĠR oth
Ġle ap
Ġcontract ors
Ġart if
Ġ9 7
Ġanonym ity
w rite
ĠTit an
acc ur
Ġad vers
ĠN A
Ġinc oming
Ġcor rid
re ated
Ġarri ves
ĠBe yond
ĠSur vey
ĠPack ers
ĠSoc cer
ĠG B
ĠTh ailand
ĠCh amber
Ġtour ism
Ġ9 3
Ġgener ic
ĠMcC arthy
ĠT igers
Ġemp ower
Ġhear ings
at ers
Ġsign atures
Ġdoub ts
O O
Ġfunction ing
m ile
Ġelect ro
ĠOper ation
Ġpre season
ĠBrown s
in ery
Ġt ube
Ġp iv
Ġrender ing
greg ation
âĢĿ âĢĶ
Ġstro ke
ĠR AM
ĠH BO
Ġ0 2
ron es
Ġsurve ys
Ġelectron ics
Ġad verse
ĠG and
? !
ĠBry ant
Ġvend ors
uster ity
Ġaut ism
IG HT
Ġj ack
Ġp ale
ĠL LC
d isc
Ġlic enses
M at
Ġsubject ed
W ind
ĠZ ero
l ay
az ines
ĠH alf
ĠRec ord
ĠCom merce
Ġconfront ed
Ġhas h
Ġb inary
Ġarrange ments
Ġred e
ĠQ atar
W ashington
ĠSp urs
ĠV iol
ĠR ic
Ġnegoti ating
Ġtrave lling
Ġback lash
Ġd ot
ĠSe ven
um ns
ĠRich mond
ĠR ush
Ġâ ĸ
Ġse ct
Ġembr aced
ĠWork ers
ant i
Ġgrocer y
ser ver
ĠHer o
le tt
Ġfrank ly
T ur
Ġdef ic
Ġenc rypt
os i
Ġun ited
Ġind ef
ĠG as
Ġrecommend ation
F T
eg u
pl ess
Ġout let
Ġsovere ignty
ĠHur ricane
Ġv ib
Ġn od
Ġint ens
Ġcl arity
ĠE S
ĠH ope
IF A
ĠBrother s
ĠG reens
Ġhon our
Ġpret end
Ġves sels
Ġo d
Ġdiscl osed
Ġ196 9
Ġ9 2
ĠBut ler
Ġlack s
ier ra
ant ing
Ġfire arm
Ġad min
ĠC OM
on el
Ġgen ius
Ġcloud s
H ouse
Ġanaly zed
Ġn ort
ĠB R
ĠSt ring
ĠML B
ĠI b
ĠAcc ount
Ġdon ate
F R
te am
Ġ197 7
ĠUS D
ming ham
ĠP ad
ĠSo on
Ġconfident ial
Ġpl ates
ick ets
Ġutter ly
Ġastron aut
Ġprop ri
Ġtact ical
Ġobject ives
us hing
orient ed
Ġtong ue
aug hed
S and
Ġg ard
Ġsal aries
Ġsteal ing
ĠM all
Ġmal ware
Ġprem ier
Ġair pl
Ġd ense
ul ator
i pt
Cl ass
there um
ut ing
ĠDef ence
ĠStud y
ĠJ av
ĠM aj
ĠEvent ually
Ġhe al
Ġmus cles
Ġfr ames
Ġeru pt
Ġlegisl ators
Ġgl ory
Ġu seless
Ġfort un
ĠP un
Ġsport ing
Ġbureau crat
Ġdetermin ing
f ar
#### ####
Ġco at
Ġdr illing
ĠPlan et
ĠI v
Ġcasual ties
Ġl iability
Ġhydro gen
u ity
Ġnecess ity
ĠSh ah
Ġliber tarian
ĠCard inals
ÃĤÃĥÃĤÃĥÃĤÃĥÃĤÃĥ ÃĤÃĥÃĤÃĥÃĤÃĥÃĤÃĥ
âĢĶâĢĶâĢĶâĢĶ âĢĶâĢĶâĢĶâĢĶ
Ġtw elve
g reen
Ġconvinc ing
ĠDou ble
Ġret ro
Ġca res
ĠS earch
ĠAL L
om o
Ġprotect ive
or ity
ri ages
Ġlegit im
Ġ9 11
Ġspons ors
Ġc ure
ĠNob ody
Ġ ),
Ġroll s
Ñ ĩ
ĠV i
Ġs lic
Ġsp at
uff icient
ĠB obby
T im
cont rol
Ġmarket place
ĠN ag
EC T
Ġac ute
ter ior
E vent
Ġc ute
Ġdign ity
Ġhun ger
Ġsens itivity
Ġcon cess
Ġbl own
t alk
Ġref usal
ĠSp ot
m os
Ġstimul us
ĠSand y
ĠOr thodox
Ġcatch ing
const itutional
ent ions
Ġswe ep
Ä į
Ġachie ving
ĠO wn
Ġmist aken
ĠTo o
V R
Ġglass es
ĠAut o
Ġun ch
Ġl ately
k ill
Ġcharacter ized
Ġl aughed
om atic
Ġflood ing
Ġread ily
Ġ> >
ash i
Ġcomple ting
ĠA x
ling ton
Ġdefend ants
Ġ197 1
Ġswitch ing
ĠM VP
ĠMet hod
Ġw are
Ġp p
ĠJo ined
ĠF ile
A FP
Ġqu arters
Ġen abling
Ġcan cel
Fr ank
ĠIn side
Ġh ind
Ġspe lls
Ġ197 4
Ġbip artisan
Ġpr ay
ĠTO DAY
ĠPant hers
IC K
Ġadap ted
ĠM ode
ocrat s
ott om
Ġc u
Ġr ats
ĠSim ilarly
ĠÐ ½
Ġbe aring
Ġtrib e
Ġinfl amm
ĠR achel
am y
ĠReg ional
ĠSt op
Ġal iens
Ġswe eping
Ġdis ability
J apan
I X
Ġfore sts
Ġ14 0
ĠSh i
ĠPhill ips
ĠFr an
Ġglob ally
ĠAss istant
Ġf art
ĠIm perial
Ġcool ing
ne x
t em
h um
cast le
Ġportray ed
ĠSud an
Ġtheoret ical
ĠC u
Ġmurd ers
ul in
ĠBe ast
ĠBarb ara
Ġext ending
Ġsomet ime
em ail
Ġm all
Ġsynd rome
lick r
Ġa ston
k ens
Ġdomin ate
Ġmet a
ĠEd ge
ĠPr im
Ġprev ention
Ġneur ons
Ġf ond
Ġhard est
y d
Ġart istic
ĠOb ject
ĠCast le
Ġend e
00 1
Ġreb uild
Ġl ighter
Ġnav igate
AS T
Ġbi ology
ĠNever theless
c ost
Ġpers ist
Ġor al
Ġnew er
Ġins ights
atic an
out e
or us
Con f
Ġhold ers
ith ub
b ot
ĠC ab
II I
Ġjurisd iction
Ġnight mare
a ired
ĠM IT
d ie
Ġbusiness man
ĠBry an
out ed
ernand ez
b uilding
Ġnot orious
U P
r one
Ġc ab
Ġevolution ary
ak y
C le
Ġm igr
" ;
t w
Ġsettle ments
Ġexplo itation
Ġal umin
G S
at hetic
ĠB P
am o
vel t
Ġattack ers
Ġtable ts
Ġa qu
ĠC M
Ġreview ing
ĠNew ton
Ġsur pass
ĠC ant
Ä ĩ
ĠD awn
th ree
ĠD aw
Ġpredec essor
Ġshort age
Ġapolog ize
ĠF ish
O H
Ġw it
Ġr am
Ġfinan cially
ĠC ape
c m
ĠL ang
ĠLe v
Ġha ul
Ġsubscrib ing
P ut
Ġmem or
ĠAust ria
Ġequ ation
Ġred ist
Ġve t
Ġe leg
Ġendorse ment
Ġantib iot
ĠJam ie
t ic
ĠCl ay
Ġlist ened
Ġst raw
f in
Ġcred ited
Ġassemb led
Ġart work
Ġse am
Ġ{ \
Ġtr icks
Ġrefere n
Ġdr ill
Ġv owed
Ġtroub led
T er
Ġtax i
Ġtre asure
ĠHall ow
Ġbarrel s
ul k
ĠAl tern
U K
B uy
bl og
RE E
Ġspons or
inf o
Ġre iter
ĠT ar
fr ame
Ġcommit ting
Ġup side
Ġarbit rary
ĠB ed
ASH INGTON
n ut
Ġaffili ate
as a
Ġelev ated
L aw
Ġc ache
res pect
ĠG P
ou g
Ġcous in
Ġpron ounced
os ures
uten ant
Ġst ark
Ġren ov
ĠS F
pro du
Ġmos que
ar cer
ĠM E
l arg
Ġg au
Ġvill ain
Ġmob ility
Ġp airs
ĠArab ic
re amed
Ġphys ician
Ġspec ify
Ġinc on
Ġdesc end
Ġpro port
Ġhe m
d b
P ublic
Ġchar ter
Ġsepar ately
Ġpos es
ra ke
Ġcred ible
amp ed
ĠP il
es pecially
Ġtourn aments
ĠM ul
ĠB aghd
Ġrel ent
Ġpers istent
Ġtour ist
ĠContin ued
om i
Ġm ant
y ang
N ational
Ġdecl aring
Ġg i
sy stem
im port
on ies
Ġinv isible
Ġrel ied
Ġtrib es
Ġexpect ation
Ġp ockets
Ġ8 9
Ġviol ating
Ġrent al
Ġbes ide
ĠB iden
Ġover see
Ġd rown
ĠM B
Ġinter section
G old
Ġviol ate
Ġdeb ris
G reat
Ġrevel ation
ĠL uther
Ġ3 50
pt ic
ĠB ird
min ed
Ġles bian
ob i
ade qu
ĠInd ex
ĠCol lect
ĠN EW
un ks
Ġbl end
ĠN eg
ĠLaur a
ĠTeh ran
s cience
Ġp sy
Ġfort une
Americ a
Ġsubscrib ers
ĠT her
umbl r
ĠWh atever
Can ada
Ġdu o
Ġ ic
ĠF L
ĠC SS
Ġdeter ior
Ġn urse
ĠK ill
ĠB order
at ched
Ġd read
Ġtext ure
ĠG R
mont on
Ġ 000
Ġinter im
Ġre ct
Ġnation ally
ĠC BC
ĠI BM
aus ible
ĠDr ag
O pen
ĠCl ose
Ġob esity
Ġwas h
Ġvolunt ary
Ġp etro
h u
Ġprov ing
Ġrevel ations
Ġident ities
ĠBrew ing
ĠM ans
M obile
Ġpat ience
Ġdefin itive
econom ic
ĠK or
Ġkick ing
Ġacc using
col or
ĠMach ine
Ġvar ied
Ġmag azines
ĠJul ian
ĠJ obs
Ġfavor able
M ac
Ġag g
Ġrun ner
ĠNe ither
ĠH ait
Ġvary ing
ĠTra vel
ul ates
ĠSt ra
ĠH orn
ĠUS S
ĠMar cus
ĠD ue
Ġlay ing
Ġa ides
th ird
ĠB annon
ĠB ishop
Ġreluct ant
ĠSn ap
A f
in ces
in ho
ĠLad en
V er
Ġsum mar
ĠBre ak
ro gen
Ġinsp ire
Ch ar
Ġpref erences
Ġsh ower
Ġatt ribute
Ġur gent
e very
Ġrisk y
B ased
ĠR ud
Ġbreak through
ĠL em
agon ist
l on
Ġrecip es
Ġtrick y
Post ed
Ġst er
ian ces
L ong
Ġimpl ies
M arch
Ġman eu
Ġbul lets
Ġtoile t
ĠK remlin
Ġdynam ics
Ġexc luded
Ġuns uccess
Ġal beit
ĠM itch
us ions
Ġne ural
Ġinflu ences
H ub
Ġkilomet ers
ĠMem bers
ĠFl ight
Ġmass acre
D irect
atern al
rib ly
lic ation
Ġmac ro
Ġgal axy
Ġb atch
b uild
Ġfam ously
Ġfact ories
Ġprof itable
alth ough
ĠClass ic
U ntil
uc le
ĠHispan ic
Ġne o
am as
ine z
Ġsubst itute
ĠGl obe
Ġa ster
Ġintention ally
c d
K K
Ġinc omes
Ġphilosoph ical
ĠT ru
Ġattract ion
Ġback ers
Ġdistingu ish
ĠAr c
Ġban ner
ose velt
Ġw ard
Ġre lying
ĠR aw
Ġter rain
ĠN at
ĠGarc ia
Ġgrad uated
Ġassoci ations
Ġsk etch
ĠL ot
Ġb out
Ġdiss ent
With out
Ġca ut
Ġp ause
Ġcy cles
Ġanaly ze
ĠCle an
it utes
Ġk icks
Ġwar r
B ill
ĠBe er
ĠNob el
Ġexpress ions
ĠE ither
Ġhand y
ĠAff ordable
Ġover time
ĠAle ppo
in is
P ort
Ġpre y
ir med
f ull
Ġstr anger
Ġmem orable
ĠAgr icult
Ġund oubtedly
CL A
Ġdisc ourse
ĠK ate
Ġhy d
Ġhe ated
osp el
ĠFour th
b one
Ġcl ause
Ġat e
Ġdefend ant
ĠC row
Ġpass ive
ĠW ade
an ne
Ġmis under
Ġsoc ially
Ġ9 1
Ġm ush
Ġaim ing
ĠE rd
rit ical
ĠQu inn
ĠN ancy
ĠP oly
Ġwor ries
Ġpreced ent
Ġsum mon
app ro
ĠProt est
ĠN ep
Ġmeas uring
Pl ay
cer pt
ĠLeg end
ĠInvest ig
Ġsub mission
Ġse al
de velop
Ġblog s
Ġf isher
he nd
ĠPolit ics
ĠWell s
ĠC hen
ĠSam uel
rament o
omet own
s im
our ge
Ġrece ivers
C ong
ĠAtt ack
so ever
Ġcorrel ation
Ã¼ r
Ġst icks
ful ness
Ġrecre ational
off icial
Ġentreprene ur
S ports
ĠChief s
Ġun aware
ĠPet e
ĠAl ong
ĠYan kees
ĠIsrael is
Ġload ing
ĠW ii
ah an
Ġun lock
St ring
br aska
Ġdon or
Ġour s
Ġauthent ic
ĠRe form
Ġtheat ers
Ġf oster
ĠHallow een
v ised
as ma
ĠD ays
Ġpr ayers
sc ript
Ġstar ring
Ġar ise
Ġbroad ly
ĠW inn
ĠDe al
Ġimport s
ĠGirl s
ah o
ĠF inn
ĠV atican
Ġ9 4
Ġl iv
ĠEnter prise
Ġflaw s
ast ing
Ġfict ional
ĠJ ong
Ġstick ing
ain ted
ĠG rey
D et
ĠCh and
Ġen roll
Ġdisappoint ment
am bers
Ġprov es
Ġiniti ated
am ation
Ġgrand father
Ġhel met
Ġval ued
ĠNex us
ĠNash ville
ĠTra il
Ġevent ual
Ġcrew s
roph ic
Ġassass ination
C P
he tt
Ġshe ets
ac hers
ĠSe lect
g s
te lling
Ġinv alid
Ġbroad c
Ġsear ched
ĠR PG
Ġsupp lied
In tern
Ġp add
L ater
ĠG ive
ĠC our
Ġmin im
ĠM es
op ular
Ġreven ge
um bers
Ġdomin ance
Ġban ning
ĠK ath
terror ism
Ġint act
Ġteam mate
ĠP ath
ĠFer r
ĠW ire
er ting
ĠN HS
Ġyoung est
Ġinvent ory
l ation
ĠS pect
Ġfin ale
T ex
Ġp uck
Ġobst acles
Ġinterpre ted
Ġepid emic
Ġcontribut or
ĠJ oint
Ġcontract or
Ġswe pt
ĠFire fox
Ġtact ic
Ġâ Ĩ
IM E
le ased
ĠAgree ment
REL ATED
c lick
c ulation
ell ing
ĠT arget
Ġachieve ments
Ġcur s
Ġfit ting
im ated
ĠAl b
ĠOccup y
irl ines
s qu
ĠAl most
int age
ĠE le
> <
Ġg aps
Ġinf lic
Ġris es
ange red
m us
Ġprov inces
ĠL an
Ġdr ain
ve t
ĠBir mingham
Ġdef ines
Ġworry ing
p ound
ĠWork ing
Ã¡ n
Ġtr ump
l ass
sh ow
Ġmed i
J on
Ġp up
Ġdiv ine
Ġdim ensions
Ġc yn
ort ing
ĠAss ange
ost al
he astern
ĠPortug al
z illa
Ġmulti player
ov ich
ĠCat al
Ġneutral ity
Ġsatisf action
Ġinv itation
Ġn arc
cul us
ĠHol ocaust
ĠA bs
c all
Ġanal og
head s
ĠBase ball
ĠEngine ering
Ġfac ial
ĠK az
Ġsub way
ĠK os
Ġvar iant
F ox
Ġnav al
Rem ember
Ġquant ity
Ġfix es
Ġoff enders
ĠSur v
ĠF an
ĠS ach
Ġtw itter
U lt
ĠC ris
Ġconven ience
Ġc ra
Ġgrand mother
umb ai
j u
ĠSw ift
ĠBoe ing
in formation
Ġwhat soever
Ġover r
Ġbicy cle
Ġmod ify
ĠPh D
ĠAl ice
Ġm aj
Ġsk i
Ġnetwork ing
Ġdist ribute
Ġcost ume
Ġse min
Un like
Ġres ur
Ġsk ip
Ġm im
ced es
ĠE RA
ĠDiam ond
ĠD ise
Ġse aled
Ġtrans mit
Ġmart ial
ment ation
Ġstar ters
Ġbuff er
Ġpred iction
the m
s i
Ġinter medi
ĠPD F
Ġentertain ing
ĠSh aw
Se pt
as se
are z
Ġnational ist
ĠHol mes
Ġan k
ĠS O
Ġassault ed
pl ant
Ġnav igation
Ġmal icious
p df
Ġev olve
Ġremem bers
rav is
ãĢ ģ
sp oken
ok o
Ġcrowd ed
Ġscript s
Ġthe or
Ġparam eter
Ġdu pl
Ġconfront ation
{ \
Ġball ots
ĠC ox
Ġinc arcer
Ġconsult ing
Ġpr isons
Ġbr ick
li ers
Ġn er
pri v
ĠRod gers
ĠN athan
OR K
se en
ab bit
ĠCom puter
Ġneighbour hood
Ġignor ance
Cal if
Ġunc overed
V ID
Ġt ire
Ġorgan ised
Ġprec ision
ĠS em
ãģ Ħ
ĠH R
Ġ196 4
as ures
J une
ĠB ear
b b
Ġcomm em
Ġtouch ing
Ġa pt
Ġopp ression
Ġdisc ont
ic ating
ast rous
ĠBroad way
Ġpitch ing
est a
Ġdesign ing
Sm ith
ĠC op
ĠBr ig
Ġeuro s
em ale
ĠG A
Ġpresent ing
Ġc ord
Ke ep
ĠP ink
ne apolis
ur as
ĠAngel a
ere k
ĠF oster
esc ope
Ġprote ins
Ġn erve
Ġreject ion
ĠAn imal
P erson
ilit ary
G N
Ġover th
Ġremind s
ĠS ens
Ġcommit ments
Ġsu ited
Ġconcent rated
Ġhot els
Ġm ast
bel iev
ĠRo osevelt
gg le
ri ved
Ġdispro portion
Ġsur render
Ġquestion able
Ġcol umns
Ġab uses
Ġcomple ment
ĠJes se
z h
] )
ĠEp isode
ĠA ven
ĠMont ana
Ġshar ply
Ġsa ves
ĠAll ah
Ġble w
Ġan throp
Ġnons ense
Ġland l
ĠCar ib
Ġpo le
ro d
ĠY e
Ġ196 5
col m
Ġper ce
k n
Ġw rist
Ġhor izont
Ġpack s
Ġcur rencies
Ġback wards
ĠBrother hood
Ġj am
co very
Ġp ars
ar u
Ġcl ash
Ġthro at
S um
us cript
Ġrend ered
Ġadminist rators
h ots
ed uc
Ġmer it
Ġembarrass ing
Over all
y our
Ñģ ÑĤ
Ġover ly
Ġflaw ed
Ġboot s
ĠP ubl
se arch
ĠP H
ĠMot ors
AM E
Ġregul ated
Ġpharm aceutical
Ġle thal
ĠPal mer
Ġoption al
F ire
ment ioned
ĠMoh ammed
ĠPict ures
do ing
Ġrob bery
Ġcomprom ised
Ġad oles
Ġbelong ing
Ġto oth
Ġh ated
ĠL ore
anc ies
Ġn asty
Ġbase ment
Ġfree ze
Ġs ab
Ġhol idays
Ġb ay
rit ies
us hed
orig inal
Ġprem ise
s ocial
Ġen v
Ġbeh ave
per t
S am
Ġpress ures
Ġev angelical
ig m
Ġstead ily
ĠFin land
ov o
Ġn est
less ness
Ġham mer
Ġcont ing
ĠPot ter
Ġbr ush
ĠHug hes
ĠHer itage
ĠMat ter
ĠNiger ia
Ġtradem ark
Ġamb ul
E xt
Ġupgr ades
Ġcur ric
Ġmanufact ured
Ġcorrespond ent
S H
ĠIndian apolis
Ġsol ving
Ġj acket
Ġa usterity
and o
Ġ q
Ġun cle
ch ief
ĠRodrig uez
ol ver
Ġcred entials
Ġapp et
Sc ott
Ġcat tle
Ġsaf egu
Ġbrew ery
l ocal
ĠDun can
Ġmake up
Ġ19 45
Ġqual ifying
Ġout look
Ġextrem ist
W ASHINGTON
Ġvac uum
im eter
el er
ind ex
T Y
Ġcontain ers
ic ides
ĠPet erson
Ġaggress ively
Ġarch ive
ĠH erald
________________ ________________
Ġelimin ating
Ġopt ed
H ead
Ġb er
ĠR ing
Ġlink ing
OM E
Ġwho ever
Ġpro xy
ĠA G
ĠL l
E mail
ĠSh in
Ġtur b
ĠBaghd ad
p ol
ĠD A
Ġint imate
Ġ Å
Ġsecret ly
un ique
Ġinj ust
uff y
augh s
as ive
ĠG ot
Ġpublic ity
ĠCom b
ĠM ine
ĠP red
Ġconstrain ts
Ġc ups
ide os
Ġmed itation
ĠJ ar
r aged
ĠQueens land
if iers
ĠIn iti
Ġsubur ban
Ġbas eline
ĠS ullivan
ĠStud ents
Ã º
Ġtu ition
Ġle ase
Ġacc idents
ew s
C ount
.âĢĻ âĢĿ
ĠZ immer
Ġlif ting
ĠL G
ĠBangl adesh
ĠN ar
iter ranean
Ġjust ification
ĠCitiz ens
ĠOb serv
Ġtrack ed
U se
ĠS ierra
Ġhack ed
ibl ical
Ġhor izon
min ster
Ġemot ionally
Ġun int
F ull
Ġmess aging
ĠB elt
ul ent
Ġk g
Ġst iff
Ġbo oth
Ġg re
G en
\ \
Ġto kens
Ġo ven
av i
ĠS ave
un ge
Ġpl ag
Ġcompl aining
ke ll
Ġinfect ions
Ġjo ins
Aust ral
anche z
Ġins ert
ĠM I
k now
ĠÂ °
Ġrecord ings
com pass
Ġvirt ue
ag ain
Ġtroub ling
R eal
Ġo k
ĠCl in
Ġrecon c
Ġprev ents
Ġsatell ites
In vest
Ġch ron
F eb
ĠS old
Ġinject ion
ĠCol in
M D
Be ing
Up dated
child ren
ĠPresident ial
Ġ16 0
ĠU ser
1 30
Ġadvis ers
ĠA round
ĠHe y
ĠA irlines
Ġextrem ists
ĠChance llor
ĠM ong
fl u
ertain ly
Ġanch or
Ġent ers
ĠZ one
w ould
ĠAn aly
Ġnice ly
Te am
Ġp ad
ĠPro cess
Ġunder go
ur ious
ĠC ell
Ġmet ric
Ġsle e
Ġr ides
Ġpun ished
ĠEd monton
Ġshe ep
um atic
ĠAth let
Ġbud gets
Ġp el
Ġdest ructive
Ġprison er
Hill ary
Ġir rit
Ġsince re
Â ©
ust ain
Ġsurv iving
Ġcl ashes
Ġirre levant
ig ue
Ġtroub les
os ity
ia z
Ġam ateur
Ġdig it
J uly
oot s
Ġforeign ers
Ġh ilar
Ä ±
ost ic
B o
ĠJo el
Ġl iver
Ġdism ant
ĠMS NBC
Ġdownload ed
Ġcommit tees
Ġhor rific
Ġpur ple
Ġin accur
ĠQu ick
Ġby pass
Ġr ivers
Ġrandom ly
Ġg reed
ie ve
Ġst ones
âĢĿ :
ĠM O
ĠChall enge
ĠÂ »
!! !!
Ġtransf ers
ĠO P
Ġres id
sp ons
ĠZ en
ĠAlp ha
Ġcomp ounds
Ġcompan ion
Ġl as
Ġsovere ign
Ġconclud es
Ġcommission ed
am pton
yl an
iz ers
Ġneighb oring
ĠM urd
ĠC abinet
clus ive
ĠCr iminal
Ġun constitutional
ĠD ri
Ġo un
Ġintern ationally
Ġhomosexual ity
Ġ0 3
H el
Ġexam ining
pr ises
ĠTib et
se in
ĠH E
Ù İ
Ġfor k
Ġden ies
Ġco pper
ab i
ĠCost a
Ġencour ages
Ġmanip ulation
Ġte aches
G R
Ġnon etheless
Ġterr ifying
T able
at isf
oun cing
ĠF IFA
Ġfe as
Ġmathemat ical
zb ollah
ĠSac ramento
ĠCh ase
b oth
st ick
ĠComm ander
Ġflo at
F ile
ur ry
r ams
g reat
et a
ĠD ynam
ific ant
T w
gener ation
Ġadj acent
Ġmole cules
Ġhead er
ĠPict ure
ĠCh ip
Ġhand gun
if iable
ĠRe ally
M o
ĠR af
ain er
ĠOver all
h ad
Ġannoy ing
yn c
L ear
vent ions
Ġplug in
ĠL ic
play ing
er als
Ġprop ose
ĠCurrent ly
ens on
M M
he ll
Ġcryptocur rency
k ar
Ġhyp oc
ĠP in
worth y
Ġnin th
ed e
Ġimpl icit
ĠD rew
Ġdis astrous
if ully
Ġland mark
Ġde lete
Ġin adequ
Ġunemploy ed
ĠL ives
Ġclar ify
ĠK an
Ġkn ees
In f
ĠPrin cess
r us
M uch
g om
ograp her
Ġapplic able
Ġdim ension
M att
Ġlaun ches
ĠG round
op ic
Ġinvestig ative
it ations
N E
Ġcor ps
Ġcalcul ate
Ob viously
ok u
ĠClar ke
p her
M ax
Ġtrad es
ig s
av ailable
Ġint ends
p ay
p ired
Ġrelig ions
Ġhed ge
ĠChe m
ĠG am
Ġcig arettes
o ven
Ġdiscon nect
Ġcat ches
ĠE arlier
Ġoff ence
Ġdisp utes
ophob ia
ĠLeg al
Ġd war
ĠR acing
ĠO z
min ent
ĠC av
i ological
Ġsub t
b ank
Ġind ie
Ġref und
Ġstud ios
ĠInc re
ĠR ivers
Ġstri pped
Ġpict ured
B rien
iber al
Ġbre ed
ip se
ĠK ash
ĠF ac
Ġtoug her
ĠAct iv
a q
Ġreal ised
Ġretain ed
per ty
et ition
Ġover head
Ġprosper ity
atern ity
Ġaccord ance
Ġboss es
ĠAh med
Ġb ans
eal ous
Ġdeli vers
ĠW alt
Ġthread s
uff ed
Ġsubur bs
Ġexpl ored
p os
Ġhe y
Ġhaz ard
ĠW ing
ĠNaz is
Ġintegr ate
ĠBoe hner
Ġenact ed
ĠNe braska
Ġe rect
Ġprom in
ĠJess ica
Ġintrig uing
ed i
l iter
ĠP owell
ĠHel p
Ġmind set
Ġpro long
N AS
Ġcalcul ations
ĠI de
izz ard
Ġmor ality
Ġpriv at
Ġl ending
Ġfar mer
Â »
K ing
Ġl azy
Ġa ug
iction ary
V A
ĠMed iterranean
ĠBar n
ĠGO OD
B ron
we b
Ġatt ach
J eff
Ġ( +
ond e
Ġeconom ically
ĠIm agine
Hist ory
ĠAr med
ĠK er
Ġsymb olic
ĠB ald
ĠR u
Ġsocial ism
Ġlegal ization
Ġsan ction
Ġfif ty
Ġr ugby
Â Ģ
os ph
Ġfurn iture
Ġmin ers
Ġpres erved
omet er
Ġspecial ized
Ġref uses
Ġinf inite
ud a
Ġdrag ged
Ġlight ning
ĠCub s
Ġprof iles
ĠFO X
Ġcomp act
leg al
ĠM ath
ess age
Ġch unk
Ġgrad uates
Ġl ing
Ġcent res
osh i
Ġdep ict
J im
Ġconf erences
ĠBre nd
Ġdeliber ate
Ġfl ower
qu ire
Ġh ike
ĠWeek ly
Ġrevers ed
ĠC and
l ength
ĠAny one
v or
Ġassess ed
ĠH TC
Ġsc are
Ġgu ided
ed In
ĠT ogether
m em
A pril
ĠAnt ar
ĠF am
ograph ical
Ġcampaign ing
Ġproceed s
Ġsequ ences
Ġgl ance
M E
Ġsc al
oll o
ĠEv il
Ġunw illing
ĠTele graph
Ġexpl oded
d eb
Ġcoll ision
Ġnorm s
F I
Ġaff irm
Ġthr illed
undred s
Ġrecru ited
Ġsubst ances
s ight
Ġfav ored
ĠE ight
Ġha un
ĠLook ing
ĠZ ach
Ġpot ent
ĠSen ators
at able
imp se
Ġcrit ique
Ġturn out
Ġincorpor ated
Ġindict ment
ĠB aby
Ġimag ery
Ġcrit ically
Ġgl impse
ĠSteven s
Ġcal ories
Ġcou pled
P ower
ver ted
Ġoffer ings
Ġple asant
ĠI L
â Ī
Ã ł
imens ional
Ġsimpl er
Ġany time
ĠEff ect
en z
O kay
N one
ĠC ulture
Ġdecent ral
EL L
ĠTr aining
ĠHung ary
ul ously
AS S
Ġor b
ĠHT TP
Ġtow ers
os aur
1 000
Ġm g
d esc
Ġinc om
Ġcont empt
Ġst ole
Ġsur plus
Ġporn ography
Ġpoet ry
ĠT ask
ĠH ig
Ġtal ents
Ġh ometown
Ġop io
ĠWood s
ĠAh mad
ok ia
Ġdis gr
lin ing
Ġtri o
Ġshare holders
Ġcommun ist
Ġsl ice
Ġcens orship
by e
Ġstrength s
ĠE P
Ġn aming
Ġdisc retion
ys on
re cy
Ġload s
pe ction
Ġencoun ters
ĠPal m
ĠAlex and
et on
Ġtr im
Ġdef enses
ĠEdd ie
Ġflow ing
asc us
Ġreal ise
ident ified
Ġder iv
Ġcomp iler
Ġrest rain
Ġemphas ized
ĠK ay
ĠCarib bean
Ġhabit at
m ax
Ġ12 5
m ill
ĠMin neapolis
Ġsc roll
ĠImm igration
D I
ĠCo ff
Ġch airs
sh aped
Ġfemin ism
Ġcance led
Ġnot ified
Ġcontrad ict
Ġtravel s
ĠNorm an
oc y
Ġcur b
ĠM umbai
Ġdict ators
ĠL akers
e ment
Ġcontin ually
ĠF ight
Ġpract icing
ĠG ore
Ġflee ing
Sh ort
ri ans
Ġm old
ĠStud ent
k ers
ĠMc D
ĠB esides
i ably
ol ics
ĠD im
ĠM ull
Ġsu ite
ĠTra ff
ĠSqu ad
um ar
ĠMil an
Ġimport ed
Ġcop e
ĠPro s
Ġiss uing
em et
ĠMag n
Ġfather s
Ġorder ing
Ġl ips
an ies
V M
ous ands
ĠV oice
Ġsu cc
on est
Ġbe ast
Ġaccount ed
F il
Ġg ly
ĠLu is
and ing
Ġra ids
Ġpack aging
ĠVis it
ĠWe ather
ĠMov ie
ĠP ic
ĠY ellow
Ġd awn
Ġv ag
ĠMus k
ĠDem ocracy
Ġro oted
ask et
us c
ce ans
Ġa irst
******** ********
Ġfinger print
ĠE thereum
Ġj ets
ĠM aur
ĠA ub
H ello
Ġvo iced
Ġle ver
Ġfe ver
ch ant
ĠMart inez
ĠToy ota
h or
Ġgest ure
ĠS L
Ġlack ed
Ġcollect ions
Ġwas ted
Ġcolumn ist
Ġfact ions
E nd
L ab
Ġt ender
ĠD I
V I
Ġcrack down
Ġlit igation
ĠW es
ĠJ ared
s omething
Ġamb ig
ĠBoy s
Ġel ites
Ġplace ment
P ass
ug ar
Ġconst itute
Ġcritic ised
rik es
ĠB att
Ġappreci ated
Ġoverwhelming ly
ĠCast ro
u art
ĠCons ider
ĠYou th
tr ue
ab lo
Ġobsc ure
Ġb ats
iment al
Ġref res
ÑĢ Ð°
Ġconv ictions
Ġdr agon
] ;
Ġreb ounds
Ġsup reme
Ġind ivid
Rober t
ĠM aking
Ġforth coming
it ted
le ague
Ġfre el
Ġdes ires
ĠStr ong
h at
gh azi
otten ham
ĠC T
Ġrall ies
ĠS au
Ġdep icted
Ġactiv ated
B ro
ĠD w
Ġun law
Un ited
ĠPriv acy
ĠB ak
Ġscholars hip
Ġkilomet res
ad ian
ĠT u
Ġefficient ly
es ville
ON E
C all
Ġcont race
om ers
ĠLat ino
Ġsh oe
Ġfin ances
Ġman uscript
ik o
ĠEurope ans
Ġwhe at
Ġneed ing
sec ution
ĠErd ogan
Ġen velop
Ã© e
ĠAdv anced
Ġte lev
Ġguarant ees
ac cess
on ut
Ġdist ress
Ġproject ions
oul os
Ġr abb
ĠH im
Ġuncons cious
Ġru in
p resident
est on
ĠAn a
Ġprec ip
ĠJeff rey
Ġbe ans
Ġpat ents
âĢ¦âĢ¦ âĢ¦âĢ¦
ft y
G L
s ite
m ember
v oc
ing le
Ġins pection
Ġvacc ines
OS E
ĠTex ans
um my
ĠM is
c amp
Ġschol ar
Ġcar ing
200 7
Ġres il
P ac
} ,
Ġsec uring
gh ai
ĠMarg aret
Ġpost ers
Ġprogress ion
ogen ic
ar in
Ġman ually
Ġdis hes
ĠT ouch
ĠSt alin
Ġshout ing
ĠLight ning
ĠO pt
Ġpredict able
Ġint ensive
Ġwh oles
Ġ9 00
Ġinstall ing
Ġsatisf y
. ).
Ġprofess ors
ĠT ree
Ġs add
erv ice
ĠId ent
Ġfru its
sh it
Micro soft
Ġwe aker
ĠI R
Ġdes cent
mer cial
Ġconfir ms
raw ling
Ġhas ht
Ġport rait
Ġj unk
c urrent
Ġpurs ued
Ġsp here
h art
ĠNe uro
g ue
Ġg ambling
y on
F eed
Ġund ocumented
Ġthreat ens
Ġorg ans
AC T
ĠD ian
12 5
Ġbe ats
Ġhy pe
Ġinstruct ed
Ġs id
Ġmeasure ment
ny der
est e
ens en
ĠStat istics
Ġge omet
ĠM ade
Ġassign ment
ues e
ĠNY C
Ġdig est
Ġdepos its
ĠCreat ive
Ġpass port
Ġtra ject
ĠW E
Ġremain der
Ġmin es
gr at
Ġsc attered
ĠTh ai
ĠWe ap
Ind ia
Ġhel m
ĠCom cast
il ia
ĠVin cent
Ġfix ing
ĠD rop
S il
charg ed
J oe
ĠB omb
Ġm ud
Ġsc ales
Ġment ality
ĠSum mit
Ġbatt ling
ĠMer cedes
Ù Ĩ
Ġliber ties
Ġpr one
Ġstart ups
Ġbackground s
t i
ĠAd vis
ĠM ons
Ġtrop ical
Ġconcent rations
Ġcons cience
ĠPri or
Ġb ored
Ù Ĭ
AC E
l isted
Ġse gments
ĠN ine
Ġmix ing
emet ery
Ġm apping
ĠA K
Ġshout ed
at ics
Ġcry stal
Ġapart ments
Ġdis gu
ĠG raph
Ġtou ches
on al
Ġdis puted
ĠSpr ings
Ġgot ta
Ġwat ches
Ġinf ilt
Ġcontinu ously
Ġmount ing
Ġir ony
ĠC urt
Ġrock ets
Ġneg lig
ĠOper ations
Ġab ortions
Ġcommod ity
ĠSim p
ĠAb raham
ĠPoint s
Ġgr im
g irl
Ġmo ist
m und
p aid
am mar
Ġd ining
we gian
s ay
gom ery
Ġceleb rities
ĠC ool
ch t
ĠBe aut
Ġassert ion
Ġhe els
Ġaest hetic
Ġaccording ly
Ph il
ĠCom ic
ĠK in
b ra
ï¿½ ï¿½
Ġhand les
ig ion
ĠC it
Ġmy st
Ġsurvey ed
Ġd ough
ĠHud son
Ġd ug
ĠN ad
Ġfavor ites
Ġpromot ional
ĠLabor atory
Ġsynt ax
Ġdress ing
ĠCar r
Ġc abin
Ġver bal
Ġcar n
Ġactiv ation
ĠK enn
ĠK aren
Ġwood s
Ġeas iest
cl ub
Ġdep uties
own er
r ise
W omen
E U
Ġill usion
' )
Ġappreci ation
ĠÃ ł
Ġen vision
ĠF o
r ising
s u
C re
Ġunh appy
Ġindic ator
Ġmarg ins
ad itional
Ġh urd
ĠDam ascus
Ġcome back
Ġan om
Ġch im
ĠSat an
ĠP ract
m ount
Ġsystem atic
ĠRe yn
ateg ory
atch ing
Ġpost season
n ia
ĠForm ula
Ġadvent ures
Ġc aucus
ĠS K
Ġ0 4
uck ed
ĠA er
Ġbl ade
ĠHe zbollah
Ġsw ap
id ity
Ġin k
Ġ196 6
ys ical
ĠBM W
ab lish
ĠC P
ĠB apt
ĠRaven s
ph is
ĠY ale
ach t
ĠFin als
ĠCoun ter
Ġic ons
h h
Î ¿
Ġbr idges
Ġaer ial
Ġcompar isons
Ġtransport ed
ĠInter ior
Ġcharacter istic
Ġsl aughter
Ġactiv ism
ĠH ERE
Ġw ra
Ġsu e
ĠM ann
ĠCh ad
agg ering
Ġpark ed
Ġ0 8
Ġdispl aced
b augh
ĠSt rip
Ġc ables
ĠCan cer
ĠWal mart
ĠUn ity
Ġu pt
Ġdis ruption
Ġsc i
Ġm ol
A E
Ġsm iling
arm ing
ris k
ot er
ĠCo in
or ically
B B
Ġsl ated
Ġcertain ty
T ext
Ġgrass roots
s un
Ġmed ieval
ro v
D el
Ġca f
ĠL ower
Ġaffili ated
Ġhe ating
Ġconce aled
Ġflags hip
Ġcinem a
Ġd airy
Ġfl ames
Ġrhyth m
Ġpull s
ĠC ou
Ġl i
Ġch ick
ĠCont ent
at ility
Ġup hold
Ġl inem
F ive
ĠK o
Ġpolic ing
Ġstaff ers
ĠH onda
ĠTH IS
el ed
Ġcompet itor
.' "
ĠB ren
ĠMet al
igg s
ens ed
Ġw ield
Ġprompt ing
Ġ( Â£
ĠBen ghazi
Ġt ennis
Ġr ou
ĠC ash
Ġreprodu ctive
Christ ian
[ /
Ġl ied
ĠFred er
ĠCol ts
ipe g
Ġstat ute
els h
Ġnot ification
Ġbl unt
mid t
Ġtheat re
Ġphys icians
Ġd are
ĠL ion
N on
ĠBelg ian
ad ata
Ġdis reg
ĠUp on
M ad
Ġremote ly
Ġsh ook
ĠCry stal
ĠMal colm
Ġdist urb
Ġacc laim
Ġh ipp
Ġnut rition
ot ive
Ġrep ository
ĠWh ats
ĠW ang
ĠHop efully
M ENT
Ġfl ies
Ġsh ark
Ġacadem ics
Ġcustom s
Ġble eding
ĠB anks
ĠTom my
ĠC opyright
ĠG aming
Ġmulti pl
Ġmusic ian
Ġdistinct ive
ĠD ame
ĠGib son
ĠR ank
Ġforg ot
Ġbull ying
Ġcr ashes
Ġamb itions
ĠVal ent
on gh
Ġpit ched
n c
ĠMajor ity
Ġvel ocity
ĠGand hi
ĠS id
Ġinherent ly
Ġdig ging
T est
Ġattend ees
ich t
Ġro d
ĠCol lection
ĠInd ependence
Ġsuprem ac
Ed itor
yn asty
s pring
Ġcook ed
Ġto pped
Ġcontribut ors
ĠS anchez
Ġstr angers
pro ve
Ġcent ered
V is
am on
ĠCrime a
Ġst aring
th reat
ĠD elta
Ġunp redict
Ġ196 3
Ġinspir ing
Ġreact or
ĠMe g
d ollar
Ġsh adows
Ġpat ches
ĠL arge
Ġstorm s
w ait
ĠNew castle
run ning
ĠW ere
ix els
ur ally
Ġrail way
cont ent
Ġadvis ory
b us
Ġst int
ĠP etro
Ġsmall est
i w
Ġfortun ate
ĠF alls
Ġw ished
Ġsound track
ĠIndust ry
Ġdispos al
Ġcle aring
cific ally
Ġcand y
Ġbehavior al
ĠColomb ia
ĠSome one
U G
T ra
Ġst ub
Ġg orge
M or
Ġst ap
Ġanx ious
ould er
Ġbench mark
Ġapplic ants
ar se
ĠLegisl ature
ĠBr ain
c ourt
Ġview er
Ġfoot print
B as
Ġimm unity
akes pe
Ġfound ations
ong yang
S I
Ġadjust ment
Ġimpact ed
ĠW a
ĠF ix
ud ed
Ġcol ony
Ġdes erved
AS E
Ġwe ighed
s n
ĠN ut
ĠSimp son
Ġsh aking
ĠW or
Ġem pir
Ġadjust ments
ĠH az
Ġ0 7
Ġgen ocide
Ġlad der
Ðµ Ð½
Ġmathemat ics
ĠM ob
chn ology
Ġo w
Ġcl ue
ĠMon ster
z el
C AR
Ġim minent
ĠS witch
Ġr anges
ean or
Ġche ss
w age
Ġboy cott
,' '
Ġ> >>
ope z
ĠCommon wealth
Ġoff enses
Ġe go
ew ay
Ġelect orate
Ob ject
ĠIniti ative
ĠCons umer
op oulos
Ġch rom
ĠBr ight
Ġwild ly
Ġgas oline
Ġport ions
Qu est
s an
ĠO m
j pg
Ġst akes
Ġrein force
Ġ( -
Ġposition ed
Every thing
Ġgl ac
en ly
ĠMos ul
Ġ0 9
ĠCar roll
ĠOther wise
R yan
Ġincorpor ate
ĠApp arently
Ġun believ
Ġrecover ing
Ġt ide
Ð¾Ð ²
Ġconnect ivity
ĠR A
ib les
Ġas leep
ĠD anish
Ġindivid ually
Ġm i
Ġur anium
Ġgi ants
ĠM ut
ĠLeon ard
gu ard
Ġapp ar
in ner
ĠKen ya
Ste ve
Ġdemonst rators
Ġc age
Ġlegitim acy
ĠV M
ow itz
Ġp und
P eter
ĠReds kins
Ġa fore
Ġe cl
C onst
he art
â Ļ
Ġeat en
Ġansw ering
ĠAn alysis
P age
Ġphys ic
âĢĿ ).
Ġmatch up
ĠH ousing
I ran
Ġmet eor
Ġbon uses
Not es
Ġve ctor
EN D
Ġpit ches
ĠArm strong
Ġsufficient ly
ason able
ĠP orter
Ġincumb ent
Ġbox ing
asc ript
lud es
ĠB ent
Ġmar riages
Ġn ail
Ġmetab ol
Ġalumin um
Ġrow s
âĢĿ ?
Ġcont ender
ĠCh an
Ġcro re
ĠCan n
Ġd ent
ÃŃ a
ĠÂ Ń
Ġeduc ate
als h
b ach
Ġflav ors
Ġcert ified
S ure
G C
Ġque en
ash a
Ġque ue
e i
Ġsp ont
Ġbe es
ĠX L
ĠR ule
Col or
ult z
p ical
Ġfaith ful
Ġpl ausible
Ġacc ent
Ġconsult ation
Ġdirect ing
Ġclim bed
Ġat op
ere rs
3 50
Ã¶ r
Ġhier archy
Ġprior it
Ġund erest
Ġsie ge
ĠD j
ĠK ane
Ġopt imal
Ġhistor ians
orth y
ad h
Ġmanip ulate
Ġdies el
S N
Ġsim ulation
et ooth
ĠM asters
Ġsli pped
bro ok
ĠDar win
Ġde ar
Ġaver aging
Ġpersu ade
ĠLe ave
Ġfe ather
ĠS pl
Ġcook ies
Ġlight ly
Ġcon grat
ĠS ter
erv ative
Ġj azz
Ġs oup
akespe are
ĠX i
ĠSocial ist
Ġneg lect
Ġauthor itarian
Ġju ven
ĠW ITH
Ġs od
ach i
ĠM end
Ġp iano
ĠA F
le en
Ġmin imize
ĠB ills
t ax
ĠW ings
Ġby tes
Ġamend ments
ãĥ ¼
ĠG or
pect ives
Ġpar as
ĠB ody
Ġshow case
Ġb ru
ĠTe levision
Ġelement ary
ĠA pr
Ġâ Ī
ment al
Ġimprison ment
an as
g on
Ġcig arette
Ġab usive
ĠJ ama
Ġut ilities
Ġexplan ations
Sp ace
Ġplant ed
Ġdep osit
Ġab rupt
Ġf reed
ĠSteel ers
Ġprotect s
om ore
Q U
Ġshe lf
Ġal erts
Ġrecogn ised
or um
ĠM oss
Ã© t
Ġdiam eter
Ġpat ron
ig o
Ġsp ike
min ing
Ġtreat s
prising ly
ĠPriv ate
ĠEm peror
ber ger
ĠLe x
ĠGr an
ĠEs pecially
Ġwe ed
Ġn ucle
Ġv icious
Any one
ĠM ol
Ġhalf way
ĠS QL
gg ing
ĠGreat er
Ġjail ed
y outube
Ġgener ates
Ġcr ap
Ġg ates
ĠO culus
ĠW ant
ĠS ale
sh aring
Ġblow ing
Ġresc ued
Ġr ipped
ĠT rip
And rew
st ation
ĠPer formance
Ġrun ners
Ġal igned
Ġcollect ively
Ġat omic
Ġsupp ress
I ES
OR D
ĠA CC
ĠS add
ĠâĢľ [
sp an
AR K
ĠUlt imate
g ow
OU R
id i
Ġexplo ited
Ġven ues
Ġch asing
Ġmotorcy cle
ing rich
Ġsc am
Ġfert il
ĠWest minster
Ġup s
Ġfound ers
Ġw itch
Ġfif teen
Ġaccess ed
ĠU CLA
ell ed
Ġadv ancing
Ġluc rative
He alth
occ up
Ġp estic
ĠG N
al one
tit le
Ġd orm
Ġloc ate
l av
Ġabsor b
F ore
Ġintegr al
ĠInt egr
ĠT ak
Ġp ork
Ġlad ies
Ġhuge ly
um ed
Ġunp opular
ie ce
Ġcere mon
Ġoff line
Cont act
Ġjer sey
he y
Ġdeleg ation
Ġamb ition
Ġappeal ed
ĠK end
que z
ĠS ri
Ġquant ities
an ed
ourn ament
Ġpromot ions
ĠK ids
n ar
Ġapp le
ĠLim ited
Ġtrave lled
Ġcurric ulum
Not hing
ĠSc reen
Ġmor ph
Ġv ic
Ġprohib ition
f ix
ĠRichard son
ĠPortug uese
olit ics
Ġop ener
Ġprotest ing
Ġres ent
ir ies
Ġsynt hetic
Ġp iss
ĠN GO
ĠGener ation
uter te
Ġo we
ĠCh ampion
Ġautonom y
S w
T T
Ġlow ered
ĠT ravis
Ġcru ise
Ġinhabit ants
C ome
Ġzomb ie
Ġrif les
Ġemb ark
Ġfact ion
Ġbl at
Ġprol ifer
Ġt a
Ġancest ors
ĠM add
Ġp ond
ĠTer min
Ġmilit ia
ĠM ills
ad ays
Ġmet er
Ġport able
Ġtri v
ĠPr ison
r ational
Ġbreat he
im ity
am iliar
\ -
ef e
il itation
ĠCre ate
Ġpay roll
Ġsimilar ities
Ġhapp ily
Ġrecruit ment
Ġconsist ing
Ġassoci ates
Ġpo em
Ġu m
Tex as
i Ã³n
ob a
ĠE t
ins ki
b ast
Ass ad
Ġinv ention
Ġhom icide
Ġ0 5
Ġsatisf ying
ĠNorth west
ĠT on
Ġnegoti ated
Ġdec isive
ĠShan ghai
per m
Ġdetect ive
a que
Ġcrus hed
Ġhon ored
om on
ĠPar ks
Ġimp osing
ĠEn forcement
ĠGene va
im g
Ġthr ust
ĠD olphins
ke eping
ĠR O
Ġmis er
H C
ĠDel aware
s ix
Ġconstitu ents
um per
Ġu b
Ġdelight ed
Ġvari ants
Ġuns upp
Ġper ipher
F ar
Ġprem ature
ĠArch itect
connect ed
Ġover view
Cont in
Ġcl ips
Ġd ude
n els
ĠACL U
ĠS ie
Pro t
Ġslow ed
Ġfor ty
Ġcar b
ĠH A
ĠDise ase
Ġsent encing
ĠP engu
Ġbre wing
ĠL oc
ant om
ĠAmb assador
ĠH ass
U ser
reg ular
Ġincl ined
Ġbi ased
Ġrest oration
ret ty
ns ic
AT H
% ),
ĠSch olar
H ome
Ġar rog
ĠS outheast
Ġlog s
ĠK urt
Ġart illery
ĠV ent
ĠCath olics
Ġconsum ing
ĠUS C
Ġyield s
ĠStr ateg
Ġeff ic
N ob
ĠHop kins
ĠHuff ington
Ġenthusi astic
d est
il ight
Ġgenet ically
Ġsl ammed
Ġt ended
Ġdep ressed
W ould
Ġqu ot
ĠH appy
b ane
F orm
Ġgen ome
er ness
ĠI Q
Ġpost p
Ġn odd
Ġp ul
ator ial
Ġmet rics
ĠN ord
ĠThe ory
Ġshow c
Ð ·
Ġno ble
ĠC airo
ik er
" ).
Ġupgr aded
Ġillust rate
ĠF ace
Ġt ales
Ġconsist ed
Ġinstrument al
Ø§ ÙĦ
Ġadminist rator
oun ter
ĠAdd ed
ĠV I
Ġrecip ients
' :
Ġs i
Ġclass ification
Ġwhistle bl
ĠId aho
Ġinc ap
Ġexp ans
ĠMatthew s
p ers
ĠLoad ing
ĠGl as
el ong
h aw
Ġrecogn ise
ĠMet ropolitan
og yn
ĠConfeder ate
Ġincons istent
Ġr iots
Ġnic he
a uth
k it
dep th
b as
ĠK ap
ĠOrig inal
Ġsl ides
Ġbr on
ĠK il
Ġcor rection
Ġair ports
Ġliv est
d ist
v ance
ĠSt ories
Ġjud ged
w ent
i ott
el ines
ĠD erek
ĠS eth
Ġdri ed
ĠMun ich
Ġpist ol
Ġex cerpt
Ġinvestig ator
e ger
serv ice
Ġblog ger
ĠAs k
Ġseek ers
ĠRepresent ative
Ġext inction
Ġassist ed
S cient
ir us
ĠVis ual
Ġr ider
Ġl ion
Ġr ip
Ġmark ing
is le
Ġbre eding
Ġpredomin antly
Ġvol t
Ġpr iced
Ġcoinc idence
ĠG az
ĠEm ir
add afi
f inal
Ġquarterback s
Don nell
uff le
Ġbl oc
Ġshel ves
Ġev olving
ĠH ence
Ġdeb ts
ĠEag le
Ġnurs es
R ad
ĠBudd hist
Ġ12 8
Ġappl aud
Ġsp ying
ĠD oc
ĠB ach
Ġutil ize
ĠWe bsite
ĠMon th
Ġc ad
Ġfrag ile
ĠNich olas
ĠH S
Ġbound ary
Ġun related
Ġy oga
Ġw ives
Ġt ires
Ġcatast rophic
g ay
Ġcontem pl
Ġo st
Ġpri ests
ĠO ften
Ġacadem y
ch at
it ous
Ġh ref
ĠVeter ans
__ _
iat ric
ĠB eth
Ġo ath
ĠLeaf s
id y
Ġprop osition
ĠC rew
it ially
Ġecho ed
Ġhum ble
Ġc otton
o ir
Ġpract iced
F ixed
ĠÎ ¼
Ġfart her
p ose
ĠV a
ĠTun is
Bl ue
ĠW ait
ĠNo ah
Ġremark ably
met ic
m ake
Ġcirc ulation
16 0
Ġcol ored
Ġwar ns
Ġchap ters
Ġg ren
Ġend angered
ĠCl int
Ġinterven e
Ġrel iability
ov an
il ers
Ġbook ed
Ġalleg es
ĠA br
c ond
Ġn ostal
ĠLouis ville
road s
Ġextensive ly
B rown
Ġdat as
ĠS nyder
ĠRe lease
ent ry
Ġank le
Ġfil ters
Ġang les
f un
ĠY am
l iv
ĠHend erson
ĠNor wegian
us k
Ġgang s
ĠY u
ĠLear n
ep rint
ĠF ixed
e ous
Ġst aggering
l ance
Ġsh ine
Ġsec urities
Ġfore most
ĠAg ent
ll ah
M iss
Ġwe ars
Ġcamp uses
Ġcl iff
200 6
are a
Ġbail out
ibl ings
p ically
Ġcomb o
Ġint oler
ĠEll is
Ġdescript ions
à ¥
m ph
eng ine
ale z
Ġsymp athy
Ġlic ence
ot ics
ĠA FL
ĠJ unior
Ġhor r
ĠHe brew
Ġp oured
Ġ ë
ĠFal cons
itz er
Ġm igrant
ĠR ut
Ġdown s
ĠS B
Ġatmosp heric
ĠL ate
Spe cial
ĠFor bes
Ġemer gence
Ġadvis or
ĠP ew
oy le
ĠThanks giving
ĠK ush
ĠHus sein
Ġspr int
De velop
amp ire
Q ue
Ġblank et
l it
Ġmasc ul
Ġincl usive
Ġp unk
Ġwh ale
Ġmonop oly
Ġpositive ly
ĠWild life
ra f
ourn als
Ġrelax ed
Ġdefic its
and als
A ir
RE D
ann ers
ĠAbd ul
ir ation
Ġclin ics
Ġencrypt ed
d imensional
Ġweakness es
Ġfor wards
ĠT ab
ĠQ ur
asc ular
he ster
cons cious
Ġfe ud
Ġman a
Ġpros pective
OC K
Ġoptim ism
st rom
Ġche f
ĠK iev
ou ble
ĠE aster
ĠH off
ĠJ in
Ġrem inis
Ġ196 2
ĠSchool s
10 1
Re view
ĠMont gomery
ĠCur ry
ĠW AR
Ġlight weight
ĠB O
sex ual
Ġm a
reat ing
he arted
Ġcon form
Ġpract ition
Ġl ingu
Ġbo o
ĠK enny
ĠP ierre
Ġmon itors
Ġcul p
ĠH ost
M ain
Ġbelong ed
ĠW elsh
Ġbas ics
Ġc oding
un al
Ġreal izing
Ġrespect s
ĠFl a
Ġafore mentioned
Ġre nown
Ġinher ited
Ġtight ly
ĠCD C
Ġcoord ination
Ġenfor ced
ĠGet ting
ĠArn old
act iv
Ġener g
Ġtro phy
p ict
os c
Ġpartic le
ĠWinn ipeg
ID E
ĠMin i
Ġcycl ists
Ġimm un
Ġspe ar
ĠKurd s
ey ed
Ġrecip ient
Ġ0 6
Ġsl im
ĠU l
B ox
Ġtask ed
ĠD ust
R P
Ġprob ation
ĠW rest
ĠPy ongyang
ĠM atch
ĠEmer gency
ĠN okia
S un
Ġ10 5
lev ard
is co
ĠE sp
ans om
We b
Ġsepar at
Ġflo ors
Ġadd ict
ĠAct ually
ĠC ort
ĠKas ich
Ġver b
Ġinher it
Ġtat too
Ġste ering
Ġnav ig
ĠAgricult ure
def ense
ator ies
oke mon
Ġmonit ored
het ical
ĠMem phis
Ġadd itions
p res
Ġcooper ate
Ġreward ed
ĠK id
Ġorig inated
ĠSch ne
ĠPr ide
an cer
Ġs way
pro cess
ĠS ite
Ġmerch and
ĠTit ans
Ġg rief
Ġb ent
l at
ĠJ ays
Ġscar ce
Ġquick er
Ġdys function
q a
Ġins ufficient
ĠA j
st ated
Ġimpro per
Ġslow ing
Ġinterf ere
Rich ard
Ġne arest
Ġup ward
cl ock
Ġc ensus
ĠReg ion
ball s
Ġreal ities
Ġun con
Ġredu ctions
Ġs acks
Ġcoord inated
ÂĢ Â
f illed
Ġperform s
Ġtast es
Ġobtain ing
ĠT ories
ĠR alph
dri ving
Aug ust
Ġw oke
ĠJen kins
Ġth rive
E s
Ġcomb ining
Ġorgan isms
Ġuncom mon
Ġcandid acy
ĠP aper
Ġpersonal ities
I ts
names e
ener ation
Ġt ense
Ġpo ised
Ġpaint ings
ĠSh akespeare
im er
ĠB ark
am ount
Ġenjoy s
Ġc ripp
Ġtest ify
Ġwrit ings
ek ing
Ġinput s
Ġse ize
Ġsl ogan
Ġunsupp orted
Ġsens ible
Ġexp osing
ourge ois
Ġsc iences
Ġopt ical
ĠV ideos
r ays
.' '
ĠC amb
ĠSal v
Ġoverlook ed
ĠBre tt
Ġord inance
Ġsurf aces
ĠTH AT
Ġadm ire
Int erest
ard i
G P
Ġkind a
ĠCase y
alk ing
ĠA ur
Ġparticip ant
C ON
Ġsm iled
s uper
ane y
Ġagg rav
{ "
os ion
Ġhand ing
iet h
play ed
Ġe ld
ĠEm ily
ĠPre vention
Ġno on
Ġass erted
Ge orge
Pl us
l anguage
Ġins isting
Ġty r
Ġz oom
ĠAd rian
ĠProp het
an throp
ĠBash ar
Ġcaut ious
ile m
S al
Ġtour s
ĠRand y
p ad
Ġrece ipt
V C
ine a
Ġdetain ees
ĠÐ ¾
Ġwond ers
Ġliqu or
Ġreflect ing
Ġbureau cr
acer b
Ġst agn
Ġawa iting
Ġh obby
ec d
Ġt ags
k ov
Ġupload ed
Ġtrad ers
Ġl oot
ĠH ook
f amily
W W
Ġc ivic
ĠUn less
c ock
in ers
Ch ild
Ġan ten
S ources
O p
im edia
Ġc ared
ĠR ust
ĠDod gers
Ġform ats
Ġabund ance
Ġgu ides
ĠE M
ĠT ottenham
Ġemp athy
Ġdemonst rating
ĠIsa ac
Ġconv entions
ĠS r
ĠPear l
Ġe ternal
ĠFerr ari
Ġg em
Ġillust rated
Ġintu itive
az or
Ġoutrage ous
Ġd ip
Ġvast ly
Ġfl uct
Ġgr ades
Ġnever theless
Ġmention ing
ĠEr n
Ġfl own
ĠGr ace
ĠU P
Ġaston ishing
Ġpast or
L ocal
Ġman ga
Ġbuy er
Ġred irect
ĠN uclear
Ġcommer ce
b ucks
ĠM ix
f ood
Ġb od
ĠBar nes
Ġbo asts
Ġred es
Ġm es
Ġje opard
Ġdatab ases
Ġbank ers
ĠSw an
c ur
Ġrepe ating
Ġbl u
Ġshall ow
Ġobs essed
ĠTh rones
h all
W as
Ġautom ation
M ap
Ġpus hes
im ination
am ples
ĠRe x
h ouses
Ġu mb
gg y
ĠLe aders
sh adow
st airs
Ġeval uated
ĠBa iley
Ġwork out
ĠS weet
ĠStep han
ĠA IDS
U TC
Ġinsect s
Ġhur ting
Wh atever
Ġ| |
Ġsec recy
Ġb ounce
Ġbot hered
g rown
D ate
ĠH ack
Ġsn ake
Ġnurs ing
ise xual
Ġunder grad
Î ½
ĠHer oes
Ġhilar ious
Ġimm ers
Ġim aging
us p
ĠÐ ¸
Ġpremium s
ad os
Ġexha usted
D isc
Ġout line
ĠSom alia
Ġfin est
ĠP HP
ĠD ylan
Ġinadequ ate
Ġdiplom ats
~~ ~~
Ġcomb inations
W elcome
oph y
Ġtriv ial
up iter
Ġdark er
AN S
Ġst aged
" ),
ĠC raw
Ġcou ch
att ack
ĠSur face
Ġpick up
Ġcompl iment
Ġsubject ive
ĠB our
ĠJ ob
Ġvend or
ĠCy ber
ĠAp ollo
b illion
ig el
Ġwho lly
Ġprox imity
rop he
inent al
ĠS HA
UL L
ĠEconom ics
Ġ196 1
Ġbarg aining
Ġmet ro
ĠBudd h
b ird
Ġ: )
t ake
Europe an
Ġb aking
ãģ «
ĠP ul
mit t
Ġconj unction
Ġun named
Ġsoul s
Ġassault s
Ġgr ams
u ber
od er
Ġcl ues
Ġinaug uration
ĠDep ression
ĠTri ple
Re illy
Ġoverwhel med
f a
ĠH ob
ĠAn onymous
ĠE A
ĠReg ister
IT E
Ġdeal er
er ie
ĠL um
ĠL av
ĠG oth
Ġin ning
display style
ĠRe act
Ġdist ances
ĠD at
Ġunderstand able
ĠD ow
osa urs
Ġalph a
is se
H and
D ev
Ġvibr ant
Ġg ases
Ã ¸
p c
Ġaccompany ing
Ġen compass
ĠN aval
Ġw olf
Ġlit eral
ou x
Ġdev il
ĠSil va
ĠR ot
200 5
Ġd ice
ĠR ules
ĠAl z
ear th
le um
ĠF aith
ĠV illa
Ġa in
ener gy
S ocial
_ {
L og
ĠArab s
Ġcraft ed
Ġsupp liers
ĠB io
\ /
ĠHe aven
Ġunder water
Ġapolog ized
ĠGab riel
Ġphenomen a
Ġst airs
Ġtr ails
ĠG ang
D ear
rell a
Ġhur ts
Ġso y
ĠEll iott
ĠHe avy
ĠB ec
ophob ic
Ġther mal
Ġmicro sc
L ove
Ġlobby ists
Ġd oses
ant on
ĠT win
Ġassum es
amer a
Sh ould
sh ine
Ġr h
it ime
Ġ ..
N O
ĠGT X
f air
Ã ª
Con clusion
ĠAustral ians
ĠSt rike
Ġj aw
Ġserv ants
ĠT ol
Ġmole cular
7 50
ĠWord Press
ĠVal ue
Ġde portation
or o
s ic
ĠF uk
AR Y
ĠSC P
ì Ŀ
Ġcon gest
cy cl
il ogy
ĠF ew
Th us
ci ation
bu ilt
ĠE ye
ĠShe ll
Ġinjust ice
ĠFl int
ĠC ob
Ġsun light
ĠIS BN
Ġjew el
ĠPere z
Ġsus cept
Ġun b
ĠB in
In c
Ġimpl ied
ut ton
ĠAt hens
Ġen light
S QL
Ġdr astically
Ġp ets
ĠF ocus
ĠS gt
ĠHold er
Ġstand point
AM Y
Ġex acerb
re a
Ġcapt uring
int egr
iz oph
ĠIns ider
ro e
Ġfiref ighters
hed ral
ĠNot es
ĠMc N
en es
ĠBur ke
Ġm asters
et z
Ġvit amin
Ġshot gun
Ġnot or
ĠCom plete
ĠNov a
Ġspin ning
Ġpromot es
intend ent
ĠSt range
Ġhorizont al
Ġbe am
Ġrespond s
v id
step s
Ġsam pling
Ġprim aries
Ġad ul
ĠR B
Ġpass words
Ġver ified
Ġpop ulated
Ġ19 48
ĠSc ript
Ġgener ator
the ning
m and
g one
Ġf lick
Ġpar a
Oct ober
ĠV el
Ġs iblings
Ġnew com
Ġmot ive
Ġto ggle
Ġmed ications
Ġprob able
b ps
Ġadv ise
ĠD ad
ĠN RA
if a
Ġg ently
ĠD rake
ĠHe ights
ĠBer g
ĠSt uart
Ġlo oph
Ġconcent rate
Ġcat aly
c ue
Ġen rolled
Ġun equ
ĠMar ie
Ġcomp ile
Ġfit ted
Ġadminist ered
Ġb rib
ĠCole man
ĠT iger
st ud
ĠKle in
Ġc um
Current ly
Sand ers
Ġwell s
Ġimprison ed
Ġerupt ed
Ġcomed ian
ĠM our
Ġaffect ion
ĠEv an
Ġrev is
ĠIM F
Ġ ×
Ġactiv ate
R ub
ĠJosh ua
ĠP and
l ar
if le
Ġincom plete
ĠApp eals
Ġlot tery
ĠG ingrich
Ġax is
Ġc ites
Ġc ater
ĠE sc
Ġp ills
Ġcol ours
Ġproceed ed
M arc
Ġd uck
c iously
Ġj ar
In s
Ġeleph ant
ĠSach s
Ġtra it
Ġhighlight ing
Ġathe ist
ĠSh op
ĠIn g
ĠE ug
Ġrebell ion
ĠGu ant
ump s
ĠC inem
ĠM ak
ĠRoberts on
Ġcontest ed
T otal
Ġretail er
Ġcast le
H y
Ġstate wide
ie ves
Ġcan on
ĠJ os
Ġind ul
ĠB ot
Ġsub urb
ĠKn ights
uss ions
ĠC li
Ġgra pp
Ġpay load
o at
ag le
IN T
Ø ±
ĠP or
ĠP ub
ĠL O
Î ¹
Ġsens ation
Ġhack er
Ġadmit ting
p al
ĠM UST
iet al
izoph ren
Ġprotocol s
Ġobject ions
Ġinter ventions
Ġb ang
Ġsp am
ĠN y
A ut
ĠViet namese
Ġdef er
Ġconf isc
other apy
ĠN am
Ġ* /
Ġplaint iffs
ĠX P
n is
Ġrele g
ĠC AN
Ġobs ession
uk a
uff s
Ġborrow ing
Ġlog ged
ĠL anguage
ut ral
Ġlog ging
Ġself ish
ĠIndust rial
Ġdefin itions
de ep
ĠRe b
Ġdisapp ro
14 0
rig er
ĠOff icial
Ġens ures
] ]
Ġgorge ous
ĠR idge
Ġwh ales
Ġext ensions
Ġairpl ane
Ġstab bed
sec ret
Ġback ward
ĠGl en
Ġhelicop ters
ĠCh a
Ġval ley
ĠAsh ley
Ġware house
Ġro pe
Ġpl ural
i u
Ġcry st
ĠVirt ual
Ġan ecd
w ald
ins ky
ĠW alsh
Ġten ants
Ġsyn chron
L L
Ġcont ention
oc used
Ġen rich
Ġpl ots
Ġl amb
Ġpa ired
ĠSh a
Ġfair ness
Ġo ceans
ĠL opez
Ġmain land
ĠCirc le
Ġflood ed
ĠW A
Ġsum s
Ġha w
ĠPat rol
set t
Ġexplos ives
Ġtort ured
Ġpsychiat ric
ĠV ersion
Ġsad ly
Pro ject
asp berry
Ġhint s
ĠW ag
Ġnational ism
ãģ Ĺ
Ġstere otypes
Ġwel coming
M ass
s ens
ĠEn c
Ġdes irable
Ġo wed
Sub scribe
oint ed
ĠU FO
in ian
Ġg ru
ĠS ask
S ix
ruct ed
Ġcompe lled
ĠOr d
Ġrom ance
Ġfig uring
ind uced
Ġunder cover
Ġterrit orial
Ġgreet ed
Ġtraject ory
o qu
Ġambul ance
ĠH ab
Ġco h
ĠW izards
Ġnick name
ĠC I
at tering
ĠPro bably
Ġto pp
ĠWin ston
Ġint ro
in burgh
ĠC F
Off icials
ĠH od
ind ust
Ġsen iors
Ġfeed s
Ġintern ally
Ġan them
osp here
Ġparad ox
Ġdistingu ished
ĠEth iop
ĠInn ov
igg ins
Ġcur iosity
ĠJ agu
ĠGo ing
Ġsurf aced
is i
ĠC ensus
ract ed
Ġl enses
Ġar row
ĠSh o
Ġsh irts
ĠInd y
Ġemphas ize
author ized
ĠNS W
ela ide
ĠCro at
Ġpl um
op ath
Ġcal culation
Ġsymp athetic
O k
ĠInd igenous
Ġla wn
Ġbuck et
B erry
Ġliber ation
Ġjump s
commun ications
ĠL iqu
Ġbat ting
ĠKash mir
ĠCharg ers
ĠSch umer
Ġqu eries
Ġs atur
nd ra
xt on
Ġconf ined
Ġhar ness
ant a
Ġprov oc
f its
Ġup rising
Ġpropri etary
Ġass ure
B ob
aw i
Ġgau ge
ĠSim ply
Ġsand wich
Ġprot agonist
Ġl od
Ġprivile ged
Ġcho oses
Ġhome owners
g as
R un
s um
âĢĿ ),
Ġam ended
pe ace
ot ine
Ġmaneu ver
Ġanaly tics
Ġconced ed
ĠDub ai
Ġpopul ist
ut ic
Ġinform al
Ġpartners hips
iff e
Ġcorrect ed
Ġh ills
Ġweek ends
ne ys
You ng
C ent
iss ues
Ġemb ry
ar ious
Ġprosecut ed
aze era
Ġprem ises
Ġgl uc
Ġall ocated
Ġvulner abilities
Ġstret ched
Ġun ified
it as
Ġpedest rian
Ġprocess ors
ustain able
Th ink
Ġselect ing
Ġvar ieties
p olitical
Ġprop osing
Ġmethod ology
Ġide als
Ġmin ors
Sept ember
Ġincomp et
. (
L ine
ĠÂ «
ĠF u
ĠApp ro
ĠT PP
Ġgl oves
ĠT X
ĠSt ay
ĠFal con
stan bul
Ġc el
ook ie
Ġb ourgeois
Ġhom eland
Ġfin ed
ĠLl oyd
ib al
Ġpen is
ĠL anc
rist ol
Ġreck less
ĠT at
ĠPel osi
ĠLib yan
Ġdelic ate
ĠMar ines
Ù ħ
ĠU T
C BS
ĠHar bor
ĠN early
Ġhur ricane
ĠGreg ory
Ġat roc
in yl
Ġcompr ised
ä º
Ġconstit utes
es ar
Ġsyn c
ĠW end
az ar
ĠBapt ist
Ġcat alog
Ġteach ings
Ġsk ate
in v
sh irts
p ark
ĠF ear
re view
Ġpit chers
Ġsoph omore
Ġvar ies
Ġcorrid or
Cl oud
Ġcommand ers
G I
Ġconsider ations
do ors
Ġstory telling
ans on
ĠGu ild
Ġstrateg ist
Ġafter ward
ĠTreat y
Ġsl ots
Ġbe e
ĠMcC l
Ġsuccess es
Ġcool er
it an
Ġcons oles
Ġpur ported
em ption
W ant
Ġwas hed
Ġperce ive
Ġlo vers
M ult
or p
Ġcompet itions
du llah
Ġsl am
Ġcas ino
Ġout reach
Ġworks hop
Ġfemin ists
ĠQu arter
Ġstruct ured
Ġment or
Ġreact ed
Ġsex y
ĠGOOD MAN
ĠL ux
ĠD ale
Ġs ore
Ġexem pl
ĠN as
Ñ ħ
Ġav iation
Ġco vert
Ġb og
at ivity
Ġunlaw ful
Ġshut tle
Ġmach inery
ĠAdvent ure
Ġmos qu
Ġarm ies
Ġp ixel
Ġcr ush
S aturday
respons ible
re v
ĠCon cer
d ogs
Ġth a
Ġst ew
Ġcolor ful
Ġproject ion
With in
Ġdebut ed
ĠF ine
ard on
Ġcompl ications
P T
Ġout law
op hers
Ġpool s
Ġmor ally
Ġrev ision
ĠO mar
Ġtrans mitted
Ġdis abilities
Ġmin us
che m
Ġmax im
Ġel imination
ĠAven gers
Ġconnect s
ĠReyn olds
ĠChampionship s
Ġprest igious
yl on
Ġprompt ly
h it
D an
ĠCon n
Ġdiscover ing
ĠBro ck
ic ans
ĠM t
is ite
ĠD h
Ġpres cribed
Ġinsure rs
ĠL ogan
Ġsuff ers
ĠH ood
ĠT roy
Ġignor ant
OW N
ĠTrans it
Ġse as
ĠPolit ico
hol m
Ġan nex
Ġsystem ic
Ġcontro llers
Ġacceler ate
ri ad
Ġmis dem
ĠThe resa
se at
Ġuniform s
Ġmag net
IC O
e ur
ĠW el
ĠD iet
ĠL amb
ĠA verage
Ġvis ibility
C ourt
it ational
L ead
Ġeleg ant
Ġtime ly
Ġl ur
r ina
Ġc ried
im en
ri um
M el
ĠL ag
Ġsing ular
ĠPar ad
Ġnotice able
Ġweigh ing
! ).
M ORE
ĠN FC
Ġp ap
ar ak
ĠAlf red
d et
Ġparad igm
year s
Ġdeb ated
For ce
Ġinterrupt ed
iv ia
Ġyell ing
Ġpr ag
> </
Ġball oon
Ġexc av
h n
m ajor
Ġbrows ers
Add ed
Ġhum ili
Ġhe ck
Ġ1 11
af ort
Ġgri ev
Al ong
be cca
Ġbless ing
Ġl ining
Ġstun ned
ĠF ighter
Ġneighbour s
ĠD ash
Ġphr ases
Ġwrong doing
ract ion
Ġwar rior
g em
Ġemb od
Ġalarm ing
ĠThe ater
Ġexclus ion
Ġincon ven
Ġaccept s
r ill
Ġk its
ĠSt age
Ġmat rix
Ġa kin
aun ting
Ġsw orn
ĠEm ma
vert ising
Ġfool ish
US E
N or
h l
Res earchers
Ġadvoc ating
ĠS ak
Sh ow
Ġcont ests
ĠTrans port
ĠB uc
ĠAut om
Ġcort ex
ĠSpr int
Ġimpro ves
Ġub iqu
Ġrecru its
Ġmer ger
Ġhost age
ĠR ange
Ġunw anted
ĠLear ning
Ġmeth ane
ick er
ĠB rent
12 3
Ð ¹
ĠAlz heimer
Ġun just
Ġhold er
ĠF ortunately
Ġbl aming
Ġbed s
Ġcomment ators
Ġunsuccess ful
Ġmil estone
Ġg ad
ĠM aterial
Ġg odd
Ġr ust
Ġingred ient
ĠPost ed
ian i
ĠFre eman
me ga
ĠP OL
red ited
Ġembarrass ed
B ern
conf ig
Th ings
Ġrenown ed
Ġdiscuss es
Ġperform ers
ĠK on
Ġth y
ĠÃ ®
d id
Ġbr acket
ĠLGBT Q
Ġb ore
ry s
Ġtoler ate
Ġl end
ipp le
Ġver se
Ġunpredict able
Ġspecific s
E p
Republic an
ĠTh om
Ġo ct
viol ent
f ax
ĠMor oc
Ġprejud ice
Ġappropri ately
Ġmax imize
ĠP le
St op
Ġbarg ain
Ġpip es
re ra
Ġnum er
Ġresist ant
Ġfin ishes
Ġded ication
Ġrel ates
Ġper secution
Ġrecogn izing
Ġband width
Ġcl oth
Ġ19 44
he res
Ġdest inations
J S
ĠE arl
Phot os
ĠU g
ish a
Ġsm ok
Ġtw isted
ĠC ele
Ġcondition ing
ãģ §
Ġmis ogyn
H op
B Y
Ġappet ite
ĠM ik
ag ne
Ġrep ay
Ġthought ful
li ber
id av
work ers
Ġenjoy able
ĠImp act
ri ents
Ġentire ty
ine ment
place ment
Ġpot atoes
Ġmar athon
An n
Ġcolon ies
Ġadop ting
ĠC able
x on
com fort
B D
Ġchampionship s
Ġbund le
c ision
Ġid iot
Ġobst acle
ĠD uterte
e pt
Ġas c
Ġsens es
man y
ist ical
Ġcr ises
ĠGlas gow
o an
ownt own
ĠBe gin
Ġric hest
L ive
ãģ ¦
with out
o ids
ĠSing le
al iation
az er
" [
Ġl ament
Ġgun man
ĠI gn
ĠK ell
Ġdiam ond
ocaly pse
Ġnomine es
he ed
Ġprohib it
red dit
Ġartif acts
ang led
Ġtw ent
Ġb acon
m ut
Ġd y
Ġste alth
an ity
Jo in
Ġextrem ism
ĠJ upiter
Th omas
Ġright ly
Ġan at
Ġcell ular
ĠB uch
Ġp ave
Ġ- --
OU T
Ġbrut ality
Ġcritic ize
Ġimp ly
Ġround ed
Ġcap ita
ĠFR OM
Ġa u
Ġenthusi asts
ĠM ets
br and
Ġexceed ed
D am
ĠR BI
ĠNot re
Ġl over
Ġinfer ior
Ġgar lic
ish ment
um i
U RE
G H
ĠWe instein
Ġcle arer
Ġcon ceived
C ode
Ġrefere e
ĠH app
ĠâĨ Ĵ
Ġv ivid
Ġatt ain
ĠIns urance
ci pl
Ġfat igue
Ġacknowled ges
ĠC rypt
Ġinaug ural
ĠCont act
ov ak
Ġh over
ĠSer b
Ġmar ched
Ġcul min
Ġbar red
ĠBlu etooth
ĠI van
ĠBou levard
C T
com mon
Ġthe sis
Ġe Bay
udd enly
Ġdisplay ing
Ġins ulin
Ġdesp air
on ial
al ion
ĠAng els
Ġoff ences
av an
Ġdis respect
ric anes
b ial
ĠFil ip
Ġdetail ing
Ġdown ward
Ġvoc als
Ġre per
gu ided
ĠB ever
q l
Ġt il
it ives
ĠSu z
ĠT E
ched el
Ġl ag
Ġcy l
Ġex otic
Ġvac ant
Ġmot ives
oci ated
Ġfur ious
Ġinaccur ate
n ings
Ġpreval ence
ĠRep orts
load ed
Ġillust ration
ion age
Ġgr ind
Ġbroadcast ing
c ig
W R
ol ith
Ġprogram mes
Ġcr ust
ĠT weet
Ð ¿
ĠT ournament
Ġoccup y
Ġdis asters
ĠSol id
g mail
b led
p aper
Ġgrad uation
Ġfuel ed
ĠD ana
at ism
Ġkn ocking
Ġsol ic
Ġhasht ag
Ġout field
Ġman kind
ĠM oto
Ġmir acle
ĠMor rison
ur st
200 1
in el
ev al
Get ting
Ġtyp ing
Ġprivile ges
ĠSe oul
Ġg rit
ĠBas ically
f light
Ġsur g
Ġrecogn izes
Ġsing les
Ġmet adata
Ġpreval ent
ĠL ith
Ġprolong ed
Ġmer its
im ag
ĠSat urn
ĠH alo
F ind
oc o
Ġpl asma
Ġnot ifications
ĠO t
Ġcorner back
Ġfr acking
Ġaccommod ation
ĠLeg ends
ĠHait i
Ġdet r
ĠV o
ĠA RE
Ġbl essed
Ġinst itute
ĠT ap
Ġde er
Republic ans
ĠA A
Ġphilos opher
Ġreb oot
ev ent
Ġun m
C amp
Ġbig ot
ĠA V
ic able
Ġc ite
! âĢĻ
Ġre dd
ĠPr adesh
ĠF a
ãģ Ł
ĠE N
O per
Ġcap ac
Ġvol can
ĠBurn s
ãģ ¨
ĠRom ania
ĠSt ream
Cong ress
ĠJul ia
Ġcon qu
Ġunst able
ĠMill enn
ĠGonz alez
J ul
ĠFrank en
Ġball istic
ld a
ex cept
Ġalt itude
ress es
vas ive
Ġloc ks
ters on
ĠI CE
Ġprogram mers
Ġseason al
Ġsymp ath
Ġ10 80
D en
Ġrest art
m ass
Ġmer cy
Ġw ary
Ġp ixels
Ġinflu x
Ġpal m
Ġdil ig
Ġsne ak
10 5
ren ched
Ġprost itution
A round
Ġhead set
Ġexped ition
Ġsett lers
Ġrestrict ion
r ab
Ġwip ed
ĠPC s
ch anging
Ġer ad
Ġ" [
ĠN ode
Ġm s
Ġexem ption
ind a
et ed
Ġst ems
Ġshe lls
Ġph osph
ixt y
ĠSU V
c ot
Ġcert ification
D aniel
oy s
ĠS ales
nder ing
Ġ19 00
Ġv est
Ġgr an
ie u
Ġdefe ating
Ġstory line
Ġstr ains
ount y
it ches
am el
Ġsm arter
ĠOr acle
ĠM aps
Ġcoun cill
ĠPer l
ĠC aval
Ġacqu iring
Ġpun ct
isp here
Ġd ilem
st atic
achel or
Ġaggreg ate
ĠElect ronic
ĠTurn bull
ĠC el
ic ates
ĠPers ian
Ġar che
c ourse
200 4
Ġter rific
ah ar
w ere
ĠSe bast
ĠEd inburgh
Al most
port ing
Ġthr one
Ġcrack ed
ic ularly
Ġwarr ants
ĠStart ing
Ġintention al
ĠH orse
bl ue
ĠSN P
Ġcoc onut
ĠBet a
ĠE ST
ĠKn icks
ĠO kay
Ġc raz
Ġupd ating
Ġfreedom s
Ġpers pectives
lic t
ĠFif th
ĠSpace X
r t
ĠSch midt
ĠL ed
Ġlisten ers
ĠR ift
Ġskept icism
ĠWH O
ĠHy per
ĠN ak
ick y
Ġcomb ines
Mc C
Ġaut op
ĠSher man
Nob ody
ĠPl ant
ĠProgress ive
Ġtr aces
Fr iday
Ġforb idden
b usiness
Ex per
Ġthere after
ĠR hod
ĠR abb
Ġtun nels
ĠSpe aking
V ery
Rec ently
P rodu
Ġident ifies
Ġf ist
Ġunf amiliar
Ġrecomm ends
Ġgr in
ĠI stanbul
ĠU pper
ight y
ĠL iter
Ġhost ility
ĠLind a
ess ors
ĠEver ton
Ġpr inter
Ġpred ators
ĠJ eb
ĠSadd am
s il
Ġru ined
Ġintrodu ces
int o
Ġ __
Ġd od
ĠM iles
ĠAub urn
ĠL P
i ov
itness es
Ġmin eral
Ġ} ,
ĠCore y
af ia
S O
ĠâĢ ĭ
Ġdet on
Ġhous ed
S B
Ġche ating
t z
sh ould
ĠS ame
Ġmult ip
w ave
Ġt apped
Ġsimpl icity
ĠR ugby
Ġcirc ular
ĠW ake
Ġst yl
ĠC e
Ġbenef ited
Ġfilm maker
Ġab st
E lect
Val ue
ĠPrinc eton
ĠP os
Ġsanct uary
Ġpaper work
ĠRoll ing
Ġvol atile
ĠOw en
atin um
g rowing
Ġtr action
Ġ17 0
ok a
Ġsh ade
Ġchar itable
Ġsoc io
ĠPri x
Ġstatist ically
cast ing
Ġrequest ing
Ġheav ier
Ġwatch dog
ĠO ri
ĠH i
spe aking
ing ham
Ġabsor bed
Ġreg ain
Ġoff ended
ãģ ª
ĠTill erson
Ġv ine
ĠL ay
ĠEmb assy
N OT
ĠBas ic
ign ment
Ġcriticism s
Ġter ribly
ia o
ent e
Ġbom ber
sequ ently
Ġsh aping
Ġhealth ier
Ġgoal keeper
Ġun real
amm ad
Ġbe ard
Ġj ungle
Ġhy ster
ĠSt ef
ink le
AN K
Ġcoordin ate
Ġg le
so ver
ĠTim othy
pr im
Ġindu ced
ĠP ist
Ġadvoc ated
ĠBr is
Ġme ga
op ers
Ġj ournals
p i
Ġso ap
ĠE rik
ire ction
ĠVictor ian
âĢĿ ;
Ġlower ing
Ġbro ker
ĠC lear
ott esville
Ġbureaucr acy
ĠFried man
ount ain
Ġund is
Pac ific
ĠExper ience
ĠJ ill
Ġuns afe
in qu
bal ance
ĠLe Bron
% ).
Ġrec ons
ĠPan ama
y ers
T urn
Ġaff idav
Pl an
est ine
ed u
Ġfree zing
or ie
ĠAl ways
Ġfright ening
Ġborrow ed
Ġillust rates
ĠP okemon
Ġsl og
Ġtravel ers
er k
av ior
fund ing
th ouse
mod ern
ĠMa o
Ġrespons ive
ed in
) -
Ġfl ame
Ġannounce ments
ĠSt o
Ġhand c
Ġdef ect
Ġanaly zing
Ġst ip
ograph ics
Ġunder going
Ġden ounced
Ġend ured
ĠAust rian
Pr int
bl ood
ĠHaw ks
ĠK umar
Ġrig orous
Ġwa ist
Ġsquee ze
Ġ **
ĠAnn ual
P ay
Ġposition ing
ĠM ig
C rit
Ġsuper visor
Ġport al
rat ives
S ave
Ġclean er
ĠSim mons
Ġrec laim
ng th
om ical
ish ops
Ġlength s
ĠScient ists
ĠC atherine
cent er
Ġterr ified
Ġunch anged
Ġf ren
Ġsch izophren
gg er
Ġb ast
Ġc ows
ill es
AA AA
Ġreferen ced
as is
ĠN J
Ġorche st
T ech
in ters
av in
Ġantibiot ics
Ġsuper b
Ġaccess ories
Ġreb uilding
Ġobject ion
Ġton nes
Ġlog in
ĠMe yer
ĠCris is
Ġwh it
Ġsub po
Add itionally
ãĤ ĭ
Ġs perm
or f
Ġinfring ement
ĠE isen
ĠG ross
s rc
Ġtake over
Ġf usion
Ġdece ased
ĠAud io
Ġbal ancing
Ġ20 30
ster dam
Ġbeaut ifully
ĠT i
v ity
Ġpe cul
Ġsh red
t v
ĠM az
Ġcommunic ating
âĢ ²
Ġmark er
oles ter
b ard
ĠPartners hip
ĠC ities
keep ers
Ġcar pet
ĠDO J
ĠON E
Be yond
Ġbron ze
squ are
Ġinv iting
g ie
Ġreg imes
Ġmerchand ise
Ġsc aling
Ġo live
ĠFr ame
ĠR uth
anc ers
ins pired
k ara
Ġsubmar ine
ĠB urg
ond o
ĠCitiz en
Ġcourt room
Ġappar atus
Ġp ine
U r
Ġswit ches
Ġins ider
Ġcooper ative
Ġproud ly
Ġl aughter
ĠT W
er m
Ġend uring
C y
Ġindic ators
Ġst unt
Ġgovern ors
Ġl aps
Ġpl at
Bel ow
Ġpsych ologist
ĠG y
Ġdevelop s
18 0
ĠDam age
spons ored
m g
Ġdiplom acy
Ġanticip ate
Wind ows
we ather
Ġ} );
Ġint ric
Ġexc lude
ĠU nd
Ġback yard
ett ings
rah im
Ġmodel ing
Im agine
act ed
I AL
Ġn avy
ĠT C
Ġv intage
pt ive
Ġinterrog ation
rest rial
ĠD ani
ar ium
ot ers
R edd
K im
Ġimper ative
John son
Ġref ined
F in
H E
ĠCourt esy
Ġconcess ions
Ġnational s
Ġnort heast
ĠS aw
ill on
Ġph ases
Ġdevast ated
l ived
Ġref riger
ĠExpl orer
et c
pect or
Ġemail ed
Ġth under
us ers
Ġde af
b uster
Ġunus ually
ĠH ernandez
Ġhard core
Ġexp on
Ġ11 5
Ġengine ered
ĠR apt
l ings
F OR
ĠGr ad
ĠEvery body
ĠSter ling
ĠStar bucks
Ġback drop
Ġspecial ists
ĠH arm
w s
Ġwar mer
Ġinterf aces
Ġfav ors
gg ie
Ġa rose
s ided
Ġf ost
on so
com plete
Ġagree ing
Ġcell phone
oss ibly
Ġgall ons
Ġauthent ication
ĠNY PD
ĠDet ails
Ġconcept ion
Ġs idelines
ĠGit Hub
H R
Ġ< <
P ict
Ġrival ry
ĠS hip
ram id
Ġend ure
Ġundert aken
M R
ĠDay ton
Ġl av
Ġwar riors
Ġcha otic
ĠV ince
Add itional
let te
pl ates
N ovember
Ġle mon
Ġp and
Ġinnov ations
ĠLeg acy
ĠC ards
Ġvis as
M T
B T
Ġsn apped
ĠMurd och
ĠV ision
Ġdetect ives
ĠCelt ics
H uman
Ġt ant
ĠCo ver
Ġfor fe
Ġtour ing
H i
Ġmir rors
Ġdiet ary
B P
Ġpig s
st atus
ĠLet ter
ĠPl aza
Ġret aliation
Ġcrypt o
ĠC ad
Ġfact o
Ġep it
G roup
Ġd iving
ĠJ et
Ġpredict ing
ac s
f ed
os er
Ġenter prises
Ġch ill
Ġpos ing
ĠDev il
Ġbet ting
Ġbrand ed
ĠSask at
Ġattract ing
Ġastronaut s
Ġdepend ence
ĠEl ite
Ġposs essed
Ġh orn
Ġcritic izing
ĠJul ie
Ġvir uses
Ġvisit or
Ġcontam ination
Ġcontract ed
Ġtheir s
Ġreiter ated
Brit ish
b ling
ĠS end
ĠCl are
ĠSp icer
Ġun a
Ġprop he
Ġdump ed
Ġs ights
ĠR iley
Ġ24 0
ern ame
25 6
Ġprogram mer
u ador
Ġmet als
ĠSim ple
Ġf og
Ġconfir ming
ĠN L
u u
Ġst ellar
Ġ19 41
Ġhapp ier
Ġsubsid iary
Ġb end
Ġcompens ate
Res p
Ġele ven
Le ague
Ġrig id
Ġrest ing
w en
Ġpri zes
Ġchar ities
ĠHon or
Ġvis ually
ĠN ice
Ġec ological
c in
Ġobser ver
Ġunbeliev able
Ġdeleg ate
ot on
ĠC ork
Ġcore s
ĠJ edi
ĠCon way
Ġnodd ed
Ġnegative ly
ĠS tern
Ġalleg ation
Ġrad ically
ĠSh ane
Ġb ilateral
Ġtack ling
ĠMan uel
Other s
H ard
ab we
Ġat oms
ĠP ain
ra ve
ĠAb dullah
Ġclear ance
Ġur gency
Ġmicro phone
10 4
Ġstretch ing
Ġpe an
ĠScient ology
Ġw ipe
Ġque er
ĠIS IL
ff iti
Ġr im
et itive
ĠCom ment
Ġdepend ency
ĠRich ards
ĠC rist
Ġren amed
H as
all ah
Ġbroadc aster
Ġvolt age
Ġbl ows
Ġaut umn
Ġlau nd
ĠPen insula
ĠChe v
Å ¾
ick ers
be h
op ed
ĠUlt imately
Ġassess ments
ĠVi enna
ĠLe o
P E
Ġpath way
ay an
Ġrep airs
Ġvolunt arily
he e
ĠG ir
M ex
rec ord
ices ter
Ġv om
! '
K evin
De cember
Ġd ull
19 90
Ġre ef
ate l
IS A
Ġs oda
Ġr anged
Ġobserv ing
Ġrev ival
200 3
Ġdeter mines
Ġburn s
be e
ĠWalk ing
Ġstret ches
pl aced
Ġ19 47
S und
Ġro de
m ult
P o
Ġfre ak
ĠE gg
Ġce ment
en berg
mo il
Ġs rc
Ġdict ator
Ġd un
Ġst al
verse ly
a ft
Ġwas hing
oster one
ĠK ob
IS S
W il
Ġl b
cre ate
ĠAndre a
Ġar senal
Ġcont end
p arent
OR Y
ĠH erman
Ġb isexual
imb abwe
Ġall ocation
le ys
ump ing
ĠC opy
duct ed
Ġlone ly
ĠMan afort
ĠAd elaide
Bit coin
ĠBl izzard
ple asant
od s
,âĢĻ âĢĻ
Ġdistract ion
g ro
Ġcontam inated
Ġcr unch
Ġto e
Ġ( .
Ġl ob
R ay
ĠPro duction
Ġvan illa
Ġempir ical
Ġre he
Ġselect ive
Ġinst ability
fol k
Ġje ans
ĠB ristol
Ġshort s
Ġey eb
ĠGr ass
ans ing
K en
Ġenroll ment
ĠGil bert
Ġarch ives
Ġnot ices
ore st
any on
V ol
l ins
Ġpen al
ĠBren nan
ĠMap le
Ġg it
Ġacc use
Ġl ou
Ġexplos ions
Ġtr aced
Ch ief
Ġdem ise
ĠH ogan
Ġa ven
land er
Ġ10 4
ĠFood s
Ġside walk
Ġdo omed
) ?
W in
Ġfest ivals
d oc
B esides
em a
pro ject
Ġaw aken
ĠCent ers
ĠJ azz
Ġcapt ures
or ian
ĠCoff ee
Ġd well
Ġdub ious
J ones
Ad am
ro ot
D ig
Ġrob otic
Ġdownload s
ort ium
Up on
Ġout dated
20 18
Ġshel ters
Ġrese mble
ĠBudd ha
P ublished
S W
ĠF act
Ġatt achment
Ġsurpr ises
ĠRe play
E nt
Ġcontent ious
Ġspir al
Ġ à¤
Ġshut ting
F inal
in vest
Ġkidn apped
Ġple as
ĠCom edy
Ġrelent less
ĠD ell
Ġshr ink
Qu ery
Ġown ing
R ock
We ek
Ġye ast
ĠMir ror
I ll
E ric
Ġacceler ated
Ġsever ity
Ġru ins
ess a
Ġlaugh s
L ou
Ġstar red
Ġinspect or
Ġradio active
in ational
Ġwithd rew
B uild
Ġup held
ĠBrend an
Ġm arsh
Ġpour ing
ant ry
Ġcateg or
ĠN an
d in
ĠT aking
ĠBru ins
Ġcompet ent
Ġhun ter
S ar
ĠS oph
OL L
ĠKush ner
ĠResp ons
Ġimp air
ĠCraw ford
Ġdisadvant age
health y
Ġrepl icate
Ġtw ins
ĠMoh amed
Ġret ros
c ry
ĠVe h
ĠRock ets
c ro
Ġgood ness
Ġhorm one
abl ished
ĠReg ardless
Ġcompat ibility
Ġpar an
ĠUs ers
Ġdom ains
ĠJud iciary
w ife
Ġthe rape
ĠT rent
Ġpres ervation
Ġp ulse
Ġscreens hot
ĠMerc ury
Ġreward ing
Ġrad ius
Ġchar m
Ġdepend encies
Ġs om
Ġin ad
Ġacceler ation
Ġreact ors
ĠA be
Ġf ra
11 5
I Z
Ġprim itive
Ġbull shit
iv able
Ġche ek
Ġopio id
Ġj ealous
t imes
Ġpo inter
ĠTh an
p atch
Ġill icit
Ġher b
if ted
ĠSch ultz
Ġcook ie
Ġtransl ates
Ġmer ge
ĠAP Is
Ġhypot hes
ĠSky pe
ĠB ass
Ġmetaph or
Ġappoint ments
ĠInvest ment
ĠInvest igation
Ġanticip ation
ãģ ¯
,âĢĻ âĢĿ
Ġex terior
Ġpal ace
AC A
Ġs ack
ĠChe ney
Ġtoss ed
ett i
Ġn urt
Ġmod ifications
ĠB un
ĠDec l
Ġcos mic
Ġsustain ability
Ġreminis cent
Ġt am
w ic
ĠAct ive
Ġmamm als
ĠWeb b
Ġext rad
Ġpot ato
Ġall ied
Ġsell er
Ġh ollow
it em
ĠJackson ville
ent ric
ĠDis covery
ĠPhil os
sec ure
M ur
over ty
Ġmerch ants
More over
isc her
Ġv andal
ĠMe et
Ġiron ic
Ġer r
ĠTw enty
ĠQual ity
ĠK ot
ax ies
ĠCharl ottesville
elect ed
ĠB TC
PD F
Ġsal ad
Ġjuven ile
f alls
Ġseiz ure
ac a
Ġmyth s
S omething
Ġins erted
Ġl bs
Ġch uck
Ġr apper
( $
Ġtrain er
Ġfeas ible
Ġv apor
Ġjud ging
Ð ±
\ "
Ġwithd rawn
Ġt ally
ĠEmir ates
Jan uary
ĠS kin
m atch
Ġout spoken
Ġdiscover ies
Ġposs essions
b ag
ĠBeh ind
bor o
ien cies
Ġm asks
Ġathe ists
Ġineff ective
iss an
ĠF lickr
Ġsex ist
Ġpres erving
Ġle aning
Bet ween
Ġembr acing
Ġal lev
it us
ĠPer fect
read ing
Ġpo pped
t ag
Ġneuro log
Ġjust ices
c ross
Ġbomb ings
Ġur ine
ĠC raft
V ict
Ġconcept ual
larg est
ident ally
Ġevac uated
ĠConserv ation
ush i
Ġcongress man
ĠAl ger
ĠL ance
ÑĤ Ð¾
Ġle aking
Ġw ires
aw ays
Ch inese
p sy
Ġfr amed
C raft
c ity
ĠK iss
Ġcan cell
ĠB ened
v ideo
ĠHay es
ĠP E
ĠB ert
Ġup wards
ĠR F
ĠPerson al
st y
Le vel
Ġcont ributes
ĠG ul
Ġinf ants
Ġbr ig
Ġpret ending
Ġfore nsic
ĠMons anto
Ġnegoti ation
c ould
ĠObserv atory
Ġredu nd
Ġcr ashing
Ġha iled
Ġv ault
Ġuns ure
Ġ4 50
Ġcost umes
ĠD LC
Ġdis se
Ġpart ition
Ġmy riad
oun ge
^ ^
ĠSim ilar
ĠBeat les
E ver
00 3
f ired
ĠBr anch
Ġviol ates
ĠZimmer man
omed ay
ĠSpe cifically
Ġp ier
Ġprosec ute
Ġalleg ing
Ġper tain
A cc
ucc i
ĠÂ ·
p arents
ĠBeng als
ĠScient ific
ĠG rowth
count ry
ĠF ernand
Ġpen cil
ĠAr row
abul ary
ĠM T
D i
ĠJ SON
Ġsuper st
Ġ195 9
Ġch amp
Ġr uth
uff er
ĠSc ore
Ġv inyl
Ġrem ed
Ġdoub les
Ġdisappear ance
Ġcur se
Ġlun ar
Ġr ack
s ch
H am
Ġshoot s
Ġdirect ive
ĠZ ucker
ĠTro phy
ob ject
Feb ruary
ĠH ag
Ġimm ort
Ġso ber
K it
Ġforecast s
ĠW u
ĠSp art
Ġcost ing
Ġneed le
he ard
at ured
Ġna ive
Ġo lig
ĠMy ster
Ġcomp ares
Ġtur moil
Ġhop eless
m or
ĠPir ates
Ġtrig gers
f act
own s
le aning
Ġveget able
ĠB oss
ĠMon ica
Ġsmooth ly
c ulture
Ġoff spring
Ġdecl ines
Se ason
J ew
d oes
Ġnar ratives
ĠWhats App
Islam ic
ĠSh ot
ĠL ud
ĠB irth
Ġhun ters
M a
Ġbit coins
Î µ
ĠR S
Ġun armed
k owski
Ġres olutions
ĠProf essional
Ġper ceptions
Ġind o
ĠSu ccess
o il
Ġmechan ic
Ġstim ulation
ĠMem ory
ĠN ike
Ġg aze
Ġvalid ity
ĠC ord
" ]
Ġdimin ished
Ġsp ouse
Ġiter ation
ĠSouth west
Ġsex ism
c led
Ġr ansom
Ġfore front
Ġash amed
em y
Supp ort
ĠÐ º
ĠF resh
Ġcop ied
ĠGen esis
ĠJo in
Ġacknowled ging
Ġt outed
Ġe man
Ġpod ium
ĠFl oyd
Ġp ensions
ĠE asy
Ġfalse ly
c od
Ult imately
c f
Ġairst rikes
Ġinter val
ĠAd obe
Ġdig its
Ġnarrow ly
Ġdecentral ized
ustom ed
Ġgluc ose
Ġembarrass ment
Ġexp ired
ĠSy n
he id
Ġor ph
is ure
Ġexch anged
Ġfrequ encies
ĠJud a
ĠRe ce
ĠGe off
Ġsle pt
Ġre jo
Ġground ed
Ġinto x
Ġ19 42
Ġperfect ion
En ter
Ġ Ã©
Ġhypot hetical
Ġmilit ias
Ġnorth west
ĠE instein
Semit ism
Ġgovern ed
c ified
part isan
Ġdiscont in
em er
f alse
ĠTer rit
Ġrad i
ĠTr ack
Ġdefe ats
Ġstreng thening
Ġaccess ing
Ġcelebr ations
ĠEx cept
ĠC ros
Ġmel ting
Ġair lines
reg or
ĠR oute
Ġregul ator
Ġrecept or
n ull
ĠD ot
ĠCom ing
Ġemploy s
ĠB og
D eb
ĠMid west
Ġfert ility
ve red
Ġsuccess ion
f ight
S n
l ia
A BC
ĠUs ually
Ġ19 39
l ate
ĠHe ath
ob ic
W ow
Ġadoles c
Ġcomp uls
Ġ18 00
Ġtop s
Un iversity
Ġst acked
ĠRec ently
ret urn
Ġw anna
ĠC er
ĠVal ve
Ġrel iance
our ing
ĠF REE
b ands
Ä Ł
ĠLa unch
ĠBris bane
board ing
ĠNational s
Ġ10 2
Ġpo orest
Ġde ported
Ġmark ers
Cre ate
ĠBah rain
Ġleft ist
C ard
Ġreal ization
J osh
Ġbol ster
ĠCon c
C ustom
Pr ime
Ġe cc
ĠKind le
ol ia
ĠP v
ot he
Ġdo i
be fore
ĠInd ividual
Ġcollabor ative
Ġspat ial
Ġh alls
Dem ocrats
ĠM ead
Ġtax ation
Ġretrie ve
Ġdepth s
Ġdisg usting
ex pl
Ġrele vance
AN G
right s
Ġvalid ation
F rench
am ic
ul atory
Ġgif ted
h ops
Ġdis charge
Ġsuper vision
ĠE R
Ġvers atile
Ġun cover
ĠP ep
c am
ĠDav ies
Ġperpet rators
Ġtang ible
Through out
ĠB row
m ails
s cient
Ġoccur rence
Ġmiser able
art en
ĠLeban ese
it ating
ĠAn cient
Am azon
Ġdivor ced
D D
ĠCle arly
Ġintr ins
els en
Ġsp ine
ĠW it
Ġextract ed
Ġmiss es
ĠUlt ra
Ġadequ ately
ĠC ertainly
Top ics
qu arter
ĠEv olution
h on
Ġcreep y
ĠDev ils
Ġstamp s
ĠKenn eth
S at
Ġmeaning less
Ġelev ator
iv o
Ġsusp end
Ġresearch ing
Ġg y
N ick
L ee
open h
t ier
Ġstake holders
Ġun ite
C redit
Ġblast ed
Ġp ent
ĠBald win
Ġaccum ulated
S ervice
AT A
Y ear
Ġrefres hing
ĠAny thing
Ġd os
Ġclean ed
Ġdiplom at
w ire
re z
ĠA part
ĠT as
Ġk et
ĠR are
,' "
ĠPro du
Ġâ Ķ
Ġb idding
W estern
Ġsurround ings
Ġmod ification
ĠQu ant
B rian
ĠC anyon
Ġlo oming
Ġwholes ale
Ġbom bers
ĠFl ag
em p
Ġindirect ly
Ġheight ened
ari at
rav ity
Ġanal ogy
ub a
Ġnight club
it ures
12 8
ĠIr ving
ĠAli en
Redd it
Ġreinfor ced
ĠBeng al
Ġinfant ry
Ġind oor
ĠPan el
ĠM int
Ġobs ess
Ġindef initely
ba um
t ar
ĠN est
ul ed
ĠJ azeera
Ġgrant ing
ĠKurd istan
Ġprint s
Ġt in
Ġaster oid
Ġthe ology
Ġg ays
Ġbi ography
Ġgl orious
ĠD uty
Ġcruel ty
id able
ĠA zer
Ġbelie vers
âĢ¦ ]
Ġutil ized
Ġstuff ed
em ade
Ġoverth row
Ġbr ass
Ġoper a
" );
ĠMon te
Ġeval uating
Ġunique ly
Ġchar ism
ĠS V
Ġillness es
ĠF ans
Ġcorrespond ence
Ġwith hold
Ġrelie ved
ĠAm sterdam
Ġdom ination
um bs
st ad
Ġsound ing
IN D
Ġhonest y
ĠBl ade
L ittle
Ġsc andals
List en
ĠK oh
Ġwe ights
Ġe ject
ĠE lder
Con nect
ant ine
C ast
ven ant
Ġspe cially
Ġgo alt
Ġtel escope
Mart in
Ġnut rients
ĠRes ults
is ans
L ocation
an ol
ĠVol ume
ass is
Ġplace bo
secut ors
Ġpast e
Ġcom r
ĠIS Ps
Ġramp ant
Ġlivest ock
n umber
Ġhook ed
ĠDar ren
Ġfut ures
ĠDes ert
Ġunder went
Ġdr ums
Ġdistract ed
ĠLe ad
Ġte asp
ring ton
Ġj oked
r ance
Ġreconst ruction
st ru
Ġs ang
I r
ĠSchne ider
ĠCh in
ĠCan ucks
S k
Ġdec ay
iv ism
Ġcur tain
Ġyell ed
Ġsh am
Ġelig ibility
Ġanarch ist
ĠEx xon
ĠB ast
ĠMount ains
10 3
ĠPart icip
Ġpro claim
Ġun pleasant
ig ators
G ov
Ġt apes
ĠCurt is
Yes terday
Ġcatast rophe
Ġfundra iser
ĠCamb od
ĠD ance
L in
. ;
Ġsh iny
Ġnom inations
Ġrep s
ĠN ate
Ġsuper market
ile aks
Ġconstitu ency
Ġhe ights
re ne
ĠR ew
Ġout raged
ĠP ars
Ġdisp ers
ĠB le
Ġsuscept ible
h ig
Ġk in
P an
ĠAbb as
Ġturn over
Ġstat istic
Ġpredict s
Ġfilm makers
Ġs ung
G ET
Ġresemb les
Ġdest abil
Ġgl ow
Ġoverl ap
Ġextract ion
L ess
ĠE L
ĠEc uador
a unch
Ġir rational
S orry
Ġhero ic
ĠW ine
ĠT ah
En large
Ġlike wise
Ð ³
im an
Ġsell ers
ĠZ oo
Ġgl oss
ĠB orn
D ue
ood y
j ah
Ġ ï
mark ed
en ment
Ġfraud ulent
Ġclos et
ĠCr us
C ore
f ill
Scient ists
Ġsign aling
iz a
ĠAr s
R om
ĠWy oming
Ġcl o
g ae
is ch
Ġweaken ed
ĠJ ur
Ġrec urring
Ġmit igate
ĠEv ents
Ġrecy cling
Ġe ch
qu et
ĠTr ain
Th ird
St r
met ry
Ġdest ined
Ġho ax
Ġinqu iries
lant ic
M aking
B rad
ĠD S
ĠTechn ologies
B ur
g age
Ġsurviv or
h un
P rior
oust ic
ot le
Ġ2 20
Ġcho pped
J es
Ġb un
ĠR ac
Sub ject
Ġh ats
ĠBuzz Feed
W ater
Ġbe aches
omet ric
ĠAR M
Ġbur ial
Ä «
ĠBlack Berry
Ġkid ney
pir acy
ĠP TS
ÑĢ Ðµ
ĠIll ust
Ġcease fire
Ġb unk
ĠProtest ant
c irc
10 2
Ġsect arian
ol iberal
Ġfore see
Ġjudge ment
ĠHass an
ĠF M
Ch icago
ĠW er
ĠS ah
l ich
ĠM oses
ĠCh arter
ang ular
Ġcan s
Ġfrag ments
ĠG ur
Ġcan vas
Ġid ol
Ġprop onents
ĠAnd ers
Ġforg ive
ĠO val
ĠAd mir
te chn
Ġdial og
Ġto dd
ĠO g
Ġrum or
ĠYOU R
Ġsc oop
Ġbu ys
r h
Ġsuper natural
ĠK ub
the med
Ex p
ĠS onic
ĠB il
Further more
Ġn as
Ġdi agram
ĠL il
Ġsab ot
ĠCol onel
ĠCan on
ĠM ist
sm all
Ġf aint
ĠStand ing
ris y
D O
ĠC AP
Ġsuprem acy
Ġex ile
id ate
Ġovert urned
Ġreg ression
ĠCh oice
Ġac ids
are ndra
Ġoper atives
200 2
Ġlung s
ĠAm anda
ĠG ri
Ġst ing
ĠP ra
Ġlif elong
Ġ ï¿½
ĠLike wise
P ER
Ġs outheast
ĠZ imbabwe
Ġmad ness
Ï Ħ
Ġende av
Ġconver ting
ĠLeg ion
ĠG E
ĠCl iff
ump ed
Ġsur geon
vention al
De ath
pl aces
Ġinter ceptions
Ġfranch ises
ĠMe ga
v able
Ġhel pless
S u
Ġphotograp hed
B er
ors che
Ġgrab bing
ĠJack ie
Ġab normal
ĠM illion
Ġw olves
Ġhead phones
ĠT M
ĠH ugh
ĠCoun sel
Pr ice
ĠV ir
st ill
ĠHel en
Ġbad ge
F ederal
per ing
ĠThrough out
Ġhon ors
Ġpund its
ĠTest ament
Ġworth while
Ġmilit ar
ex per
Ġsqu at
ĠInter view
ud s
s or
ĠP ierce
I B
Israel i
Ġf etch
ĠProv ince
qual ified
be y
Ġshr inking
Ġre print
ĠF ell
ĠC oy
d ue
Ġsl ap
Ġch ambers
Ġcomment ator
Ġl ith
Ġ å
ĠIm port
Ġtr ilogy
r ine
B at
Ġcouncil s
Ġkidn apping
olester ol
Ġpun ched
Ġ10 3
ĠD iaz
Ġcont enders
ĠCustom s
ĠSh ia
ĠN ear
L ondon
R ather
ĠPlan ning
R on
ĠIn qu
ĠPrem ium
ĠCl aire
ic idal
Ġheter osexual
Ġcr acks
â ĺ
Ġdraft ing
O ld
th y
bour g
ĠW orth
Ġst oring
Ġro gue
ĠD ucks
Ġsupp ression
Ġdiscipl inary
J UST
ph oto
ee le
oc hem
Ar ch
Ġspec ulate
Ġmar vel
Ġintermedi ate
ĠLyn n
Ġreb ound
ĠAdd itional
cho ice
ĠV P
ific ent
Ġmess y
Ġm aid
ĠRh ode
J ose
Ġcompos er
F oot
ĠUp dated
ush ima
ich i
Ġt enth
m ag
Ù Ī
Ġfair y
ĠV ote
Ġland sc
ĠRef uge
Ġsc outing
ave z
Ġfirm ware
f ocused
ĠRel igious
ĠMan ufact
Ġdis like
Ġauthor ization
Ġmult inational
Ġalign ment
ĠQuest ion
ĠViol ence
V e
A ri
Ġreconc iliation
ĠN OW
person al
Ġparent al
h ash
affe ine
ĠMy ers
Ġon set
Ġabund ant
ĠM oy
ĠG em
ed ience
ri o
ĠS ans
ĠV ita
D F
al ong
Ġch lor
ĠâĢ ķ
Ġre op
Ġblu eprint
ors i
ĠJohn s
ĠWat ers
qu in
Ġb ounds
Ġcock tail
Ġdesign ation
A ud
de ath
ĠRay mond
ĠM ate
icult ural
ic us
ĠD iff
ĠLink edIn
Ġdisagree ment
ON D
ul ators
ĠH av
Ġmin erals
Ġz oo
Ġinstruct or
Ġconting ent
Ġdis able
ĠWag ner
Ġpr ince
ĠEconom y
Ġd ock
Ġex h
et r
Ġc ant
Ġ195 8
Ġprepar ations
Ġ195 6
Ġimag in
IL E
Ġpop e
æ ľ
Ġst umbled
ĠO L
Ġtrans plant
og ene
he avy
h m
ĠC E
N P
Ġj ugg
Ġsuper star
ra red
ir teen
Ġf rog
Ġremark ed
Ġhint ed
Ġorganiz er
Ġcl usters
Cons ider
ablish ment
Ġunp aid
Ġaspir ations
Ġspl ash
Ġcountry side
Ġd ess
pl er
Ġpl ague
ĠH aven
im o
F un
Ġded uct
id ad
ol ation
Ġhard ship
ĠFort une
ĠD owntown
ĠTre vor
ĠIndust ries
Ġrehab ilitation
ĠRhod es
Donald Trump
Ġres h
Ġprotest ed
ĠGu inea
rict ed
f iction
Ġcertific ates
gr and
ĠI F
UC K
Ġsm ashed
ĠP ine
Ġm esh
Ġchance llor
ĠBre aking
N umber
D ist
Ġâ ī
ĠFro st
ĠYork er
Ġunt o
stand ard
Ġpo orer
p rop
Ġto mb
ott est
Ġmem br
W all
Ġcl one
Ġv oy
Ġver ification
ĠLab s
ĠIntern al
Ġedit ions
ef ined
ak is
Ġsc out
Ġsm oked
ĠPl atform
Ġbe lly
osp ace
st ro
ĠRe ich
Sund ay
ĠN W
Ġst d
Ġco herent
Ġprohib its
ĠV ern
c ule
Ġcross es
Ġpedest rians
Ġl akes
Ġcoll ar
Ġ19 17
ass ed
lin er
Ġpol ite
priv ate
Ġg room
Ġest e
Ġmicro bi
u ilt
Ġsol itary
im ation
On line
Ġdictators hip
ĠKore ans
yr us
Ġpsy chedel
pher d
ĠRe venue
Ġ Ø§ÙĦ
Ġco erc
Ġaccomplish ments
ĠRe becca
ott i
$ $
ĠR ating
Ġback pack
ĠSaf e
ĠF ury
Calif ornia
ĠJ ak
Ġa ka
wh y
Ġoff ender
udd y
a verage
Ġo mn
ĠÂ Ĺ
ĠBur ton
ĠE lementary
Ġap ost
Ġpecul iar
Ġb ark
Ġlaw maker
Ġgal axies
Ġapp les
ĠRe y
Ġret ention
10 9
Ġrep ression
Ġric her
if ax
kins on
Ġcler k
import ant
Ġunders c
Ġrepl ies
w ild
Ġan th
ĠFor ward
Ġreject ing
Ġinstall ment
Ġsouth west
ger ald
ĠR ol
Ġunanim ously
OU ND
bel ief
ĠV ers
Ġsett ling
Ġumb rella
Ġant it
ĠAt las
Ġprop oses
Ġsh attered
o it
ĠC W
ĠCom plex
ĠS leep
b ons
ĠKit chen
ĠAmeric as
11 1
Ġrev olt
ub s
at ri
Ġfr inge
ĠComp anies
ĠH uck
ĠBer ry
m is
Ġintimid ation
spe cial
ord e
Ġaccident al
C BC
Ġmanip ulated
ĠMot ion
Ġscan ning
art icle
Ġdr astic
Ġstap le
f acebook
Ġstri ve
ĠPer u
Ġdismiss al
Ġpar ole
art z
Ġdownload ing
Author ities
N early
ĠCON T
Ġtub es
Ġrational e
ĠH ond
Ġspecific ations
Ġplay ground
Ġun authorized
ĠRest aur
Ġo z
Ġ& &
ĠMour inho
Ġc ros
Ġs omeday
il ib
Ġaffidav it
Ġse gregation
Ġexc uses
Ġunl ocked
4 50
T M
Ġd ots
d eter
Ġmortg ages
Ġcraft ing
Ġshoot ers
ĠV as
ĠAng ular
b ai
ĠCard inal
Ġw inger
Ġcar ved
ĠL enn
Ġdisag reed
Ġsub missions
Ġm int
ĠLi u
ĠBar rett
Ġpersu aded
Ġaccus ation
eff icient
Ġd ur
Ġthank ful
C ould
Ġcirc ulated
Ġfall out
Ġbrows ing
Ġadjust ing
Ġcrus hing
Ġf ade
Ġinteract ing
L P
ĠW ald
Ġacc ustomed
rat t
Ġener get
ĠBor is
ĠStr ategy
ĠE ston
us ra
h ou
Ġcommod ities
ĠD re
Ġund en
Ġdoub ling
ĠAv iv
O pp
Ġopp oses
Ġsh arks
It em
Ġdraw ings
ab ase
ĠR unning
sc ill
Ġpro claimed
Eng lish
Ġb iblical
Ġost ens
Ġzomb ies
ĠPir ate
Ġ ion
s afe
W al
U t
Ġtelev ised
^ {
Ġresist ed
Ġrem edy
c p
Ġcomp ilation
J ournal
z an
Ġplag ued
ĠR SS
Ġw ax
ĠW on
arr ison
Ġlapt ops
Ġeffic acy
Ġp uls
Ġfreel ance
Ġdr ills
ĠR aspberry
real DonaldTrump
AC H
Ġdin osaurs
ĠR ise
ĠB ag
S ky
ãĤ Ĵ
Ġharm ony
Ġfant as
Ġch orus
ĠP am
ĠSt yle
Ġdifferent ial
Ġdilem ma
ang a
R ev
od ore
ĠS it
Ġstaff er
pro duction
Ġinnoc ence
Ġge ographic
Ġth riving
Pro v
ĠNe o
Ġtele com
ĠSyri ans
Ġske let
Ġmer ged
Ġlear ns
Ġcommun al
Ġpoison ing
ĠNort heast
ĠG iant
ĠZ omb
reat ment
Ġ19 43
coh olic
ĠNep al
Ġneg lected
ĠSalv ador
Ġ\ (
ĠS ugar
Ġ10 6
Ġover c
l ain
Ġimp art
Ġsu ing
Ġp anc
ĠConst itutional
Ġtherape utic
ĠM AR
ĠM Y
Ġst air
f uel
t arians
Ġad vertisements
Ġmight y
VID IA
NAS A
H H
Ġprogress ives
Ġsystem atically
Ġdecor ated
Ġbrew eries
ĠWar rior
ĠF eed
Ġdisreg ard
Ġarchitect ural
umn i
enz ie
T L
Ġl id
ĠO UT
Ġhe x
t arget
Ġemer ges
Ġweigh s
Ġprem ie
ell i
Ġswift ly
ro b
S ystem
f ashion
Ġcollect or
c ano
ĠT IME
ĠWhe eler
ĠDian e
ig ger
au f
ĠGall up
ĠLuck ily
Ġroll er
Ġadvert ised
ĠSy nd
ed a
um en
ari us
ab ee
Ġmon arch
ĠG olf
ass er
ĠRe ality
ĠFle et
Ġs aga
Ġreprodu ce
rel igious
Ġexpend iture
ĠPer iod
Ġsupp lier
ĠT ier
lling ton
Every body
c oll
ett es
ĠP ip
ĠS hen
Ġsurg ical
L ight
Ġsk ies
Ġne oc
Ġmisdem eanor
ast ics
Ġmon key
ĠK i
Ġthank ed
ĠMan it
ĠA FC
in j
Ġdest iny
Ġang el
Ġ195 4
ĠF ighting
rain e
Ġp ac
Ġscreens hots
or ously
Ġdown side
ĠLen in
Ġmaj ors
Ġ195 3
ĠT ool
ĠM aid
em on
Ġcl utch
Ġ7 50
Ch arl
ill as
gener al
ĠJuda ism
Ġanim ations
C am
ĠB oot
ĠÂ §
Ġtor rent
ĠD ocker
Ġcontin uation
Ġt iles
in as
Ġd amp
Ġrest ruct
Austral ia
Ġpat rons
ĠCong o
Ġver ge
ĠOff icers
the ir
Ġreserv ations
ĠT ag
ci um
Ġind icted
ĠEp ic
Prof essor
ĠS ikh
IN K
Ġlast s
Ġeven ly
Ġcomment ing
ĠSh awn
Ġlog istics
Ġnit rogen
ĠG ent
ĠMoh ammad
in th
Ġimpe achment
Ġmyth ology
ĠOut side
Ġmut ation
Ġindu ce
ĠN arendra
Ġubiqu itous
Ġgovernment al
ĠOff icials
ĠP owers
f aced
ĠEug ene
ĠP ale
ĠOs borne
en h
ĠRel igion
Ġtweet ing
ĠB rief
ij i
Ġc it
M ond
ĠL ar
S ad
ĠS orry
ĠW ave
Ġref resh
ran ch
Ġsc ans
amb urg
ĠFe el
Ġcyn ical
Mem bers
Ġs ized
ĠN olan
ern ick
ĠChurch ill
Ġexist ential
ĠI o
Ġschedul es
ĠT ay
l n
m t
Ġrem ake
Ġpolicy makers
M ont
Ġsp ider
ĠP rest
ĠÐ ´
Ġcontinu ity
Ġw aking
Ġf ried
Sec ret
Ġmed d
Ġtr aps
t urn
Ġco hes
) [
Ġevac uation
Ġgest ures
ĠLe icester
Any way
ĠS R
Ġgl uten
Ġstation ed
Ġann ot
Ġam ple
tr ade
ĠRock y
wart z
Ġenfor cing
ĠKat ie
Ġne p
ĠOrig inally
.âĢĿ )
Ġchar ming
ĠRC MP
anger ous
Le ft
Ġeleph ants
ist ence
Ġbrand ing
17 0
Ġt apping
educ ated
Ġ195 7
Ġconcer ts
Ġro oft
. /
Ġgar nered
Ġearn est
In side
b ishop
ĠR ising
ĠSt ark
ĠT SA
ox ic
Ġproc ure
Ġkill ers
Ġwas ting
Ġform idable
Ġf al
ĠNe igh
Ġreprodu ction
Ġplum met
ĠLe h
ĠW enger
ĠHig her
Ġbr ace
ĠH our
b c
ĠDem s
iv or
as io
Ġadvert isers
io let
Ġmed als
ĠWrit ing
ĠIS O
ĠSant os
Ġsal mon
ĠGu jar
r ice
g io
Ġblog gers
Ġdiv isive
f est
Ġign ores
ĠHung arian
Ġsw ear
Ġg ospel
Ġfasc ist
Ġst alled
Ġbu cks
y et
ld on
ĠC ert
Ġmarch ing
ĠL akes
edd y
Ġwild erness
Å Ł
ĠPh ase
r anking
Ġar ises
Ġpir acy
Ġburg l
Ġrev ive
ĠPun j
Ġir regular
Ġunanim ous
z ip
ĠV ic
Ġanten na
Ġserv ant
Ġcl oses
D ark
Ġacclaim ed
Ġdem ocrat
ĠHas kell
Ġst igma
10 7
Ġgrad ual
f ounded
Ġexagger ated
ĠHe in
ĠN PC
o i
ĠP RE
10 6
Ġh ug
Go vern
Ġt sun
Ġincap able
Ġsent iments
Er ror
Ġc ough
ĠSav age
ĠBay ern
M ary
ĠVen us
Ġsur real
Start ing
gr aded
pro ved
Ġdesc ended
ĠK ur
d ies
Ġdem ons
gu y
Ġgard ens
ĠF X
ĠRes earchers
ott a
Ġdisrupt ive
ĠF argo
Ġox id
ĠMed ium
Ġb ree
f ires
ĠN iet
Ġy a
m ove
ĠMult i
ET A
Ġref rain
product ive
ĠNew man
ody nam
un ion
ĠA ce
ĠE manuel
Tr ue
ĠSerb ia
Ġloud ly
Ġcann on
Ġinad vert
Ġcrack ing
ru gged
Å Ĥ
Ġsoc ietal
Ġrul ers
Gl obal
ĠL anka
ĠM R
ĠK re
Ġstub born
Ġmerch ant
com pet
Ġver te
Ġshort ages
he rence
Ġg el
s kin
ĠCom bat
f ig
Ġcongest ion
Ġprolifer ation
Ġaggrav ated
Ġmass ively
enc ia
v s
Ġdi ets
Ġsens ory
Ġtruth s
whe el
ON G
ĠAng lo
ĠP av
Ġspons orship
Ġfire works
Ġwho pping
Ġbod ily
p resent
IC H
ĠRock et
l ove
Ġiniti ate
Ġrecept ors
ĠIs is
ic ular
Ġca fe
ĠCelt ic
ĠCons ult
ĠEn joy
hen ko
ĠRap ids
Ġp ads
ĠG addafi
ãĥ ³
r ue
c reat
Ġarchitect s
Ġel bow
pict ured
Ġrenew al
Ġl akh
al ine
Ġs or
Ġsimpl est
ĠIns pector
i ya
Ġcomfort ably
re lease
Ġant agon
orm an
ĠPop ular
Ġspect acle
Ġf ier
Ġrail road
ĠCharl eston
Ġculp rit
Ġ10 8
I ron
ĠD y
W E
ĠMed al
Step hen
ĠL SU
Ġinc arn
ĠRep ly
Ġrun time
Ġ11 2
oy a
cript ions
ĠEll en
Ġdeep est
Ne ither
are l
F und
Ġimp ending
Ġst all
ap i
Ġcl an
OL D
G T
Ġun identified
Ġwork load
Ġl enders
Ġinj unction
ĠSp ark
ĠMin ority
Ġir responsible
Ġsu cks
m ia
L oad
Ġpath ways
ĠSuper ior
ik ed
ut ory
gl ass
Ġphil anthrop
Ġa rom
ĠD uck
Ã ¯
Ġl iable
ĠD B
ric ks
ĠMarket ing
Ġcomp ression
ĠCongress man
ãģ Į
Ġret iring
ĠSm ash
Ġsad ness
ĠI PA
Ġund o
Ġhe mp
t ical
Ġen cl
ĠSh ut
ĠGar rett
se ys
ĠMarx ist
Ġjurisd ictions
Ġbre asts
Ġreg istry
ar us
Ġtransform ing
Ġm ansion
Ġb aked
Ġseiz ures
Ġrent ed
Pl ayer
m oon
Ġn g
ĠHug o
Ġcirc ulating
ĠEuro pa
she et
Ġs ir
Ġp act
Ġby te
Ġbr akes
Ġdepict ing
LA Y
Ġaffili ation
Ġr ude
Orig inal
Ġaver ages
Ġgrat itude
Ġcompan ions
F X
Ġhigh s
ĠRep orter
ĠHans en
M ic
ĠF actory
ĠC ultural
ĠM ale
Ġ} ;
ĠCar p
me aning
H en
Ġdisc rep
ĠSebast ian
Ġsuccess ive
ĠRE AD
Ġphotograp hers
Ġper imeter
ron ics
J ason
an mar
Â Ĺ
ĠT umblr
ĠElect oral
an an
Ġdr ift
og ram
alk er
Ġstri ps
Ġgrab s
r ath
Ġbigot ry
ĠV ander
ĠHam mond
openh agen
ĠCol bert
Ġ19 49
Ġcounsel ing
ĠG ET
Semit ic
Ġmedic ines
Ġhall uc
Ġ19 55
Ġinject ed
com b
ĠAndrew s
Ġmemo ir
ill ions
Ġaw ake
ĠMah m
F ort
d ain
ĠBut ter
IC S
ĠCal vin
Will iams
ĠBuddh ism
Ġveget arian
Ġm ans
Ġconce al
Ġfor c
Ġpredec essors
Ġpseud o
Ġinter ception
ĠInf o
Con nor
ĠArmen ian
ĠMar athon
ĠE cho
g ithub
ĠBel fast
at ical
s ince
ĠB om
Ġd itch
a ic
Ġal ley
Ġalleg iance
Ġpup ils
Ġgood bye
Ġenvelop e
ĠSt am
Ġrem n
Ġvill agers
Ġharass ed
Ġse ated
Ġgra ffiti
Â ½
ĠPeters burg
Ġ10 7
oh yd
Ġm um
Ġper former
Ġge op
Ġmem e
ĠCor nell
Ġauthent icity
gress ive
ĠBra ves
et ics
Ġp oker
Ġundergrad uate
Ġspeed ing
ĠJ ab
ĠHar old
Ġfor ged
ĠG ut
ĠRel ated
n om
. *
ĠC OU
Ġbur ger
ĠP resent
ĠL ac
Ġmut ations
B ase
sole te
Ġhal ted
Ġplay able
n as
ĠRes istance
Ġatroc ities
Ġall erg
Ex pl
Ġrob bed
ĠSex ual
Intern ational
Ġproport ions
Ġgener als
Mus ic
b order
ĠKu wait
Ġdepart ed
Ġconf essed
ew orthy
Ġincorrect ly
Ġhypoc risy
P ath
Ġgr ains
Ġwhere by
Ġsp ur
Ġpiv otal
Ġv ow
ĠTh ing
ĠArch ives
Ġske leton
h awks
ĠGard ner
tt a
Ġper t
Ġv ou
Ġgoal ie
ĠHe ather
Ġrest oring
ass ing
old own
Ġexcept ionally
Ġsw all
Ġstr ongh
ĠM AN
Ġinc ub
ĠMy anmar
char acter
Ġwor s
ĠD uc
Ġinflamm ation
ĠAn kara
ĠSe vent
Ġdisc ern
Ġcamp ing
Ġun official
Ġs ins
Ġnep hew
act ly
ĠD ifferent
Ġsl ate
W ed
ĠLaure n
Ġsit uated
Ġlau ndering
Ne ill
ĠF ri
Ġbra ke
Ġam en
Ġtend encies
Ġ( #
ĠAr ist
ĠD NS
Ġprofound ly
ĠT yson
Ġexplo its
ĠJoy ce
Ġlim bs
// //
ãģ Ļ
ĠIn come
il o
ĠVict ory
Ġincarcer ation
Ġmis ery
Ġdev ote
Ġexpend itures
it ant
pr us
Ġs ou
ĠJo an
ĠPod esta
at z
asket ball
Ġcommer cially
Ġvill ains
ĠFl ore
Ġo v
Ġess ays
Ġmot ors
any e
IC A
Ġopp ressed
ĠBl ocked
Ġlif es
Ġbud dy
ĠE z
ĠP oor
C ru
ĠBened ict
Ġassess ing
Ġinv aded
ĠA CA
Ġequ als
ÃĤÃĥÃĤÃĥÃĤÃĥÃĤÃĥÃĤÃĥÃĤÃĥÃĤÃĥÃĤÃĥ ÃĤÃĥÃĤÃĥÃĤÃĥÃĤÃĥÃĤÃĥÃĤÃĥÃĤÃĥÃĤÃĥ
ĠAm nesty
ĠSt ur
Ġge ek
ĠDrag ons
Ġther m
Ġtest osterone
ex isting
Ġworld view
ket ch
ace y
ĠFly ers
ĠP u
ĠZe lda
v on
Ġsynt hes
Ġrem oves
gl obal
ĠExt ra
u ously
at ra
Ġpo pping
Ġsl iding
Ġexecut ing
Ġ/ *
P y
Reg ardless
Ġrespect ful
Ġspec ulated
Ġch unks
T en
Ġfil ib
B usiness
Ġresp ir
Ġcoun ters
Ġboard ing
ĠA WS
W C
Ġflood s
inc re
d ependent
Ġsl ope
Ġse af
go ogle
is man
ĠLic ense
Ġb aff
ĠMel issa
Ġre play
ĠW yn
ov y
Ġsur rog
Ġst ain
Ġneighbour ing
ad ic
ĠPat terson
Ġnew born
ĠBrig ade
Ġexpl ores
bo at
ĠS ize
Ġhit ter
ĠSor os
t im
xx xx
ĠCamer a
ĠCh ang
od us
R o
Ġwas t
Ġprovoc ative
Ġprol ific
utter stock
Ġphilos ophers
Ġat om
ong o
ĠX ia
IS IS
be ck
threat ening
S F
Ġche at
Ġsm iles
ep ernick
but ton
Ġdevelopment al
W ait
ĠJ ail
Ġcor related
ĠDur ant
ar is
Ġplanet ary
def ault
Ġc ove
op ia
11 2
Ġpro w
hib ition
t aking
het ics
Ġm as
ĠV it
ĠR ole
Ã¡ s
p ensive
Ġun aff
ĠTe en
ir ling
Ġl ure
Ġx en
Cont ent
ĠEth ics
Ġrul er
ĠHe b
ĠList en
idel ity
ĠPed ro
sp ot
ĠPre p
Ġtoug hest
Ġpref ers
ms on
ĠDo om
Ñ İ
en za
ag netic
C oll
ĠP orsche
Ġdis comfort
ĠFitz gerald
com mittee
Sec urity
Ġcl ay
ĠBrad ford
13 5
Ġsh ining
Ġrain fall
Ġpharm ac
Ġinc idence
ĠD ocument
ub arak
os lav
ĠLe eds
Ġn ud
ĠP retty
C ost
cr ime
ĠT ucker
ĠSh ore
Ġtum or
Ġcelebr ates
ĠChrist ine
oot er
ĠNob le
Ġins ign
ĠLiber tarian
ĠU E
ĠH oney
ĠAp ache
ĠRevolution ary
ch in
Ġexpl ode
com merce
ĠB T
Ġtri angle
Des ign
E arth
Ġdict ate
its u
Ġlim itation
ĠF en
ĠWh ole
Ã± o
Ġspecific ation
ĠS aid
Ġon ion
Ġr av
ĠC aucus
ĠJac obs
k ick
r itional
Ġrun way
ĠW ong
ĠL ok
Ġper il
ĠHell o
ĠZ ika
Ġt abs
Ġdecre ases
Ġfo am
Ġcampaign ed
Ġtra umatic
Ġpil gr
Ġbub bles
th ose
K now
Ġpl ac
osh op
ĠFreder ick
E st
ĠG erald
ĠP itt
Ġ19 46
Ġbl oom
Ġtot als
Ġrot ating
Ġconflic ting
Ġchick ens
uper t
Ġ13 5
ĠD EA
Ġpet ty
B ad
ĠResp onse
ĠSch war
ĠCu omo
as per
Ġco ached
Ġbo il
W orks
Ġout we
sh ort
ĠKir by
Ġf ox
ik ers
Ġpreced ing
Ġsm ash
ĠRec ent
Ġt issues
Ġbl ues
Ġqu ir
j ava
Ġ10 9
cent ric
ver ts
ĠP P
Ġguess ing
IG N
Ġspec s
Ġappl ause
Ġexp ire
Ġapp end
Ġtheoret ically
ĠSh ir
ĠPsych ology
Ġs unk
Ġcyber security
ĠKey stone
Ġc emetery
ĠLes lie
n ick
10 8
ruct ions
ĠA id
Ġex pelled
Ġur ges
German y
Ġdiscrimin atory
Ġpack ing
Will iam
Ġscore r
Go ing
Can adian
C arl
Ġwh ip
ĠC ous
l ang
Ġremember ing
Ġe lic
Ġnarc iss
Ġmail ing
olic y
Ð¾Ð »
Ġinter vals
Ġl ocking
es que
f at
el o
w on
Ðµ ÑĤ
ĠR ash
Ġde port
Ġspecial ty
Ġyear ly
Ã Ł
st re
st ant
Ġtr unk
Ġtrans cend
Ġpl ight
Ġl amp
Ġinfect ious
ĠFred die
Ġle v
ĠAl ban
cap ital
Ġcommun ism
rend ered
Bl ock
ĠGree ks
ĠL B
Å «
Ġimper fect
oc ating
Ġgig antic
c ats
Ġpair ing
ĠMe chan
ĠIss ue
Ġlaw ful
ĠD HS
Ġcler gy
Ġ2 30
if ts
at ible
Ġoil s
Ġc ues
P riv
Ġdec omp
Ġconfig ure
Ġa we
ĠSpot ify
ĠCy cling
is y
F ast
Ġschizophren ia
Ġbr ink
Ġprep ares
com pl
Ġins iders
ra vel
Ġdisproportion ately
Ġtempor al
en ame
Ġfr iction
Ï ģ
r ag
Fr ance
Ġk ings
ĠPatri ot
Ġperson a
ĠPh arm
Ġnic otine
man ned
ĠB A
ĠBul gar
Ð½ Ð¸
Ġimp aired
auc as
Ġs ulf
Ġdefense man
iol a
Ġtr act
Ġh ates
ĠF ail
Ġsuper f
ĠGro ve
Ġnow adays
ĠAss ass
Ġsle w
Ġal erted
ĠStrateg ic
our cing
Ġrest s
ĠFe atures
ĠCh avez
ĠRoy als
ĠPay Pal
St and
Ġste er
Ġpuzz les
Ġadmin ister
OS S
ĠM alt
ĠCom ments
Ġritual s
ih il
Ġunder mining
Ġam azed
ĠJohn ston
Ġpolit ic
ĠLam ar
ĠW ILL
ĠM TV
Ġcoll usion
Ġgr ammar
Ġand roid
ĠTechn ical
Ġimp uls
ĠTre nd
ĠSS D
ĠZh ang
ĠDecl aration
att a
- $
ym es
Ġpro se
ĠC oul
Ġrent s
Ġprin cess
ĠPengu ins
Ð» Ð¸
ĠAl v
M essage
ĠC ain
ĠCom put
ĠBay lor
te enth
Ġinex pensive
ĠLie utenant
Ġconf ess
od o
Ġrestrict ive
Ġsubsid y
ĠNot ice
ĠAn s
av ier
fr ac
3 60
Ġemploy ing
Ġunivers ally
sh are
ber ries
ĠN R
all ic
Ġdecre asing
Ġair ing
il ot
Ġconfig ured
ĠS ke
ALL Y
Ġr abbit
e ast
Never theless
Ġfam ed
ĠApp lication
AR S
>> >>
Ġp ains
Ġexperiment ing
ĠM ental
T em
Go vernment
Ġm aternal
Ġsmugg ling
Ġ25 6
ĠNic olas
ĠDet ective
Ġch illing
Ġinsurg ents
Sen ate
Pal est
ĠR id
ĠW ash
Ġs inking
ĠZion ist
re b
Ġcondemn ation
j ournal
ĠAv ailable
.âĢĻ âĢĻ
Ġh ottest
ĠP ixel
ĠAur ora
ĠGod s
Ġunre asonable
ĠLind sey
Ġnot ions
ĠN issan
Ġcris p
oh an
ĠJoh ann
Ġpractition ers
Ã± a
Ġz ip
an amo
ĠÂ ĸ
ĠWe ight
ĠSol omon
vid ia
Ġmanifest o
n n
Ġ19 33
aw k
Ġjihad ists
ĠS ettings
ĠL un
Ġinv asive
Ġpol ished
ĠNAS CAR
E conom
Ġpass er
Ġaccum ulation
g ering
Ġinsult ing
ic z
Ġpost ure
Ġp enny
Ġext inct
Ġd op
Ġcommem or
r Ã©
Ġd ynasty
Ġrestrain t
Ø§ Ø
Sim ilarly
ĠS ara
Ġlect ures
ĠW rite
Ġgl owing
ĠOrig in
B on
Ġpe as
Ġconc ussion
P ack
c amera
Ġgl am
at hing
ĠFuk ushima
ĠFull er
ĠValent ine
Ġvacc ination
R B
k t
Ġdistur bed
! ),
Ġmic row
Ġpart nered
Ġhands ome
cl oud
ĠOb server
ĠL ords
H ER
Ġch olesterol
c uts
Ġd Ã©
Ġfort unes
ĠN er
ous se
G G
Pre vious
ĠInnov ation
Ġdrag ging
Ġmillenn ials
Ġhist ories
ĠV oy
id as
T s
ĠConst ruction
ĠP izza
rent ice
Sen ator
ĠSouth ampton
Ġmunicipal ities
Ġcher ry
ĠFranc o
ĠJav ascript
Ġpatri ot
Ġfront ier
Ġconsult ed
ĠG L
ĠDis play
ĠChap man
ĠC openhagen
Ġlabel ing
r aining
Ġrum ored
Ġo ri
Ġh amm
ĠRoc hester
Ġ195 2
d uty
w agen
Ġrat ios
; ;
AN C
Ġmand ated
Ġstat ues
m ith
st ed
Ġconstruct ive
iv ities
g ard
Ġstr at
Ġprinc ip
Ġf erry
Ġb apt
Ġsupp lements
m oney
ĠG amer
w y
Ġr app
ĠNon etheless
Ġgun fire
Ġcommercial s
ext reme
ĠB end
Ġsub set
ĠB ug
ĠN om
iov ascular
U k
ĠW itch
her ty
Ġpump ing
Ġinstall ations
Ġfin anced
Ġexhib ited
Ġjud iciary
ĠOper a
ĠL TE
Ġworks hops
E ff
Ġdwar f
Ġsal v
Ġgen res
T I
ĠC ed
og o
ĠÃ ¢
ĠStand ards
ĠOs ama
k top
Ġgl ue
ĠD ogs
li able
Ġplug ins
ĠNic ole
w omen
Ġdefin ite
ne xt
Y S
l ists
ĠTr inity
Ġkn ives
Ġecosystem s
T B
en o
ĠIb rahim
Ġecl ipse
Ġf ills
ĠChar acter
Ġbur nt
" ?
Ġregul ating
Ġfront s
ĠShe ikh
Ġinstinct s
Ġge ography
ĠAv iation
Ġm ocked
ĠOpp osition
Ġboost ing
ĠElect ions
l aughs
ĠTe ams
EM A
Ġvoc abulary
Ġdescend ants
Ġf aded
ĠH os
ent on
To o
ĠL uk
ĠIndones ian
ĠTw ilight
ign ant
Ġs arc
ĠMon roe
reg ulated
ov sky
Ġgeomet ry
och ond
Ġinv oked
ĠAN Y
Ġd ictionary
ĠW AS
L uc
o os
Ġinterpret ations
ĠCh icken
Ġrecons ider
ĠEx pect
E ast
Ġsand wic
Ġbl ur
Ġmod ular
f inals
a ude
ĠM H
Ġheavy weight
yr r
ĠUn block
Ġblock ade
ys ics
che wan
Ù ĩ
Ġfulf illing
ĠStephan ie
am oto
ĠArch ive
-------- ----
Ġrac ially
M ajor
Ġphenomen al
ĠJan et
Ġas semble
ĠR andom
Ġstart ling
ĠAs ked
Ġbl ink
ĠMar ijuana
N F
Ġch ased
ĠU AE
ing es
ĠR i
Ġesp ionage
d an
Ġse mes
ĠMotor ola
ĠGujar at
19 99
ĠRes cue
act ivity
ne eded
Ġsplit ting
medi ately
ĠAr ms
Ġdiscour age
Orig inally
ĠSh arp
s end
ment ia
ĠShort ly
ĠGu ate
Ġcompet ed
just ed
I H
Ġpar cel
Ġmet ropolitan
ct ica
ĠMad uro
Ġout doors
v ine
ĠBe e
Ġhe ars
Ġne oliberal
Ġhom emade
ig ated
Ġyouth s
Ġsim ulations
az ingly
aj a
Ġblat ant
ĠW id
Ġuns pe
ĠPhilipp ine
bro ken
Ġschedul ing
Ġun in
Ġd urable
Ġouts iders
Ġt earing
ĠAst ron
Ġpr aying
Ġlong standing
tle ment
Ñ Ī
Ġeth ic
e a
T aking
us a
Ġin mate
ĠUnder ground
Ġoptim ized
F lor
it ious
man agement
ĠBill board
Ġw ishing
h ma
ak o
e us
P rop
Ġhorm ones
Ġmush rooms
Ġnotor iously
Ġmon uments
ĠMar riage
ĠG ru
en f
Ġexplo iting
ĠTor res
Ġreal izes
Ġmetab olic
ĠInterest ingly
Ġsynt hesis
ĠFr aser
am bo
ĠGreen e
ĠSol utions
Ġleg ends
ar ray
Ġorganiz ational
Ġcontrace ption
l ated
he ne
â Ĺ
not es
iv ist
Ġra ided
ĠAny way
Ġs acked
16 8
ĠÐ½ Ð°
Ġpestic ides
++ ++
Ġsl ash
j son
Ġtermin ation
Ð¾Ð ¼
ĠA W
Ġhes itate
orn ings
represent ed
Ġjewel ry
... ]
ĠE y
ĠArt icles
ĠM K
Ġright eous
Ġaw ait
Ġm und
F E
ĠV PN
Ġch assis
Ġunexpected ly
Bre aking
Ġcontrad iction
Ġchall enger
ĠSt rat
N ov
cl ose
Ġkind ness
f ell
Ġdeploy ing
ĠAud i
Ġf eder
Ġoun ce
og rams
Ġs ocket
ĠAzer bai
Ġad am
ĠN D
and ro
fil m
ev il
ag ent
Ġhe ap
Ġpass ages
Ġethnic ity
Ġcon ve
nt on
oo oo
Ġtom atoes
ĠWi Fi
Ġstrengthen ed
Ġplant ing
udd le
Ġpen insula
J udge
Ġt ac
Ġdistribut ing
Ġobst ruction
Ġabrupt ly
Ġexcell ence
Ġdisp atched
Ġoverr ide
ĠMig uel
Ġt ipped
Ġch ord
st own
Ġhome work
Ġhold ings
Ġret ali
ĠC V
Ġ á
ĠAl bum
ĠL is
r anked
ĠH ers
Ġinflamm atory
Ġrevers al
Ġf ixture
p sych
Ġ iv
e on
ĠAst ros
: [
Ġund ec
U B
Ġsummon ed
t xt
Ġindic ations
Ġb ully
Ġs igh
Ġrock y
Ġbeh old
ut sche
Ġopen ness
hy d
ĠFront ier
uc ing
Ġarc ade
Ġgu iding
ĠW ool
Ġvisual s
ĠID F
us ually
Ġsk et
Ġn ap
Ġob ese
Ġtrail ing
ĠCh i
Ġframe works
Ġfat ally
en ary
att led
ĠD raw
g it
ĠMac ron
ĠN igel
ĠC oc
ĠBar on
Ġlab s
ĠK ris
ĠCy prus
Ġout going
Ġclar ified
È Ļ
Ġgrand children
R est
Ġdemol ition
rec ogn
S ean
Ġunle ashed
Ġe ve
am my
go ers
ĠH ours
ĠProduct ions
Ġproceed ing
i ating
che t
ĠFr ances
EN S
ĠHoff man
ĠK ol
Ġhigh ways
Ġresist ing
Ġens l
Ġsh ale
avor ite
ĠOtt oman
T it
Ġl ent
Ġhand ler
r ar
Ġem ission
ĠG C
st en
Ġpro let
Ġoversee ing
ĠO dd
ld om
Ġimpl ication
crib e
Ġsort ed
Ġdef ects
V ia
Ġre write
Ġcollect ors
uck land
g ot
Ġ( (
y ll
Ġfulf illed
Ġcart oons
Ġbacter ial
ess im
ĠWATCH ED
ud o
Ġyield ed
ĠCon nor
Ġs lick
Ġread ings
Ġill umin
ĠR um
ĠGuant anamo
Ġcentral ized
Ġfemin ine
ĠStat us
ic ially
Ġfl ipped
acc ount
H appy
ĠPubl ishing
m ot
umb les
ĠCustom er
ur ai
Ġceremon ies
Ġd wind
ĠMin utes
ĠF ul
Ġoblig ed
uck ing
ib a
Ġh iking
ĠE VER
Ġdecl ares
Ġper vasive
ĠLaw s
sm ith
ĠPer th
Ġ) :
if ty
Ã ¦
Ġcoh ort
hard t
h in
ĠCre ated
Ġconc urrent
ur istic
M O
p osition
ĠS ig
ĠIs n
Ġmoist ure
aid a
Ġsy rup
Ġst ared
o zy
ĠCor rect
m ort
Ġam p
Ġsp un
i very
he a
11 4
Ġmis guided
ĠA AA
Ġmim ic
ad an
Ġrese ar
at ts
ĠF usion
ĠFinn ish
Ġprev ailing
ĠInt o
ĠR ate
Ġp ins
Cle arly
rac use
Ġprogress ed
Oh io
Ġwith stand
ĠAdvis ory
Mond ay
ĠG IF
Ġsp rawling
Ġse ating
ĠR anch
Ġ19 14
oss ip
99 9
Ġa isle
bet ween
Ġun ins
Ġ12 3
Ġtext ures
Ġspont aneous
Ġbus h
reg ulation
Ġpione er
Ġslog ans
Ġtest ament
ĠH ang
ĠSh annon
ĠA ber
ut z
Ġmotiv ations
Ġbe verage
ĠO ption
Ġnot ify
È Ľ
Ġev id
ĠHard y
R Y
ĠDe V
Ġbi om
Ġimag inary
c orn
Ġsil icon
St ay
Ġ[ âĢ¦]
Ġmod s
k ish
Ġpe aks
cept ive
Ġgrand parents
c ritical
I AN
c ool
Ġvib e
z ero
vis ors
ĠV C
E V
ĠSol o
Event ually
est ablished
Ġcancell ation
ĠStock holm
cl air
Ġescal ation
ord ered
F riend
bur se
Ġmar itime
Ġtsun ami
ĠCh art
Ġparent ing
Ġvan ished
6 50
Ġdiss atisf
ac iÃ³n
Ġk idding
ĠS ina
Ġce ased
Ġpack et
x imately
Ġenerget ic
ĠJoe y
Ġc av
pat rick
Ġvis ions
Ġ17 5
Ġassist ing
ĠH iro
ĠN u
Ġwor m
ĠField s
ĠF ah
Ġoptim ization
Ġimp over
Ġsin ister
Ġbl onde
and ra
Ġjud gments
Ġpenet ration
Ġunder mined
Ġstat utory
ĠG ust
ĠAll ied
17 5
Ġun for
St ream
Ġle isure
Ġreject s
' ;
c z
ĠSad ly
Ġw izard
ĠAthlet ic
l ide
Japan ese
Ġwheel chair
ĠPre vious
Ġvers a
Ġarbit ration
ĠT ank
Ġsat ir
Ġrum ours
Ġgun shot
oc ese
Ġlos ers
I K
ĠWhe never
ĠMon itor
Ġimpress ions
ĠH ash
m aid
Ġlaund ry
Ġw aving
ĠJ P
AM A
Ġc affeine
Ġto re
Ġbroadcast s
Ġincons ist
Ġ1 19
Ġor thodox
ĠTH C
Ġcon quer
ess ment
G ate
ĠWe ber
ĠW elcome
ĠSec urities
Ġstr anded
Ġinsist ence
mans hip
Res earch
Ġsn ipp
Ġswing ing
r il
Ġfil ings
Short ly
Ġun available
ib o
Ġbal ances
Ġpossess es
get own
d rive
ĠP om
Ġsacrific es
S ize
re ally
e ight
Ġ19 18
ish i
Ġtrig gering
Ġ15 00
ĠVol ks
Ġn ause
ĠN VIDIA
ĠR ade
Ġarm ored
ble ms
P op
Ġproced ural
sw er
ov able
Ġlive lihood
app a
ĠUn cle
ĠS ou
R a
Ġdom est
Ġmat urity
in ion
Ġgate way
Ġguess ed
ĠS z
Ġstandard ized
Ġsid eline
Ġrehe ars
ĠS ark
Act ually
Ġde ception
app le
Ġexc luding
Ġobject ed
ĠZucker berg
Th ursday
Ġstress ful
ĠR iot
ĠS ally
Ġpir ate
j ad
Ġrespect able
Ġgener ators
uss y
ĠAr g
ĠF ry
M oney
Ġdisc arded
Ġcub ic
not hing
Ġretain ing
Jew ish
ĠAC T
ĠPro blem
us ch
ĠAfric ans
Ġ19 38
i ago
ĠD ew
AN N
Ġprop s
ĠWill ie
ra its
Ġutil izing
Ġche ering
ĠL inks
ĠArt ist
ĠO T
Ġpump ed
Ġcirc uits
ĠLu cy
ĠE ld
ĠY ORK
ĠNew ark
A ccess
ip es
ĠFernand o
r ase
Ġg ast
F K
Ġastron omers
ĠSw ord
f orth
ĠF i
N R
Ġrestrict ing
ĠSh arks
ĠD iana
reat h
Ġdownt urn
h ift
Ġlik ing
Ġwand ering
Sc roll
Ġthink ers
Ġtermin ated
Ġ12 7
Ġconf ession
2 40
ĠReg ist
l is
ĠHann ah
ĠSt eele
å ¤
Ġres umed
Ġass im
ĠW S
IN S
Ġd ar
ĠRe ason
S ex
Ġtransfer ring
Ġaut obi
are th
M rs
bet ter
Ġcomp ute
C ase
Or gan
L ow
f ind
Ġfear ful
ĠRiver a
state ment
Ġrespir atory
ĠMo zilla
R od
Ġelev ation
im i
ĠF emin
Â Ĥ
Ġmagn ificent
Ġd ental
ĠCrit ics
11 3
ĠW ol
Ġhe fty
ob il
ir rel
ĠSy racuse
fashion ed
Ġmon st
Ġ19 0
ra ven
Ġburd ens
Ġdr ank
per fect
Ġext r
Ġtur f
Ġjihad ist
ĠM ubarak
ĠV on
ĠSc and
ĠCom mercial
Ġad missions
Ġcos m
Ġob solete
ron ting
ĠT witch
ve illance
Ġcondem ning
ç ļ
ĠPod cast
Ġcl icks
ĠR ena
25 5
ar ations
Ġtro lls
Ġl ays
ĠP ure
ĠWorld s
ĠC ec
ĠRe in
Ġpun ches
ĠBur ger
p ent
Ġdem ographics
ud get
Ġtheat rical
Ġcor ro
ĠPR O
Ġtele communications
onge vity
ĠSc out
ĠF E
l oss
Ġtempt ed
ĠS uff
Ġmut ually
Ġstim ulate
Ġdiff ers
ĠÃ® n
ocaly ptic
it imate
Ġfun nel
Ġun sett
Ġreserv ation
ach ine
Ġban ana
ĠM au
dig it
Ġpresum ed
ve z
Ġad here
ĠDI Y
Ġ19 36
Ġwarm th
Ġori ented
p ub
ĠKn ox
ĠJ al
Ġb olt
Ġsmok ers
Mat thew
Ġoverd ose
Ġsky rock
ĠAna heim
ĠR an
ĠD OM
ilib rium
Ġdisgr ace
feed ing
Ġearthqu akes
ĠJagu ars
ĠDani els
Ġconsult ants
E ight
Ġa ided
Ġpromin ence
ang ling
ĠÎ ±
Ġspec ulative
ows hip
Com ments
Ġre written
ĠQuest ions
Ġg n
ĠM Hz
ĠK abul
Ġo scill
Ġexerc ising
ĠA gg
Ġguitar ist
Ġl ord
Ġer osion
Ġhur ry
g ic
ĠKa epernick
IS H
per cent
al most
ĠS ue
ĠHor izon
Ġpip elines
Ġunfair ly
Ġjoint ly
Ġth ieves
Ġt an
ĠV II
S earch
enn ial
Ġsem if
Ġprec inct
g old
inn amon
ĠCom pl
d ead
oper ation
Ġmelt down
ĠP ull
ĠT ut
Ġrec ap
ĠTon ight
Ġrel iably
pos itive
Ġac oustic
Ġend urance
ĠK od
Ġnostal gia
Ġostens ibly
ĠRe qu
Ġentit lement
ay ette
ĠHist orical
ĠB ath
ĠUg anda
ĠMic key
ĠKaz akh
M id
Ġsc outs
Ġprov oked
Ġrig ged
à ´
Ġgrad uating
ĠW olver
ĠAl leg
Ġmel ted
Ġdisrupt ed
D ead
ĠP ool
pro bably
Ġe up
Ġc apped
ĠRut gers
ĠMart y
Ġexp ands
ur ations
Ġharm less
Ġfold ed
Ġdatas et
[...]
