{
  "<|endoftext|>": 0,
  "Ā": 1,
  "ā": 2,
  "Ă": 3,
  "ă": 4,
  "Ą": 5,
  "ą": 6,
  "Ć": 7,
  "ć": 8,
  "Ĉ": 9,
  "ĉ": 10,
  "Ċ": 11,
  "ċ": 12,
  "Č": 13,
  "č": 14,
  "Ď": 15,
  "ď": 16,
  "Đ": 17,
  "đ": 18,
  "Ē": 19,
  "ē": 20,
  "Ĕ": 21,
  "ĕ": 22,
  "Ė": 23,
  "ė": 24,
  "Ę": 25,
  "ę": 26,
  "Ě": 27,
  "ě": 28,
  "Ĝ": 29,
  "ĝ": 30,
  "Ğ": 31,
  "ğ": 32,
  "Ġ": 33,
  "!": 34,
  "\"": 35,
  "#": 36,
  "$": 37,
  "%": 38,
  "&": 39,
  "'": 40,
  "(": 41,
  ")": 42,
  "*": 43,
  "+": 44,
  ",": 45,
  "-": 46,
  ".": 47,
  "/": 48,
  "0": 49,
  "1": 50,
  "2": 51,
  "3": 52,
  "4": 53,
  "5": 54,
  "6": 55,
  "7": 56,
  "8": 57,
  "9": 58,
  ":": 59,
  ";": 60,
  "<": 61,
  "=": 62,
  ">": 63,
  "?": 64,
  "@": 65,
  "A": 66,
  "B": 67,
  "C": 68,
  "D": 69,
  "E": 70,
  "F": 71,
  "G": 72,
  "H": 73,
  "I": 74,
  "J": 75,
  "K": 76,
  "L": 77,
  "M": 78,
  "N": 79,
  "O": 80,
  "P": 81,
  "Q": 82,
  "R": 83,
  "S": 84,
  "T": 85,
  "U": 86,
  "V": 87,
  "W": 88,
  "X": 89,
  "Y": 90,
  "Z": 91,
  "[": 92,
  "\\": 93,
  "]": 94,
  "^": 95,
  "_": 96,
  "`": 97,
  "a": 98,
  "b": 99,
  "c": 100,
  "d": 101,
  "e": 102,
  "f": 103,
  "g": 104,
  "h": 105,
  "i": 106,
  "j": 107,
  "k": 108,
  "l": 109,
  "m": 110,
  "n": 111,
  "o": 112,
  "p": 113,
  "q": 114,
  "r": 115,
  "s": 116,
  "t": 117,
  "u": 118,
  "v": 119,
  "w": 120,
  "x": 121,
  "y": 122,
  "z": 123,
  "{": 124,
  "|": 125,
  "}": 126,
  "~": 127,
  "ġ": 128,
  "Ģ": 129,
  "ģ": 130,
  "Ĥ": 131,
  "ĥ": 132,
  "Ħ": 133,
  "ħ": 134,
  "Ĩ": 135,
  "ĩ": 136,
  "Ī": 137,
  "ī": 138,
  "Ĭ": 139,
  "ĭ": 140,
  "Į": 141,
  "į": 142,
  "İ": 143,
  "ı": 144,
  "Ĳ": 145,
  "ĳ": 146,
  "Ĵ": 147,
  "ĵ": 148,
  "Ķ": 149,
  "ķ": 150,
  "ĸ": 151,
  "Ĺ": 152,
  "ĺ": 153,
  "Ļ": 154,
  "ļ": 155,
  "Ľ": 156,
  "ľ": 157,
  "Ŀ": 158,
  "ŀ": 159,
  "Ł": 160,
  "ł": 161,
  "¡": 162,
  "¢": 163,
  "£": 164,
  "¤": 165,
  "¥": 166,
  "¦": 167,
  "§": 168,
  "¨": 169,
  "©": 170,
  "ª": 171,
  "«": 172,
  "¬": 173,
  "Ń": 174,
  "®": 175,
  "¯": 176,
  "°": 177,
  "±": 178,
  "²": 179,
  "³": 180,
  "´": 181,
  "µ": 182,
  "¶": 183,
  "·": 184,
  "¸": 185,
  "¹": 186,
  "º": 187,
  "»": 188,
  "¼": 189,
  "½": 190,
  "¾": 191,
  "¿": 192,
  "À": 193,
  "Á": 194,
  "Â": 195,
  "Ã": 196,
  "Ä": 197,
  "Å": 198,
  "Æ": 199,
  "Ç": 200,
  "È": 201,
  "É": 202,
  "Ê": 203,
  "Ë": 204,
  "Ì": 205,
  "Í": 206,
  "Î": 207,
  "Ï": 208,
  "Ð": 209,
  "Ñ": 210,
  "Ò": 211,
  "Ó": 212,
  "Ô": 213,
  "Õ": 214,
  "Ö": 215,
  "×": 216,
  "Ø": 217,
  "Ù": 218,
  "Ú": 219,
  "Û": 220,
  "Ü": 221,
  "Ý": 222,
  "Þ": 223,
  "ß": 224,
  "à": 225,
  "á": 226,
  "â": 227,
  "ã": 228,
  "ä": 229,
  "å": 230,
  "æ": 231,
  "ç": 232,
  "è": 233,
  "é": 234,
  "ê": 235,
  "ë": 236,
  "ì": 237,
  "í": 238,
  "î": 239,
  "ï": 240,
  "ð": 241,
  "ñ": 242,
  "ò": 243,
  "ó": 244,
  "ô": 245,
  "õ": 246,
  "ö": 247,
  "÷": 248,
  "ø": 249,
  "ù": 250,
  "ú": 251,
  "û": 252,
  "ü": 253,
  "ý": 254,
  "þ": 255,
  "ÿ": 256,
  "Ġt": 257,
  "he": 258,
  "Ġa": 259,
  "Ġs": 260,
  "Ġw": 261,
  "nd": 262,
  "Ġthe": 263,
  "ed": 264,
  "Ġto": 265,
  "Ġb": 266,
  "Ġand": 267,
  "Ġh": 268,
  "in": 269,
  "Ġf": 270,
  "Ġwa": 271,
  "it": 272,
  "re": 273,
  "ou": 274,
  "ĠT": 275,
  "Ġl": 276,
  "Ġd": 277,
  "Ġc": 278,
  "Ġhe": 279,
  "Ġp": 280,
  "ay": 281,
  "Ġm": 282,
  "er": 283,
  "Ġwas": 284,
  "om": 285,
  "im": 286,
  "on": 287,
  "il": 288,
  "id": 289,
  "is": 290,
  "at": 291,
  "ar": 292,
  "Ġsa": 293,
  "Ġn": 294,
  "Ġg": 295,
  "ing": 296,
  "ĠThe": 297,
  "Ġha": 298,
  "en": 299,
  "ĠS": 300,
  "an": 301,
  "or": 302,
  "le": 303,
  "ll": 304,
  "Ġth": 305,
  "ot": 306,
  "ily": 307,
  "Ġher": 308,
  "Ġit": 309,
  "am": 310,
  "ir": 311,
  "et": 312,
  "Lily": 313,
  "Ġu": 314,
  "On": 315,
  "Ġin": 316,
  "ut": 317,
  "Ġpl": 318,
  "ri": 319,
  "ow": 320,
  "Ġ\"": 321,
  "ĠH": 322,
  "Ġday": 323,
  "Ġbe": 324,
  "ĠLily": 325,
  "ver": 326,
  "ce": 327,
  "ith": 328,
  "ig": 329,
  "Ġo": 330,
  "Ġwith": 331,
  "Ġsaid": 332,
  "Ġplay": 333,
  "ĠTim": 334,
  "pp": 335,
  "ĠShe": 336,
  "ck": 337,
  "ld": 338,
  "my": 339,
  "Ġe": 340,
  "Ġhis": 341,
  "oo": 342,
  "Ġy": 343,
  "ĠHe": 344,
  "ĠThey": 345,
  "Ġst": 346,
  "Ġup": 347,
  "Ġthat": 348,
  "Ġr": 349,
  "Ġon": 350,
  "ke": 351,
  "ked": 352,
  "st": 353,
  "Ġmom": 354,
  "Ġshe": 355,
  "ve": 356,
  "ĠI": 357,
  "nt": 358,
  "itt": 359,
  "'s": 360,
  "very": 361,
  "Ġyou": 362,
  "Ġhapp": 363,
  "Ġthey": 364,
  "end": 365,
  "ime": 366,
  "Ġbig": 367,
  "Ġfri": 368,
  "se": 369,
  "Ġof": 370,
  "Ġfriend": 371,
  "ittle": 372,
  "Ġlittle": 373,
  "ent": 374,
  "Ġtime": 375,
  "ad": 376,
  "un": 377,
  "Ġhad": 378,
  "Ġwe": 379,
  "Ġthere": 380,
  "One": 381,
  "Ġso": 382,
  "her": 383,
  "Ġfor": 384,
  "all": 385,
  "ould": 386,
  "Ġnam": 387,
  "ĠB": 388,
  "Ġwant": 389,
  "Ġhappy": 390,
  "Ġsaw": 391,
  "Ġnamed": 392,
  "ved": 393,
  "Ġli": 394,
  "Ġbut": 395,
  "Ġvery": 396,
  "Ġdo": 397,
  "Ġlo": 398,
  "Once": 399,
  "ch": 400,
  "Ġne": 401,
  "Ġupon": 402,
  "es": 403,
  "out": 404,
  "Ġk": 405,
  "Ġsh": 406,
  "ĠM": 407,
  "ound": 408,
  ".\"": 409,
  "ly": 410,
  "'t": 411,
  "Ġnot": 412,
  "ĠTimmy": 413,
  "Ġwh": 414,
  "el": 415,
  "ide": 416,
  "ome": 417,
  "ht": 418,
  "al": 419,
  "Ġre": 420,
  "Ġbo": 421,
  "ter": 422,
  "Ġwent": 423,
  "Ġas": 424,
  "Ġan": 425,
  "Ġhel": 426,
  "Ġfriends": 427,
  "Ġhelp": 428,
  "Ġtoo": 429,
  "ake": 430,
  "!\"": 431,
  "Ġwere": 432,
  "Ġloved": 433,
  "Ġwanted": 434,
  "Ġsm": 435,
  "ird": 436,
  "ore": 437,
  "ack": 438,
  "Ġbird": 439,
  "irl": 440,
  "ry": 441,
  "Ġdid": 442,
  "ĠOne": 443,
  "Ġgirl": 444,
  "Ġtoy": 445,
  "ra": 446,
  "Ġall": 447,
  "ug": 448,
  "ind": 449,
  "The": 450,
  "Ġhim": 451,
  "ur": 452,
  "ĠIt": 453,
  "ame": 454,
  "Ġloo": 455,
  "Ġcould": 456,
  "rom": 457,
  "Ġj": 458,
  "Ġout": 459,
  "way": 460,
  "get": 461,
  "hen": 462,
  "ted": 463,
  "ec": 464,
  "Ġat": 465,
  "gether": 466,
  "Ġis": 467,
  "Ġkn": 468,
  "Ġgo": 469,
  "ain": 470,
  "Ġse": 471,
  "Ġtogether": 472,
  "Ġfun": 473,
  "ĠA": 474,
  "ard": 475,
  "ark": 476,
  "ul": 477,
  "ood": 478,
  "ĠTom": 479,
  "ue": 480,
  "Ġcan": 481,
  "side": 482,
  "Ġle": 483,
  "ic": 484,
  "?\"": 485,
  "ill": 486,
  "ax": 487,
  "Ġtre": 488,
  "Ġasked": 489,
  "Ġboy": 490,
  "Ġsad": 491,
  "hed": 492,
  "ght": 493,
  "ful": 494,
  "elt": 495,
  "Ġro": 496,
  "Ġback": 497,
  "own": 498,
  "Ġstar": 499,
  "Ġfelt": 500,
  "Ġbec": 501,
  "Ġhave": 502,
  "Ġthem": 503,
  "Ġca": 504,
  "Ġcat": 505,
  "other": 506,
  "one": 507,
  "Ġal": 508,
  "Ġsc": 509,
  "Ġsp": 510,
  "Ġfound": 511,
  "ĠMax": 512,
  "Ġcl": 513,
  "Ġtheir": 514,
  "um": 515,
  "Ġdog": 516,
  "Ġman": 517,
  "round": 518,
  "Ġplayed": 519,
  "hing": 520,
  "ro": 521,
  "Ġpark": 522,
  "ĠBut": 523,
  "ick": 524,
  "ong": 525,
  "Ġlooked": 526,
  "Ġsmil": 527,
  "Ġcar": 528,
  "Ġball": 529,
  "Ġcame": 530,
  "Ġme": 531,
  "Ġstarted": 532,
  "Ġare": 533,
  "Ġfe": 534,
  "Ġfa": 535,
  "Ġwould": 536,
  "Ġlike": 537,
  "omet": 538,
  "Ġtree": 539,
  "Ġnew": 540,
  "ĠF": 541,
  "Ġmommy": 542,
  "Ġag": 543,
  "Ġex": 544,
  "ss": 545,
  "ared": 546,
  "Ġwhat": 547,
  "ure": 548,
  "Ġdidn": 549,
  "ings": 550,
  "ie": 551,
  "Ġmake": 552,
  "ĠW": 553,
  "Ġsomet": 554,
  "dd": 555,
  "Ġsee": 556,
  "Ġno": 557,
  "ny": 558,
  "ought": 559,
  "Ġplaying": 560,
  "ried": 561,
  "ade": 562,
  "Ġwor": 563,
  "Ġsome": 564,
  "Ġhome": 565,
  "ice": 566,
  "op": 567,
  "Ġwhen": 568,
  "ouse": 569,
  "ag": 570,
  "Ġmu": 571,
  "Ġgot": 572,
  "You": 573,
  "Ġmade": 574,
  "Ġco": 575,
  "Ġaway": 576,
  "if": 577,
  "Ġwal": 578,
  "Ġthen": 579,
  "Ġsmiled": 580,
  "ĠBen": 581,
  "Ġother": 582,
  "Ġagain": 583,
  "Ġevery": 584,
  "Ġgood": 585,
  "ty": 586,
  "Ġla": 587,
  "king": 588,
  "ned": 589,
  "Ġoutside": 590,
  "Ġtoys": 591,
  "ĠL": 592,
  "Ġfind": 593,
  "Ġfrom": 594,
  "ble": 595,
  "au": 596,
  "ave": 597,
  "Ġaround": 598,
  "ook": 599,
  "Ġput": 600,
  "Ġfl": 601,
  "ened": 602,
  "ep": 603,
  "ways": 604,
  "ause": 605,
  "Ġsomething": 606,
  ",\"": 607,
  "uck": 608,
  "ight": 609,
  "Ġalways": 610,
  "ally": 611,
  "Ġbecause": 612,
  "Ġlear": 613,
  "Ġthought": 614,
  "Ġthings": 615,
  "oud": 616,
  "Ġran": 617,
  "Ġliked": 618,
  "Ġscared": 619,
  "ell": 620,
  "Ġwho": 621,
  "Ġdown": 622,
  "Ġsw": 623,
  "udd": 624,
  "Ġget": 625,
  "ĠJ": 626,
  "ĠSue": 627,
  "Ġkne": 628,
  "as": 629,
  "Ġab": 630,
  "Ġmy": 631,
  "Ġtook": 632,
  "ant": 633,
  "ret": 634,
  "Ġdec": 635,
  "ust": 636,
  "Ġabout": 637,
  "ach": 638,
  "Tim": 639,
  "Ġknow": 640,
  "ist": 641,
  "pl": 642,
  "Ġeat": 643,
  "Ġch": 644,
  "Ġyour": 645,
  "Ġhouse": 646,
  "Ġtold": 647,
  "fter": 648,
  "ited": 649,
  "Ġcare": 650,
  "Ġsmall": 651,
  "Ġknew": 652,
  "Th": 653,
  "ĠSam": 654,
  "Ġtried": 655,
  "ank": 656,
  "ided": 657,
  "pped": 658,
  "Ġany": 659,
  "Ġdecided": 660,
  "Ġbr": 661,
  "Ġbl": 662,
  "Ġpr": 663,
  "ish": 664,
  "ite": 665,
  "Ġbu": 666,
  "Ġlot": 667,
  "Ġint": 668,
  "fe": 669,
  "Ġlearned": 670,
  "Ġsay": 671,
  "ĠYou": 672,
  "Ġdad": 673,
  "ous": 674,
  "ĠFrom": 675,
  "ile": 676,
  "pot": 677,
  "Ġexc": 678,
  "Ġpret": 679,
  "udden": 680,
  "qu": 681,
  "uddenly": 682,
  "Ġta": 683,
  "Ġv": 684,
  "ise": 685,
  "Ġsun": 686,
  "ers": 687,
  "Ġmuch": 688,
  "Ġlaug": 689,
  "Ġmore": 690,
  "ob": 691,
  "Ġfeel": 692,
  "are": 693,
  "Ġlived": 694,
  "nder": 695,
  "Ġke": 696,
  "Ġbox": 697,
  "ive": 698,
  "Ġwill": 699,
  "Ġpo": 700,
  "ace": 701,
  "Ġshow": 702,
  "ven": 703,
  "Ġhug": 704,
  "ump": 705,
  "ĠSpot": 706,
  "Ġinto": 707,
  "uc": 708,
  "Ġun": 709,
  "ĠHer": 710,
  "ia": 711,
  "Ġgave": 712,
  "urp": 713,
  "Ġone": 714,
  "Ġexcited": 715,
  "Ġneed": 716,
  "Ġwater": 717,
  "etter": 718,
  "Ġinside": 719,
  "Ġho": 720,
  "oth": 721,
  "Ġhow": 722,
  "ort": 723,
  "ate": 724,
  "ap": 725,
  "Ġroom": 726,
  "Ġgra": 727,
  "Ġtr": 728,
  "dy": 729,
  "Ġpick": 730,
  "Ġcouldn": 731,
  "Ġgre": 732,
  "Ġpe": 733,
  "Ġcle": 734,
  "Ġif": 735,
  "Ġmany": 736,
  "Ġtake": 737,
  "Ġlook": 738,
  "ĠD": 739,
  "our": 740,
  "ĠAnd": 741,
  "Ġlong": 742,
  "Ġpretty": 743,
  "Ġpu": 744,
  "Ġbecame": 745,
  "ĠSo": 746,
  "urpr": 747,
  "urt": 748,
  "Ġop": 749,
  "iz": 750,
  "Ġover": 751,
  "Ġrun": 752,
  "Ġsk": 753,
  "Ġsurpr": 754,
  "But": 755,
  "Ġbest": 756,
  "Wh": 757,
  "Ġbetter": 758,
  "Ġbear": 759,
  "bb": 760,
  "Ġthan": 761,
  "lf": 762,
  "ĠE": 763,
  "here": 764,
  "Ġmo": 765,
  "Ġim": 766,
  "ised": 767,
  "Ġred": 768,
  "ged": 769,
  "lew": 770,
  "Ġjust": 771,
  "Ġkind": 772,
  "Ġfi": 773,
  "ma": 774,
  "Ġflow": 775,
  "ge": 776,
  "Ġgr": 777,
  "ink": 778,
  "iny": 779,
  "Ġstr": 780,
  "imal": 781,
  "Ġanimal": 782,
  "Yes": 783,
  "Ġeven": 784,
  "Ġsl": 785,
  "Ġthis": 786,
  "em": 787,
  "Ġend": 788,
  "Ġfast": 789,
  "Ġclean": 790,
  "Ġlaughed": 791,
  "Ġjump": 792,
  "sed": 793,
  "Ġcareful": 794,
  "Ġboth": 795,
  "Ġwat": 796,
  "Ġdre": 797,
  "ched": 798,
  "ĠMia": 799,
  "Ġlist": 800,
  "Ġrock": 801,
  "ucy": 802,
  "Ġor": 803,
  "Ġnice": 804,
  "ber": 805,
  "ving": 806,
  "ĠHis": 807,
  "ess": 808,
  "ĠMom": 809,
  "Ġnever": 810,
  "Can": 811,
  "Ġclo": 812,
  "Ġtow": 813,
  "Ġimp": 814,
  "Ġby": 815,
  "Ġunder": 816,
  "Ġhappened": 817,
  "ion": 818,
  "Ġsays": 819,
  "Ġheard": 820,
  "Ġold": 821,
  "Ġfly": 822,
  "ct": 823,
  "Ġwalked": 824,
  "pec": 825,
  "Ġsn": 826,
  "ine": 827,
  "As": 828,
  "ase": 829,
  "Ġhurt": 830,
  "Ġsafe": 831,
  "Ġanimals": 832,
  "Ġcom": 833,
  "Ġen": 834,
  "Ġproud": 835,
  "Ġtry": 836,
  "Mom": 837,
  "They": 838,
  "ied": 839,
  "igh": 840,
  "Ġte": 841,
  "Ġri": 842,
  "Ġfore": 843,
  "ft": 844,
  "Ġhand": 845,
  "Ġcol": 846,
  "'m": 847,
  "Ġdon": 848,
  "Ġsky": 849,
  "Ġlots": 850,
  "Ġflew": 851,
  "ĠBob": 852,
  "Thank": 853,
  "orry": 854,
  "Ġdan": 855,
  "kay": 856,
  "ara": 857,
  "Ġwhile": 858,
  "Ġfam": 859,
  "ĠLucy": 860,
  "Ġbea": 861,
  "Ġfood": 862,
  "Ġfo": 863,
  "Ġfish": 864,
  "Ġstor": 865,
  "Ġground": 866,
  "Ġra": 867,
  "âĢ": 868,
  "Ġlet": 869,
  "Ġeach": 870,
  "Ġrepl": 871,
  "ĠWhen": 872,
  "oug": 873,
  "ough": 874,
  "Ġche": 875,
  "Ġpicked": 876,
  "Ġpic": 877,
  "Ġsorry": 878,
  "Ġrem": 879,
  "illy": 880,
  "Ġide": 881,
  "Ġits": 882,
  "ies": 883,
  "Ġshiny": 884,
  "Ġoff": 885,
  "Ġidea": 886,
  "ady": 887,
  "Ġreal": 888,
  "Ġbad": 889,
  "sh": 890,
  "ex": 891,
  "ff": 892,
  "by": 893,
  "ĠWe": 894,
  "Ġreplied": 895,
  "Ġcome": 896,
  "gry": 897,
  "Ġshare": 898,
  "Ġtur": 899,
  "imb": 900,
  "Timmy": 901,
  "Ġclimb": 902,
  "Tom": 903,
  "ial": 904,
  "ool": 905,
  "Ġimport": 906,
  "ture": 907,
  "Ġway": 908,
  "Ġloud": 909,
  "more": 910,
  "Ġanymore": 911,
  "Ġspec": 912,
  "Ġspecial": 913,
  "Ġfamily": 914,
  "Ġunt": 915,
  "ning": 916,
  "Ġbro": 917,
  "rm": 918,
  "Ġbeaut": 919,
  "self": 920,
  "Ġimportant": 921,
  "Ġwind": 922,
  "Ġthanked": 923,
  "Ġad": 924,
  "Ġhugged": 925,
  "and": 926,
  "Ġhard": 927,
  "Ġstill": 928,
  "Ġdra": 929,
  "nn": 930,
  "Ġuntil": 931,
  "ild": 932,
  "eet": 933,
  "Ġsurprised": 934,
  "Ġtal": 935,
  "Ġforest": 936,
  "iful": 937,
  "arden": 938,
  "Ġbeautiful": 939,
  "Ġgarden": 940,
  "Ġhelped": 941,
  "ĠTh": 942,
  "Ġlove": 943,
  "pected": 944,
  "Ġbeing": 945,
  "ized": 946,
  "Ġqu": 947,
  "Ġnear": 948,
  "Ġgl": 949,
  "ople": 950,
  "ip": 951,
  "expected": 952,
  "Ġunexpected": 953,
  "Ġcu": 954,
  "Ġtw": 955,
  "Ġfell": 956,
  "ummy": 957,
  "vor": 958,
  "Ġcon": 959,
  "Ġkeep": 960,
  "Ġpicture": 961,
  "Ġwalk": 962,
  "Ġexpl": 963,
  "Ġbook": 964,
  "Ġafter": 965,
  "vent": 966,
  "Ġcolor": 967,
  "xt": 968,
  "Ġnext": 969,
  "ĠBenny": 970,
  "After": 971,
  "hes": 972,
  "Ġpeople": 973,
  "Ġgive": 974,
  "Ġbug": 975,
  "ĠSuddenly": 976,
  "Ġshowed": 977,
  "Ġfavor": 978,
  "Ġfavorite": 979,
  "Ġnow": 980,
  "th": 981,
  "Ġcry": 982,
  "Ġhigh": 983,
  "ĠJack": 984,
  "Ġfin": 985,
  "Ġma": 986,
  "nna": 987,
  "Ġfar": 988,
  "ember": 989,
  "ak": 990,
  "Ġpar": 991,
  "Ġstore": 992,
  "Ġgoing": 993,
  "Ġcre": 994,
  "unny": 995,
  "Ġmag": 996,
  "Ġapp": 997,
  "Ġshould": 998,
  "Ġcake": 999,
  "ock": 1000,
  "ished": 1001,
  "Ġlisten": 1002,
  "Ġcall": 1003,
  "Ġam": 1004,
  "Ġgreat": 1005,
  "Ġlost": 1006,
  "fore": 1007,
  "Ġstay": 1008,
  "Let": 1009,
  "Suddenly": 1010,
  "Ġremember": 1011,
  "Ġwo": 1012,
  "ull": 1013,
  "When": 1014,
  "ary": 1015,
  "Ġsqu": 1016,
  "Ġrain": 1017,
  "Ġac": 1018,
  "Ġcook": 1019,
  "Ġjo": 1020,
  "ĠThen": 1021,
  "ger": 1022,
  "pt": 1023,
  "Ġbra": 1024,
  "Ġfr": 1025,
  "Ġbed": 1026,
  "It": 1027,
  "rel": 1028,
  "Ġpa": 1029,
  "Ġown": 1030,
  "Ġopened": 1031,
  "Ġtruck": 1032,
  "Ġbefore": 1033,
  "Ġever": 1034,
  "Ġstrong": 1035,
  "age": 1036,
  "No": 1037,
  "oon": 1038,
  "Ġsto": 1039,
  "Ġbutter": 1040,
  "Ġflowers": 1041,
  "Ġokay": 1042,
  "Ġblue": 1043,
  "Ġdoor": 1044,
  "Ġfix": 1045,
  "Ġwatch": 1046,
  "ĠSara": 1047,
  "Ġworry": 1048,
  "What": 1049,
  "uff": 1050,
  "Ġnoise": 1051,
  "Ġwhere": 1052,
  "ater": 1053,
  "Don": 1054,
  "Ġde": 1055,
  "Ġplace": 1056,
  "Ġboat": 1057,
  "Ġdoll": 1058,
  "Ġrealized": 1059,
  "les": 1060,
  "Ġwr": 1061,
  "lease": 1062,
  "bbit": 1063,
  "Ġate": 1064,
  "eddy": 1065,
  "ĠN": 1066,
  "Ġmor": 1067,
  "imes": 1068,
  "Ġstory": 1069,
  "Ġmagic": 1070,
  "Ġadvent": 1071,
  "ĠLet": 1072,
  "ĠP": 1073,
  "Ġyummy": 1074,
  "be": 1075,
  "thing": 1076,
  "Ġrabbit": 1077,
  "ĠEvery": 1078,
  "leep": 1079,
  "Ġmet": 1080,
  "That": 1081,
  "ĠAmy": 1082,
  "ĠWh": 1083,
  "Ġwait": 1084,
  "Ġleave": 1085,
  "Ġbutterf": 1086,
  "Ġhappily": 1087,
  "able": 1088,
  "Ġtra": 1089,
  "Ġbunny": 1090,
  "Ġcatch": 1091,
  "Ġfro": 1092,
  "ting": 1093,
  "uch": 1094,
  "owl": 1095,
  "Ġmouse": 1096,
  "Ġbre": 1097,
  "Ġdress": 1098,
  "irrel": 1099,
  "so": 1100,
  "Ġdraw": 1101,
  "Her": 1102,
  "Ġalso": 1103,
  "Ġjumped": 1104,
  "Ġmon": 1105,
  "Ġface": 1106,
  "Ġothers": 1107,
  "Ġstopped": 1108,
  "ens": 1109,
  "Ġsquirrel": 1110,
  "Ġeveryone": 1111,
  "Ġstick": 1112,
  "Ġbrave": 1113,
  "ught": 1114,
  "Ġcalled": 1115,
  "Ġsing": 1116,
  "Ġsat": 1117,
  "irst": 1118,
  "ane": 1119,
  "Ġkid": 1120,
  "Ġfrog": 1121,
  "Ġadventure": 1122,
  "Ġcont": 1123,
  "Ġkept": 1124,
  "ĠBilly": 1125,
  "ious": 1126,
  "ĠIn": 1127,
  "Ġgame": 1128,
  "Ġneeded": 1129,
  "ĠR": 1130,
  "Ġbutterfly": 1131,
  "Ġuse": 1132,
  "Ġsoon": 1133,
  "ired": 1134,
  "ndma": 1135,
  "Ġwarm": 1136,
  "led": 1137,
  "Ġslide": 1138,
  "Ġsometimes": 1139,
  "oy": 1140,
  "Ġwalking": 1141,
  "Ġsand": 1142,
  "Ġright": 1143,
  "ĠC": 1144,
  "ppy": 1145,
  "Ġhaving": 1146,
  "Ġforg": 1147,
  "Ġfeeling": 1148,
  "Ġpain": 1149,
  "Ġpie": 1150,
  "Ġdif": 1151,
  "Ġflower": 1152,
  "uffy": 1153,
  "Ġrest": 1154,
  "Ġey": 1155,
  "Ġthr": 1156,
  "dded": 1157,
  "Ġhear": 1158,
  "ĠAnna": 1159,
  "ken": 1160,
  "Ġangry": 1161,
  "Ġnight": 1162,
  "Ġwork": 1163,
  "Ġremembered": 1164,
  "ath": 1165,
  "ol": 1166,
  "day": 1167,
  "Wow": 1168,
  "ĠSally": 1169,
  "ued": 1170,
  "Ġice": 1171,
  "'re": 1172,
  "Ġkids": 1173,
  "ĠCan": 1174,
  "zy": 1175,
  "iced": 1176,
  "joy": 1177,
  "Ġdis": 1178,
  "Ġopen": 1179,
  "Ġsure": 1180,
  "Mommy": 1181,
  "Ġthre": 1182,
  "Ġtri": 1183,
  "Look": 1184,
  "Ġour": 1185,
  "Ġsmile": 1186,
  "Ġtired": 1187,
  "Ġmean": 1188,
  "From": 1189,
  "He": 1190,
  "ange": 1191,
  "itc": 1192,
  "Ġus": 1193,
  "Ġbuy": 1194,
  "Ġsoft": 1195,
  "Ġdin": 1196,
  "Ġhat": 1197,
  "Ġcr": 1198,
  "us": 1199,
  "Ġbirds": 1200,
  "Ġcra": 1201,
  "Ġused": 1202,
  "Ġprom": 1203,
  "Ġhead": 1204,
  "Ġfire": 1205,
  "ĠK": 1206,
  "Ġsleep": 1207,
  "Ġlooking": 1208,
  "ster": 1209,
  "Ġbeh": 1210,
  "Ġdel": 1211,
  "Ġbrother": 1212,
  "ner": 1213,
  "Ġfirst": 1214,
  "Ġenjoy": 1215,
  "Ġcontin": 1216,
  "Ġba": 1217,
  "Ġgreen": 1218,
  "Ġhole": 1219,
  "Ġclos": 1220,
  "Ġsound": 1221,
  "itchen": 1222,
  "Ġkitchen": 1223,
  "Ġask": 1224,
  "Ġlady": 1225,
  "ĠFl": 1226,
  "ng": 1227,
  "Ġhands": 1228,
  "ount": 1229,
  "Ġwear": 1230,
  "gan": 1231,
  "uit": 1232,
  "Ġnodded": 1233,
  "Hi": 1234,
  "Ġwatched": 1235,
  "ĠDo": 1236,
  "Ġcut": 1237,
  "Ġcontinued": 1238,
  "Ġprin": 1239,
  "Ġeyes": 1240,
  "Ġmaking": 1241,
  "Ġz": 1242,
  "Ġmess": 1243,
  "Ġduck": 1244,
  "Ġparty": 1245,
  "Ġfunny": 1246,
  "ello": 1247,
  "Ġflo": 1248,
  "Hello": 1249,
  "fere": 1250,
  "Ġdiffere": 1251,
  "llow": 1252,
  "Ġdr": 1253,
  "ident": 1254,
  "Ġbel": 1255,
  "Ġtown": 1256,
  "itty": 1257,
  "Ġtast": 1258,
  "Ġdir": 1259,
  "Ġyell": 1260,
  "Ġcand": 1261,
  "air": 1262,
  "Ġtell": 1263,
  "Ġmis": 1264,
  "Ġacc": 1265,
  "Ġpiece": 1266,
  "ient": 1267,
  "Ġcried": 1268,
  "que": 1269,
  "Ġmoral": 1270,
  "maz": 1271,
  "Ġtwo": 1272,
  "Ġdro": 1273,
  "Ġamaz": 1274,
  "ph": 1275,
  "Ġnoticed": 1276,
  "Ġhid": 1277,
  "Ġpond": 1278,
  "ear": 1279,
  "Ġworked": 1280,
  "Ġcold": 1281,
  "Ġswim": 1282,
  "Ġread": 1283,
  "Ġhot": 1284,
  "Ġaccident": 1285,
  "ĠJo": 1286,
  "Ġbroken": 1287,
  "Ġbri": 1288,
  "Ġfollow": 1289,
  "Ġru": 1290,
  "Ġturned": 1291,
  "Ġfarm": 1292,
  "Ġar": 1293,
  "Ġlion": 1294,
  "where": 1295,
  "Ġagre": 1296,
  "ect": 1297,
  "ĠMr": 1298,
  "Ġrace": 1299,
  "Ġcool": 1300,
  "aybe": 1301,
  "Ġdaddy": 1302,
  "Ġdifferent": 1303,
  "Ġquick": 1304,
  "Ben": 1305,
  "Ġtrees": 1306,
  "weet": 1307,
  "Ġhun": 1308,
  "Ġcookies": 1309,
  "Ġsweet": 1310,
  "oney": 1311,
  "Ġgrandma": 1312,
  "Ġbag": 1313,
  "Ġplease": 1314,
  "Ġtalk": 1315,
  "ĠFluffy": 1316,
  "We": 1317,
  "ĠG": 1318,
  "Ġthing": 1319,
  "Ġpull": 1320,
  "Ġscary": 1321,
  "Ġhop": 1322,
  "Ġstop": 1323,
  "orn": 1324,
  "Ġbehind": 1325,
  "Ġhair": 1326,
  "Max": 1327,
  "ered": 1328,
  "Ġsurprise": 1329,
  "Ġper": 1330,
  "Ġexplore": 1331,
  "Ġthink": 1332,
  "Ġcream": 1333,
  "Ġhelping": 1334,
  "Ġclimbed": 1335,
  "ĠFin": 1336,
  "Ġsong": 1337,
  "Ġtop": 1338,
  "Ġbar": 1339,
  "Ġtall": 1340,
  "Ġgrass": 1341,
  "ĠAs": 1342,
  "Ġmove": 1343,
  "hn": 1344,
  "Ġlistened": 1345,
  "Ġdri": 1346,
  "Ġrunning": 1347,
  "Ġwrong": 1348,
  "Ġturn": 1349,
  "Ġcuri": 1350,
  "Ġbuild": 1351,
  "Ġfriendly": 1352,
  "Ġdark": 1353,
  "Ġdinner": 1354,
  "aper": 1355,
  "Ġowner": 1356,
  "Ġcars": 1357,
  "Ġcurious": 1358,
  "Ġsho": 1359,
  "Then": 1360,
  "Ġtable": 1361,
  "Ġagreed": 1362,
  "Ġshared": 1363,
  "ike": 1364,
  "Ġcla": 1365,
  "Ġbright": 1366,
  "Ġcoming": 1367,
  "Ġcloser": 1368,
  "Ġlearn": 1369,
  "Ġfloor": 1370,
  "ced": 1371,
  "Ġquickly": 1372,
  "Ġdance": 1373,
  "oice": 1374,
  "ucky": 1375,
  "ĠMommy": 1376,
  "Ġhungry": 1377,
  "Ġanother": 1378,
  "Ġblock": 1379,
  "Ġdream": 1380,
  "sy": 1381,
  "Ġswing": 1382,
  "Ġhere": 1383,
  "ĠNow": 1384,
  "ĠTweet": 1385,
  "Ġmight": 1386,
  "Ġdoing": 1387,
  "ĠKitty": 1388,
  "Ġaccidentally": 1389,
  "At": 1390,
  "nts": 1391,
  "Ġteddy": 1392,
  "ign": 1393,
  "ather": 1394,
  "Ġforgot": 1395,
  "ittens": 1396,
  "Ġbroke": 1397,
  "Ġwet": 1398,
  "Ġleaves": 1399,
  "Ġtouch": 1400,
  "Ġshar": 1401,
  "Ġstuck": 1402,
  "Ġsmell": 1403,
  "Ġtail": 1404,
  "So": 1405,
  "lly": 1406,
  "key": 1407,
  "Ġunderst": 1408,
  "Ġbrought": 1409,
  "Later": 1410,
  "Ġhimself": 1411,
  "Ġhide": 1412,
  "asure": 1413,
  "ards": 1414,
  "Ġherself": 1415,
  "Why": 1416,
  "Ġwood": 1417,
  "Ġleft": 1418,
  "Ġgone": 1419,
  "pe": 1420,
  "Ġvis": 1421,
  "Ġpaper": 1422,
  "bo": 1423,
  "Ġpromised": 1424,
  "rot": 1425,
  "Ġwhy": 1426,
  "Ġlight": 1427,
  "Ġpretend": 1428,
  "icy": 1429,
  "Ġgrate": 1430,
  "âĢĿ": 1431,
  "Ġyard": 1432,
  "âĢľ": 1433,
  "Ġfinished": 1434,
  "Ġclose": 1435,
  "Ġdelic": 1436,
  "Ġgrateful": 1437,
  "Ġcandy": 1438,
  "Ġfair": 1439,
  "gg": 1440,
  "Ġperf": 1441,
  "Ġready": 1442,
  "Ġplan": 1443,
  "ĠThis": 1444,
  "Ġanything": 1445,
  "bye": 1446,
  "Ġvoice": 1447,
  "Ġglad": 1448,
  "Ġtrying": 1449,
  "Ġcolors": 1450,
  "av": 1451,
  "Ġreally": 1452,
  "Ġhas": 1453,
  "Ġtight": 1454,
  "Ġowl": 1455,
  "Ġride": 1456,
  "Oh": 1457,
  "Ġthrough": 1458,
  "Ġhill": 1459,
  "ield": 1460,
  "Ġballoon": 1461,
  "Ġtrain": 1462,
  "ĠAfter": 1463,
  "oup": 1464,
  "Ġpuppy": 1465,
  "oom": 1466,
  "Ġwished": 1467,
  "row": 1468,
  "cess": 1469,
  "Ġwindow": 1470,
  "ached": 1471,
  "Ġsunny": 1472,
  "ĠThat": 1473,
  "Ġshout": 1474,
  "Ġfall": 1475,
  "Ġhold": 1476,
  "isy": 1477,
  "Ġfruit": 1478,
  "Ġve": 1479,
  "ĠSarah": 1480,
  "Ġfull": 1481,
  "Ġsnow": 1482,
  "bbed": 1483,
  "'ll": 1484,
  "Ġpictures": 1485,
  "Ġbegan": 1486,
  "Ġpink": 1487,
  "set": 1488,
  "ation": 1489,
  "Ġyellow": 1490,
  "Ġworld": 1491,
  "Ġeverywhere": 1492,
  "Ġbeen": 1493,
  "ctor": 1494,
  "Ġseen": 1495,
  "Ġless": 1496,
  "Ġdirty": 1497,
  "Ġsomeone": 1498,
  "Ġpare": 1499,
  "Ġgrow": 1500,
  "Ġwonder": 1501,
  "Ġvisit": 1502,
  "ssed": 1503,
  "stle": 1504,
  "Ġju": 1505,
  "co": 1506,
  "Ġmoment": 1507,
  "Ġflying": 1508,
  "Ġeating": 1509,
  "af": 1510,
  "Ġroll": 1511,
  "Ġnest": 1512,
  "Ġgoodbye": 1513,
  "ĠMittens": 1514,
  "Ġcount": 1515,
  "Ġland": 1516,
  "ac": 1517,
  "Ġdoes": 1518,
  "avy": 1519,
  "ask": 1520,
  "Okay": 1521,
  "Ġonly": 1522,
  "Ġset": 1523,
  "Ġblocks": 1524,
  "Ġsit": 1525,
  "Ġbran": 1526,
  "Ġste": 1527,
  "Ġsear": 1528,
  "Ġbreak": 1529,
  "Ġbaby": 1530,
  "Ġmar": 1531,
  "Ġpat": 1532,
  "Ġname": 1533,
  "Ġmus": 1534,
  "Ġdone": 1535,
  "Ġhappen": 1536,
  "Ġwin": 1537,
  "Ġapple": 1538,
  "Ġair": 1539,
  "Ġmonkey": 1540,
  "amp": 1541,
  "red": 1542,
  "ons": 1543,
  "Ġbooks": 1544,
  "thy": 1545,
  "Ġslow": 1546,
  "ĠâĢľ": 1547,
  "ĠDad": 1548,
  "Ġcolorful": 1549,
  "Ġwaited": 1550,
  "Ġcomp": 1551,
  "Ġyes": 1552,
  "Ġpre": 1553,
  "Ġreached": 1554,
  "orm": 1555,
  "Ġcrying": 1556,
  "der": 1557,
  "Ġlaugh": 1558,
  "Ġbit": 1559,
  "ained": 1560,
  "Ġarm": 1561,
  "Ġbeach": 1562,
  "Ġgent": 1563,
  "os": 1564,
  "Ġclot": 1565,
  "Ġwon": 1566,
  "Ġclothes": 1567,
  "ries": 1568,
  "zz": 1569,
  "Ġreach": 1570,
  "Ġcarrot": 1571,
  "Ġplant": 1572,
  "Ġcup": 1573,
  "Ġheld": 1574,
  "Ġpus": 1575,
  "illed": 1576,
  "Ġwasn": 1577,
  "Ġpen": 1578,
  "ister": 1579,
  "ix": 1580,
  "de": 1581,
  "Ġfight": 1582,
  "ash": 1583,
  "ste": 1584,
  "Ġupset": 1585,
  "Ġfre": 1586,
  "Ġwise": 1587,
  "Ġpro": 1588,
  "Ġthank": 1589,
  "Ġsister": 1590,
  "gon": 1591,
  "stead": 1592,
  "Ġfinally": 1593,
  "Ġheavy": 1594,
  "ames": 1595,
  "Ġpol": 1596,
  "Ġparents": 1597,
  "room": 1598,
  "up": 1599,
  "Ġenjoyed": 1600,
  "Ġtreasure": 1601,
  "Ġmat": 1602,
  "Ġtowards": 1603,
  "Sure": 1604,
  "Ġpaint": 1605,
  "Ġeverything": 1606,
  "Ġmusic": 1607,
  "She": 1608,
  "Ġbike": 1609,
  "Ġtreat": 1610,
  "ance": 1611,
  "Ġcastle": 1612,
  "Ġear": 1613,
  "ower": 1614,
  "Ġalone": 1615,
  "Ġlesson": 1616,
  "Ġjob": 1617,
  "Ġdelicious": 1618,
  "Ġspl": 1619,
  "Ġsail": 1620,
  "Ġnap": 1621,
  "Ġmonster": 1622,
  "ott": 1623,
  "Ġdanger": 1624,
  "Ġbigger": 1625,
  "Ġchild": 1626,
  "Ġgetting": 1627,
  "Ġjoin": 1628,
  "Ġcloud": 1629,
  "gle": 1630,
  "Ġwoods": 1631,
  "Ġfollowed": 1632,
  "His": 1633,
  "cle": 1634,
  "sc": 1635,
  "ĠTommy": 1636,
  "Ġunderstand": 1637,
  "Ġwoke": 1638,
  "ich": 1639,
  "ĠEm": 1640,
  "art": 1641,
  "ully": 1642,
  "ĠJohn": 1643,
  "Ġhopped": 1644,
  "ĠO": 1645,
  "Ġmix": 1646,
  "Ġswings": 1647,
  "Ġmoney": 1648,
  "Ġdoctor": 1649,
  "Ġarri": 1650,
  "Ġele": 1651,
  "ĠEveryone": 1652,
  "Ġspot": 1653,
  "ream": 1654,
  "less": 1655,
  "Ġswam": 1656,
  "llie": 1657,
  "Ġpot": 1658,
  "fully": 1659,
  "Ġlooks": 1660,
  "Sam": 1661,
  "Ġbath": 1662,
  "Ġwall": 1663,
  "Ġje": 1664,
  "ast": 1665,
  "Ġgames": 1666,
  "Ġem": 1667,
  "Ġwithout": 1668,
  "Ġdry": 1669,
  "âĢĻ": 1670,
  "Ġblew": 1671,
  "ze": 1672,
  "outh": 1673,
  "aught": 1674,
  "Ġmouth": 1675,
  "ĠThere": 1676,
  "Ġfur": 1677,
  "ub": 1678,
  "This": 1679,
  "Ġgrabbed": 1680,
  "ey": 1681,
  "Ġbor": 1682,
  "Ġriver": 1683,
  "Ġbott": 1684,
  "Ġmust": 1685,
  "Ġfield": 1686,
  "ves": 1687,
  "Ġsnack": 1688,
  "man": 1689,
  "Ġbite": 1690,
  "Ġshouted": 1691,
  "Ġcaught": 1692,
  "Ġgif": 1693,
  "Ġpulled": 1694,
  "ins": 1695,
  "oc": 1696,
  "Ġarrived": 1697,
  "Ġheal": 1698,
  "Ġtower": 1699,
  "Ġdeep": 1700,
  "Ġpushed": 1701,
  "Ġhit": 1702,
  "Ġexplained": 1703,
  "Ġrel": 1704,
  "Do": 1705,
  "Ġword": 1706,
  "Ġpet": 1707,
  "aisy": 1708,
  "Ġchair": 1709,
  "Ġtiny": 1710,
  "lue": 1711,
  "cy": 1712,
  "Ġleg": 1713,
  "ĠBobo": 1714,
  "Ġgu": 1715,
  "Ġpieces": 1716,
  "unch": 1717,
  "sp": 1718,
  "ĠAll": 1719,
  "Ġstayed": 1720,
  "let": 1721,
  "Ġthrew": 1722,
  "iss": 1723,
  "Ġdangerous": 1724,
  "Sara": 1725,
  "ĠWhat": 1726,
  "Sue": 1727,
  "Anna": 1728,
  "In": 1729,
  "Ġwaved": 1730,
  "Ġbee": 1731,
  "chool": 1732,
  "Ġside": 1733,
  "Ġwouldn": 1734,
  "fort": 1735,
  "Ġsea": 1736,
  "Ġcarefully": 1737,
  "cket": 1738,
  "Ġable": 1739,
  "Ġfree": 1740,
  "Ġwhite": 1741,
  "eared": 1742,
  "Ġschool": 1743,
  "Ġblack": 1744,
  "Ġsilly": 1745,
  "Ġperfect": 1746,
  "Ġworried": 1747,
  "iet": 1748,
  "Ġel": 1749,
  "gged": 1750,
  "Ġblank": 1751,
  "Ġkey": 1752,
  "Ġbranch": 1753,
  "Ġcour": 1754,
  "Ġclapped": 1755,
  "Ġquiet": 1756,
  "Ġenough": 1757,
  "itting": 1758,
  "Ġelse": 1759,
  "Ġbowl": 1760,
  "Ġblanket": 1761,
  "Ġfox": 1762,
  "ocked": 1763,
  "ated": 1764,
  "Ġadventures": 1765,
  "Ġcourse": 1766,
  "ence": 1767,
  "come": 1768,
  "Ġking": 1769,
  "ĠJane": 1770,
  "Ġamazed": 1771,
  "Ġtalked": 1772,
  "pping": 1773,
  "oun": 1774,
  "ila": 1775,
  "Ġdropped": 1776,
  "Ġfarmer": 1777,
  "Ġtoday": 1778,
  "Ġdrink": 1779,
  "Ġque": 1780,
  "bor": 1781,
  "ĠBlue": 1782,
  "Ġsec": 1783,
  "Ġmother": 1784,
  "Just": 1785,
  "Ġsharing": 1786,
  "Ġtom": 1787,
  "Ġgi": 1788,
  "Ġsoup": 1789,
  "Ġant": 1790,
  "Ġprincess": 1791,
  "Ġfairy": 1792,
  "Ġspr": 1793,
  "phant": 1794,
  "Ġbring": 1795,
  "Ġsandw": 1796,
  "Ġsick": 1797,
  "ier": 1798,
  "Ġwell": 1799,
  "ord": 1800,
  "Ġsees": 1801,
  "Ġbat": 1802,
  "ek": 1803,
  "Ġatt": 1804,
  "Ġinstead": 1805,
  "Ġdanced": 1806,
  "Ġamazing": 1807,
  "Ġjar": 1808,
  "og": 1809,
  "Ġpoin": 1810,
  "yard": 1811,
  "Ġelephant": 1812,
  "Ġbackyard": 1813,
  "Ġrocks": 1814,
  "ract": 1815,
  "Ġpudd": 1816,
  "Ġwish": 1817,
  "Ġclosed": 1818,
  "Ġlate": 1819,
  "spec": 1820,
  "Ġdolls": 1821,
  "Ġthree": 1822,
  "ming": 1823,
  "Ġthough": 1824,
  "Mia": 1825,
  "cked": 1826,
  "Ġmail": 1827,
  "Ġsmart": 1828,
  "Ġmorning": 1829,
  "Ġpack": 1830,
  "ible": 1831,
  "Ġpig": 1832,
  "ee": 1833,
  "Ġcray": 1834,
  "Ġstorm": 1835,
  "ses": 1836,
  "Ġneigh": 1837,
  "ren": 1838,
  "Ġdragon": 1839,
  "Ġsuch": 1840,
  "ere": 1841,
  "Ġsitting": 1842,
  "Ġwel": 1843,
  "Ġph": 1844,
  "Ġsang": 1845,
  "Ġcow": 1846,
  "Ġsearched": 1847,
  "Ġstrange": 1848,
  "iver": 1849,
  "Ġleaf": 1850,
  "asket": 1851,
  "olly": 1852,
  "Ġletter": 1853,
  "Ġbasket": 1854,
  "Ġbus": 1855,
  "Ġlunch": 1856,
  "Ġmakes": 1857,
  "ball": 1858,
  "ling": 1859,
  "While": 1860,
  "Ġmiss": 1861,
  "ang": 1862,
  "Of": 1863,
  "ased": 1864,
  "Ġfew": 1865,
  "Ġcreat": 1866,
  "Ġcrab": 1867,
  "ross": 1868,
  "Ġsign": 1869,
  "Ġcute": 1870,
  "ined": 1871,
  "Fin": 1872,
  "ĠSammy": 1873,
  "ĠTo": 1874,
  "Ġbarked": 1875,
  "Ġjuice": 1876,
  "bble": 1877,
  "\".": 1878,
  "ĠTeddy": 1879,
  "used": 1880,
  "Ġturns": 1881,
  "Ġneck": 1882,
  "ever": 1883,
  "Ġorange": 1884,
  "Ġbelie": 1885,
  "Ġmud": 1886,
  "Ġpurp": 1887,
  "Ġwings": 1888,
  "irt": 1889,
  "Ġwore": 1890,
  "ese": 1891,
  "Ġstre": 1892,
  "Ġcarry": 1893,
  "pper": 1894,
  "ire": 1895,
  "Ġcheese": 1896,
  "Ġwar": 1897,
  "Ġsecret": 1898,
  "Ġneighbor": 1899,
  "Ġhig": 1900,
  "Ġbrown": 1901,
  "uddy": 1902,
  "Ġpast": 1903,
  "Ġfan": 1904,
  "Ġgift": 1905,
  "Ġpurple": 1906,
  "Ġpatient": 1907,
  "Ġben": 1908,
  "igg": 1909,
  "Ġfixed": 1910,
  "itten": 1911,
  "Ġbelong": 1912,
  "Ġapples": 1913,
  "me": 1914,
  "Ġchildren": 1915,
  "Ġhiding": 1916,
  "Ġyear": 1917,
  "ĠDaisy": 1918,
  "Ġsmo": 1919,
  "Ġtaking": 1920,
  "Ġegg": 1921,
  "Ġshoes": 1922,
  "Ġspid": 1923,
  "app": 1924,
  "Ġfaster": 1925,
  "Ġbought": 1926,
  "Ġwhe": 1927,
  "Ġboun": 1928,
  "Ġroad": 1929,
  "Ġdist": 1930,
  "Jo": 1931,
  "Ġstu": 1932,
  "Ġround": 1933,
  "Ġfit": 1934,
  "Ġbutt": 1935,
  "Ġwelcome": 1936,
  "Ġseem": 1937,
  "Ġbottle": 1938,
  "vel": 1939,
  "ĠFinally": 1940,
  "blem": 1941,
  "Ġcolle": 1942,
  "Ġproblem": 1943,
  "br": 1944,
  "Ġsuddenly": 1945,
  "isk": 1946,
  "Ġsinging": 1947,
  "Ġhor": 1948,
  "Ġmil": 1949,
  "ĠMaybe": 1950,
  "Ġthrow": 1951,
  "ises": 1952,
  "ipped": 1953,
  "Ġfilled": 1954,
  "Ġsug": 1955,
  "Ġjun": 1956,
  "ĠInside": 1957,
  "Ġsnake": 1958,
  "ail": 1959,
  "board": 1960,
  "Ġbench": 1961,
  "Ġhelpful": 1962,
  "Ġhigher": 1963,
  "Ġshap": 1964,
  "Ġmilk": 1965,
  "Ġlikes": 1966,
  "Ġwagged": 1967,
  "irth": 1968,
  "ian": 1969,
  "Ġdisapp": 1970,
  "irthday": 1971,
  "Ġcraw": 1972,
  "onely": 1973,
  "Ġlonely": 1974,
  "Ġdays": 1975,
  "Ġtrip": 1976,
  "fused": 1977,
  "fish": 1978,
  "Ġtrou": 1979,
  "Ġheart": 1980,
  "ining": 1981,
  "Ġpocket": 1982,
  "Ġcozy": 1983,
  "Ġnose": 1984,
  "unt": 1985,
  "Ġbuck": 1986,
  "Ġband": 1987,
  "emo": 1988,
  "Ġforever": 1989,
  "Spot": 1990,
  "Ġtalking": 1991,
  "sw": 1992,
  "erry": 1993,
  "Ġpaw": 1994,
  "Ġmin": 1995,
  "Ġansw": 1996,
  "Ġwords": 1997,
  "Ġpers": 1998,
  "Ġhar": 1999,
  "Ġstart": 2000,
  "Bob": 2001,
  "Ġob": 2002,
  "ugg": 2003,
  "Ġinc": 2004,
  "ĠEmma": 2005,
  "Ġwhist": 2006,
  "Ġdriver": 2007,
  "iskers": 2008,
  "Ġteac": 2009,
  "aur": 2010,
  "Ġsame": 2011,
  "Ġbirthday": 2012,
  "Ġspider": 2013,
  "ĠBuddy": 2014,
  "itch": 2015,
  "Ġlake": 2016,
  "Ġstand": 2017,
  "Ġmissed": 2018,
  "ose": 2019,
  "Ġprot": 2020,
  "Ġstreet": 2021,
  "ĠDucky": 2022,
  "Lucy": 2023,
  "ass": 2024,
  "Ġmist": 2025,
  "Ġtasty": 2026,
  "Ġmark": 2027,
  "Maybe": 2028,
  "Ġhealthy": 2029,
  "Finally": 2030,
  "Ġknocked": 2031,
  "Ġkick": 2032,
  "Ġeas": 2033,
  "ĠTweety": 2034,
  "ountain": 2035,
  "Ġcoat": 2036,
  "Ġdrove": 2037,
  "Ġrolled": 2038,
  "Ġdes": 2039,
  "Ġpuddle": 2040,
  "Ġseed": 2041,
  "Ġteacher": 2042,
  "ĠBr": 2043,
  "to": 2044,
  "Ġact": 2045,
  "ĠCh": 2046,
  "Ġpop": 2047,
  "Ġban": 2048,
  "ĠJust": 2049,
  "ĠGra": 2050,
  "Ġpill": 2051,
  "cing": 2052,
  "Ġwants": 2053,
  "Ġbelieve": 2054,
  "Ġshell": 2055,
  "Ġbirdie": 2056,
  "fortable": 2057,
  "Ġgrew": 2058,
  "idge": 2059,
  "Ġbow": 2060,
  "Ġhoney": 2061,
  "Ġbush": 2062,
  "eb": 2063,
  "Ġval": 2064,
  "Ġcover": 2065,
  "Ġspo": 2066,
  "Ġappeared": 2067,
  "Ġcollect": 2068,
  "Ġteach": 2069,
  "Ġbanan": 2070,
  "Ġspin": 2071,
  "Ġgentle": 2072,
  "Ġcookie": 2073,
  "ĠSoon": 2074,
  "Ġlanded": 2075,
  "ato": 2076,
  "Ġshining": 2077,
  "ale": 2078,
  "bow": 2079,
  "Ġorgan": 2080,
  "Ġdrew": 2081,
  "ĠNemo": 2082,
  "ĠWhiskers": 2083,
  "Ġ-": 2084,
  "ize": 2085,
  "Ġlater": 2086,
  "Ġshop": 2087,
  "Ġpower": 2088,
  "Ġmagical": 2089,
  "ĠAt": 2090,
  "Ġpart": 2091,
  "ĠBrown": 2092,
  "Ġliving": 2093,
  "Ġmost": 2094,
  "Ġkite": 2095,
  "ches": 2096,
  "Ġsharp": 2097,
  "alm": 2098,
  "Ġfence": 2099,
  "umb": 2100,
  "Ġshy": 2101,
  "Ġsandwich": 2102,
  "Ġlaughing": 2103,
  "ital": 2104,
  "Ġwatching": 2105,
  "Ġknee": 2106,
  "Ġwra": 2107,
  "Ġshr": 2108,
  "Ġseek": 2109,
  "Ġlonger": 2110,
  "Ġaf": 2111,
  "cer": 2112,
  "Ġrainbow": 2113,
  "Ġhosp": 2114,
  "Ġhospital": 2115,
  "Ġnut": 2116,
  "Ġfeather": 2117,
  "Ġphone": 2118,
  "Ġap": 2119,
  "ator": 2120,
  "Ġsuc": 2121,
  "Ġpract": 2122,
  "Ġsongs": 2123,
  "Ġworm": 2124,
  "umpy": 2125,
  "Ġmoved": 2126,
  "sting": 2127,
  "Ġmine": 2128,
  "Ġlive": 2129,
  "Ġshirt": 2130,
  "Ġpile": 2131,
  "Ġmad": 2132,
  "ually": 2133,
  "Ġmeet": 2134,
  "Ġhorse": 2135,
  "Ġbusy": 2136,
  "Ġsack": 2137,
  "Ġlife": 2138,
  "Ġcoo": 2139,
  "Ġspoon": 2140,
  "Ġjungle": 2141,
  "Ġcave": 2142,
  "ĠThank": 2143,
  "Ġbread": 2144,
  "epend": 2145,
  "Ġchick": 2146,
  "Jack": 2147,
  "John": 2148,
  "Ġonto": 2149,
  "Ġinv": 2150,
  "Ġbuilding": 2151,
  "aughty": 2152,
  "nic": 2153,
  "orrow": 2154,
  "Ġmed": 2155,
  "Ġnaughty": 2156,
  "Ġcou": 2157,
  "Ġpicnic": 2158,
  "Ġcart": 2159,
  "Ġcrayons": 2160,
  "Ġoven": 2161,
  "cks": 2162,
  "Ġjoy": 2163,
  "Ġpuzz": 2164,
  "Ġmum": 2165,
  "raid": 2166,
  "Ġmach": 2167,
  "Ġafraid": 2168,
  "Ġspark": 2169,
  "Ġalong": 2170,
  "Ġrob": 2171,
  "ocol": 2172,
  "ĠZ": 2173,
  "Ġcarrots": 2174,
  "Ġwonderful": 2175,
  "Ġbutton": 2176,
  "ĠLila": 2177,
  "Ġgently": 2178,
  "Ġtomorrow": 2179,
  "Ġchocol": 2180,
  "Ġbur": 2181,
  "Ġwolf": 2182,
  "Ġchased": 2183,
  "ular": 2184,
  "Ġrobot": 2185,
  "Ġexp": 2186,
  "Ġpan": 2187,
  "Ġmeant": 2188,
  "Ġtaste": 2189,
  "Ġfold": 2190,
  "Ġkitten": 2191,
  "Ġspicy": 2192,
  "adow": 2193,
  "Ġmessy": 2194,
  "Ġscream": 2195,
  "Ġlem": 2196,
  "Ġsmiles": 2197,
  "ially": 2198,
  "Ġswimming": 2199,
  "irp": 2200,
  "Ġwash": 2201,
  "una": 2202,
  "specially": 2203,
  "Ġdirt": 2204,
  "ourn": 2205,
  "mb": 2206,
  "Ġcir": 2207,
  "Ġplane": 2208,
  "Ġespecially": 2209,
  "Ġasleep": 2210,
  "Ġpour": 2211,
  "Ġthin": 2212,
  "eter": 2213,
  "Ġjourn": 2214,
  "Ġvill": 2215,
  "ĠEllie": 2216,
  "Ġholding": 2217,
  "Ġdrawing": 2218,
  "Ġpeace": 2219,
  "Ġbucket": 2220,
  "com": 2221,
  "cean": 2222,
  "Ġocean": 2223,
  "Ġfoot": 2224,
  "Ġrope": 2225,
  "Ġchocolate": 2226,
  "Please": 2227,
  "Ġcheered": 2228,
  "Ġsounds": 2229,
  "Ġtasted": 2230,
  "Ġbugs": 2231,
  "Ġshake": 2232,
  "ert": 2233,
  "Ġsave": 2234,
  "Ġzoo": 2235,
  "Ġser": 2236,
  "Ġprotect": 2237,
  "Ġdrive": 2238,
  "Ġtouc": 2239,
  "Ġshook": 2240,
  "Ġpush": 2241,
  "Ġstone": 2242,
  "Ġpromise": 2243,
  "ress": 2244,
  "oose": 2245,
  "Ġseat": 2246,
  "Good": 2247,
  "shine": 2248,
  "Ġbone": 2249,
  "Ġslowly": 2250,
  "Ġglow": 2251,
  "Ġconfused": 2252,
  "Ġmistake": 2253,
  "Ġwild": 2254,
  "ity": 2255,
  "Ġtea": 2256,
  "Ġintere": 2257,
  "Ġlucky": 2258,
  "Ġknowing": 2259,
  "Ġnearby": 2260,
  "getable": 2261,
  "Ġyoung": 2262,
  "Ġsunshine": 2263,
  "Ġcoin": 2264,
  "Ġvegetable": 2265,
  "Ġanyone": 2266,
  "lla": 2267,
  "ĠWhile": 2268,
  "Ġwhistle": 2269,
  "My": 2270,
  "llo": 2271,
  "Ġsu": 2272,
  "Ġsol": 2273,
  "Ġsmelled": 2274,
  "Ġvase": 2275,
  "ten": 2276,
  "Ġce": 2277,
  "Ġtouched": 2278,
  "Ġpres": 2279,
  "Ġcleaned": 2280,
  "Ġturt": 2281,
  "Ġmind": 2282,
  "gest": 2283,
  "izz": 2284,
  "ove": 2285,
  "ions": 2286,
  "den": 2287,
  "Ġsal": 2288,
  "Ġjoke": 2289,
  "ella": 2290,
  "Ġtreats": 2291,
  "Ġwhole": 2292,
  "gly": 2293,
  "umber": 2294,
  "Ġbake": 2295,
  "ost": 2296,
  "elly": 2297,
  "Ġfle": 2298,
  "els": 2299,
  "Ġstars": 2300,
  "Ġimag": 2301,
  "Ġpass": 2302,
  "ment": 2303,
  "Ġwave": 2304,
  "imi": 2305,
  "Be": 2306,
  "Ġugly": 2307,
  "Amy": 2308,
  "Ġhidden": 2309,
  "Ġret": 2310,
  "oop": 2311,
  "Ġmachine": 2312,
  "Ġvillage": 2313,
  "Ġdi": 2314,
  "Ġmyster": 2315,
  "Ġgray": 2316,
  "Ġcalm": 2317,
  "Ġhoped": 2318,
  "Ġturtle": 2319,
  "ĠJoe": 2320,
  "Ġfancy": 2321,
  "Ġtid": 2322,
  "Ġship": 2323,
  "ĠTV": 2324,
  "Ġsplas": 2325,
  "Ġwing": 2326,
  "Ġbubble": 2327,
  "Ġshelf": 2328,
  "Ġbell": 2329,
  "Ġwide": 2330,
  "pa": 2331,
  "Ġwhenever": 2332,
  "ife": 2333,
  "Ġclever": 2334,
  "Ġinteresting": 2335,
  "onest": 2336,
  "box": 2337,
  "bar": 2338,
  "Ġent": 2339,
  "Ġwrite": 2340,
  "Ġpresent": 2341,
  "Ġretur": 2342,
  "Ġcouch": 2343,
  "Ġspe": 2344,
  "ont": 2345,
  "Ġsour": 2346,
  "Ġrude": 2347,
  "Ġtidy": 2348,
  "Ġgiant": 2349,
  "Ġwaiting": 2350,
  "Ġshapes": 2351,
  "Ġsupp": 2352,
  "lace": 2353,
  "Ġgrumpy": 2354,
  "Ġnet": 2355,
  "Ġnecklace": 2356,
  "Ġfing": 2357,
  "Ġjelly": 2358,
  "ama": 2359,
  "Ġsur": 2360,
  ".âĢĿ": 2361,
  "kin": 2362,
  "Ġhonest": 2363,
  "Ġwondered": 2364,
  "Ġsaved": 2365,
  "erly": 2366,
  "dge": 2367,
  "Ġbark": 2368,
  "Ġfinish": 2369,
  "Ġign": 2370,
  "Ġcard": 2371,
  "mer": 2372,
  "Ġasks": 2373,
  "ĠSp": 2374,
  "barra": 2375,
  "!âĢĿ": 2376,
  "Ġstories": 2377,
  "Ġembarra": 2378,
  "Ġpillow": 2379,
  "Ġfront": 2380,
  "la": 2381,
  "Ġspoil": 2382,
  "Ġsmooth": 2383,
  "Ġzoom": 2384,
  "Ġsel": 2385,
  "Ġtightly": 2386,
  "scap": 2387,
  "Hey": 2388,
  "Ġboss": 2389,
  "Ġwearing": 2390,
  "Ġforget": 2391,
  "Ġhello": 2392,
  "Ġprince": 2393,
  "ult": 2394,
  "Ġclown": 2395,
  "Ġpizz": 2396,
  "Ġfruits": 2397,
  "Ġpuzzle": 2398,
  "Ġpath": 2399,
  "Ġsnowman": 2400,
  "Ġcloth": 2401,
  "Ġav": 2402,
  "Ġrad": 2403,
  "Ġgroup": 2404,
  "vous": 2405,
  "ĠJerry": 2406,
  "ope": 2407,
  "Ġworking": 2408,
  "lower": 2409,
  "ĠTweetie": 2410,
  "Ġpizza": 2411,
  "Ġducks": 2412,
  "Ġspray": 2413,
  "To": 2414,
  "Ġstring": 2415,
  "Ġlemon": 2416,
  "Ġyears": 2417,
  "Ġvegetables": 2418,
  "pty": 2419,
  "Ġempty": 2420,
  "Ġlad": 2421,
  "ndpa": 2422,
  "Ġhuge": 2423,
  "ness": 2424,
  "Ġtrouble": 2425,
  "Ġselfish": 2426,
  "Ġquest": 2427,
  "oppy": 2428,
  "Ġnoises": 2429,
  "Ġchew": 2430,
  "Ġfil": 2431,
  "Ġplate": 2432,
  "Ġruns": 2433,
  "urse": 2434,
  "Ġgather": 2435,
  "Ġfighting": 2436,
  "aughter": 2437,
  "ĠMimi": 2438,
  "Ġfake": 2439,
  "Ġladder": 2440,
  "Ġash": 2441,
  "Ġjew": 2442,
  "Benny": 2443,
  "Ġstra": 2444,
  "Ġpretended": 2445,
  "eo": 2446,
  "eth": 2447,
  "ward": 2448,
  "ork": 2449,
  "Ġthinks": 2450,
  "Ġpointed": 2451,
  "Ġsleepy": 2452,
  "Ġclass": 2453,
  "Ġarms": 2454,
  "Ġtrust": 2455,
  "ars": 2456,
  "Ġgrab": 2457,
  "Ġchange": 2458,
  "izzy": 2459,
  "Ġmoon": 2460,
  "Ġscar": 2461,
  "Ġmot": 2462,
  "Ġexplor": 2463,
  "Ġperson": 2464,
  "Ġcheer": 2465,
  "ensive": 2466,
  "ors": 2467,
  "Ġslid": 2468,
  "Ġacross": 2469,
  "Ġlay": 2470,
  "Ġchest": 2471,
  "Ġvan": 2472,
  "Ġclouds": 2473,
  "Ġring": 2474,
  "Ġdecor": 2475,
  "Ġline": 2476,
  "Ġner": 2477,
  "Ġsheep": 2478,
  "ĠBella": 2479,
  "Ġexpensive": 2480,
  "uce": 2481,
  "Ġnervous": 2482,
  "ipe": 2483,
  "Ġlazy": 2484,
  "est": 2485,
  "Ġpool": 2486,
  "Ġjumping": 2487,
  "Now": 2488,
  "Ġscre": 2489,
  "Ġlegs": 2490,
  "ĠGrandma": 2491,
  "Ġstepped": 2492,
  "work": 2493,
  "Ġdogs": 2494,
  "Ġtwins": 2495,
  "emy": 2496,
  "Ġstep": 2497,
  "Ġtie": 2498,
  "Ġdrank": 2499,
  "Ġsearch": 2500,
  "Ġlift": 2501,
  "era": 2502,
  "imed": 2503,
  "Ġhang": 2504,
  "Ġsmelly": 2505,
  "Ġeasy": 2506,
  "Ġcarried": 2507,
  "ĠDaddy": 2508,
  "Ġfeels": 2509,
  "Ġreg": 2510,
  "Ġembarrassed": 2511,
  "Ġchase": 2512,
  "Ġbeak": 2513,
  "Ġlovely": 2514,
  "Ġdeer": 2515,
  "Ġsold": 2516,
  "Ġremind": 2517,
  "osaur": 2518,
  "Ġsnacks": 2519,
  "Ġdaughter": 2520,
  "Ġqueen": 2521,
  "Ġpolice": 2522,
  "Ġpin": 2523,
  "Ġwhich": 2524,
  "Ġcleaning": 2525,
  "Ġweak": 2526,
  "iting": 2527,
  "Ġbal": 2528,
  "ĠBu": 2529,
  "Ġtool": 2530,
  "Ġpri": 2531,
  "Ġcro": 2532,
  "Ġballs": 2533,
  "Ġdinosaur": 2534,
  "Ġyog": 2535,
  "Ġhum": 2536,
  "Ġsweetie": 2537,
  "ggy": 2538,
  "Ġdrum": 2539,
  "Ġplaces": 2540,
  "Ġsticks": 2541,
  "Ġgun": 2542,
  "Ġbossy": 2543,
  "isa": 2544,
  "Ġcloset": 2545,
  "Ġunderstood": 2546,
  "Ġrocket": 2547,
  "ĠJen": 2548,
  "Ġlast": 2549,
  "ush": 2550,
  "Ġlaw": 2551,
  "Ġgold": 2552,
  "Ġteeth": 2553,
  "Ġmov": 2554,
  "Ġstir": 2555,
  "amed": 2556,
  "oman": 2557,
  "Ġwoman": 2558,
  "Ġcreative": 2559,
  "ĠSn": 2560,
  "ĠMy": 2561,
  "Ġpassed": 2562,
  "Ġplants": 2563,
  "Ġstood": 2564,
  "And": 2565,
  "Ġrelie": 2566,
  "Ġpolite": 2567,
  "Ġpowerful": 2568,
  "Ġfurry": 2569,
  "Ġhero": 2570,
  "OK": 2571,
  "Ġhope": 2572,
  "Ġsugar": 2573,
  "laimed": 2574,
  "ĠTogether": 2575,
  "erp": 2576,
  "ĠLeo": 2577,
  "Ġexclaimed": 2578,
  "Ġlead": 2579,
  "Ġsplash": 2580,
  "Ġblow": 2581,
  "Ġmountain": 2582,
  "Ġpay": 2583,
  "Ġsell": 2584,
  "ĠJohnny": 2585,
  "scape": 2586,
  "Ġrich": 2587,
  "Ġanswer": 2588,
  "Ġseemed": 2589,
  "erries": 2590,
  "Ġeag": 2591,
  "Ġberries": 2592,
  "ĠBrownie": 2593,
  "erpill": 2594,
  "Ġcaterpill": 2595,
  "Ġcheck": 2596,
  "ond": 2597,
  "Ġpeaceful": 2598,
  "oof": 2599,
  "Ġsuccess": 2600,
  "Ġmedic": 2601,
  "lves": 2602,
  "Ġmap": 2603,
  "Ġgen": 2604,
  "owed": 2605,
  "Ġmedicine": 2606,
  "roph": 2607,
  "Ġweird": 2608,
  "Ġshark": 2609,
  "Ġdancing": 2610,
  "Ġfear": 2611,
  "Ġsort": 2612,
  "Ġcri": 2613,
  "ti": 2614,
  "Ġspilled": 2615,
  "Ġnothing": 2616,
  "Ġwand": 2617,
  "ĠBunny": 2618,
  "itter": 2619,
  "Ġmatter": 2620,
  "Ġtest": 2621,
  "Ġmotor": 2622,
  "Ġdish": 2623,
  "Ġstret": 2624,
  "ĠFred": 2625,
  "Ġcaterpillar": 2626,
  "Ġdisco": 2627,
  "het": 2628,
  "arge": 2629,
  "Ġspace": 2630,
  "ual": 2631,
  "ĠEmily": 2632,
  "Ġfamous": 2633,
  "Ġhappening": 2634,
  "Ġchicken": 2635,
  "Ġones": 2636,
  "aghet": 2637,
  "aghetti": 2638,
  "Ġrelieved": 2639,
  "Ġlock": 2640,
  "rag": 2641,
  "Ġscare": 2642,
  "Ġboring": 2643,
  "ipp": 2644,
  "Ġtummy": 2645,
  "Ġspaghetti": 2646,
  "Ġmysterious": 2647,
  "ĠRemy": 2648,
  "Ġgigg": 2649,
  "Ġlose": 2650,
  "Ġclear": 2651,
  "aving": 2652,
  "Ġadm": 2653,
  "ĠOn": 2654,
  "Ġmaybe": 2655,
  "lebr": 2656,
  "St": 2657,
  "ometimes": 2658,
  "oomy": 2659,
  "Ġprint": 2660,
  "Ġrec": 2661,
  "arl": 2662,
  "Ġcelebr": 2663,
  "Ġtaught": 2664,
  "Ġspent": 2665,
  "Ġwhale": 2666,
  "Ġmixed": 2667,
  "Ġdizzy": 2668,
  "Ġcrown": 2669,
  "Ġmatch": 2670,
  "Ġjourney": 2671,
  "Ġord": 2672,
  "Ġtig": 2673,
  "Ġrare": 2674,
  "Ġasking": 2675,
  "ume": 2676,
  "Ġglass": 2677,
  "Ġmic": 2678,
  "Ġpump": 2679,
  "Ġtowel": 2680,
  "Ġforgive": 2681,
  "ustr": 2682,
  "Ġmissing": 2683,
  "Ġcage": 2684,
  "Ġorganized": 2685,
  "Ġsoap": 2686,
  "Ġrough": 2687,
  "Ġhugs": 2688,
  "pack": 2689,
  "Ġteam": 2690,
  "airs": 2691,
  "Ġfinding": 2692,
  "not": 2693,
  "Ġmoving": 2694,
  "Ġpoor": 2695,
  "Ġfeet": 2696,
  "bles": 2697,
  "Ġhur": 2698,
  "Ġlarge": 2699,
  "ĠOllie": 2700,
  "Ġnoisy": 2701,
  "Ġgate": 2702,
  "Ġballoons": 2703,
  "ser": 2704,
  "oot": 2705,
  "ĠJim": 2706,
  "Ġslipped": 2707,
  "Ġfrustr": 2708,
  "Ġnorm": 2709,
  "Ġtick": 2710,
  "ĠRed": 2711,
  "port": 2712,
  "Ġcannot": 2713,
  "Ġstuff": 2714,
  "Ġpray": 2715,
  "Ġfaces": 2716,
  "aking": 2717,
  "Ġtrue": 2718,
  "Ġspend": 2719,
  "Ġsnee": 2720,
  "ĠBun": 2721,
  "ute": 2722,
  "ote": 2723,
  "Ġnormal": 2724,
  "Ġglue": 2725,
  "Ġjack": 2726,
  "Ġcomes": 2727,
  "Ġstraw": 2728,
  "Ġoften": 2729,
  "Ġborrow": 2730,
  "isp": 2731,
  "Ġsplashed": 2732,
  "Ġjewel": 2733,
  "ory": 2734,
  "ado": 2735,
  "Ġbald": 2736,
  "Ġhunt": 2737,
  "Ġrid": 2738,
  "iff": 2739,
  "Ġcomfortable": 2740,
  "Ġbanana": 2741,
  "Ġcovered": 2742,
  "Ġbecome": 2743,
  "ragile": 2744,
  "Ġgener": 2745,
  "anut": 2746,
  "Ġshoot": 2747,
  "ventually": 2748,
  "ique": 2749,
  "ilt": 2750,
  "Ġignor": 2751,
  "Ġguit": 2752,
  "zed": 2753,
  "Ġants": 2754,
  "Ġfrustrated": 2755,
  "Ġtoug": 2756,
  "alous": 2757,
  "ĠBet": 2758,
  "Ġmarch": 2759,
  "Ġmir": 2760,
  "Ġunique": 2761,
  "Ġjealous": 2762,
  "Ġflag": 2763,
  "Ġfragile": 2764,
  "olog": 2765,
  "unk": 2766,
  "Ġjacket": 2767,
  "ror": 2768,
  "Ġnumber": 2769,
  "aw": 2770,
  "Ġbreath": 2771,
  "Ġnote": 2772,
  "Ġfeed": 2773,
  "ones": 2774,
  "und": 2775,
  "Ġmel": 2776,
  "Ġtough": 2777,
  "Ġapolog": 2778,
  "Ġlamp": 2779,
  "ĠWhy": 2780,
  "ĠMark": 2781,
  "Ġashamed": 2782,
  "Ġtent": 2783,
  "Ġguitar": 2784,
  "Ġwhisp": 2785,
  "Ġicy": 2786,
  "Ġscarf": 2787,
  "Ġcone": 2788,
  "bby": 2789,
  "Ġdest": 2790,
  "imp": 2791,
  "Ġbody": 2792,
  "Ġfeathers": 2793,
  "Ġboot": 2794,
  "Ġbatter": 2795,
  "Ġeld": 2796,
  "ĠCome": 2797,
  "Are": 2798,
  "Ġspoiled": 2799,
  "alk": 2800,
  "Ġincred": 2801,
  "ĠLisa": 2802,
  "Ġperform": 2803,
  "Ġexam": 2804,
  "read": 2805,
  "Ġmirror": 2806,
  "Ġdiscover": 2807,
  "Ġcreature": 2808,
  "Ġsword": 2809,
  "Ġstrawber": 2810,
  "Ġgenerous": 2811,
  "Ġresc": 2812,
  "Ġbranches": 2813,
  "Ġswan": 2814,
  "Ġter": 2815,
  "Ġmovie": 2816,
  "Ġincredible": 2817,
  "Ġacorn": 2818,
  "fast": 2819,
  "issors": 2820,
  "andy": 2821,
  "Ġbrush": 2822,
  "Ġbreakfast": 2823,
  "yal": 2824,
  "Ġyelled": 2825,
  "Ġtakes": 2826,
  "Ġfine": 2827,
  "Ġdig": 2828,
  "Ġeggs": 2829,
  "Come": 2830,
  "Ġspread": 2831,
  "Ġpeanut": 2832,
  "Ġyourself": 2833,
  "Ġbounce": 2834,
  "Ġthick": 2835,
  "fic": 2836,
  "Ġbuilt": 2837,
  "Ġunus": 2838,
  "Tommy": 2839,
  "Ġexploring": 2840,
  "Ġelderly": 2841,
  "Ġleaving": 2842,
  "Ġbalance": 2843,
  "Ġunusual": 2844,
  "Ġtomato": 2845,
  "Ġfill": 2846,
  "Ġdiffic": 2847,
  "Ġwashed": 2848,
  "Ġtun": 2849,
  "Ġfis": 2850,
  "Ġfinger": 2851,
  "cient": 2852,
  "Ġcost": 2853,
  "Ġdifficult": 2854,
  "light": 2855,
  "Ġscissors": 2856,
  "Ġbathroom": 2857,
  "bin": 2858,
  "Ġroar": 2859,
  "Ġbloom": 2860,
  "selves": 2861,
  "Ġterri": 2862,
  "Ġfridge": 2863,
  "Ġloyal": 2864,
  "Ġhopping": 2865,
  "ĠHow": 2866,
  "cil": 2867,
  "Ġcross": 2868,
  "Ġsuggest": 2869,
  "arn": 2870,
  "Ġsolve": 2871,
  "Ġadd": 2872,
  "Ġdough": 2873,
  "Ġwaves": 2874,
  "Ġnod": 2875,
  "Ġdriving": 2876,
  "Ġtiger": 2877,
  "Ġcabin": 2878,
  "Soon": 2879,
  "Ġtape": 2880,
  "Ġpainting": 2881,
  "Ġpencil": 2882,
  "Ġkiss": 2883,
  "Ġshore": 2884,
  "Ġunl": 2885,
  "Ġloudly": 2886,
  "Ġkicked": 2887,
  "Ġoffered": 2888,
  "Lila": 2889,
  "Ġshadow": 2890,
  "Ġancient": 2891,
  "robe": 2892,
  "Ġthese": 2893,
  "lph": 2894,
  "Ġdolph": 2895,
  "Ġtele": 2896,
  "Ġind": 2897,
  "Ġharm": 2898,
  "Ġtaken": 2899,
  "irpy": 2900,
  "Ġuseful": 2901,
  "Ġwrote": 2902,
  "Ġseeds": 2903,
  "Ġlog": 2904,
  "Ġclock": 2905,
  "ground": 2906,
  "dle": 2907,
  "Ġdelicate": 2908,
  "mbre": 2909,
  "Ġfat": 2910,
  "Ġumbre": 2911,
  "Ġmighty": 2912,
  "ĠAnn": 2913,
  "ĠMolly": 2914,
  "Ġsque": 2915,
  "ĠJill": 2916,
  "Ġyarn": 2917,
  "Ġgiggled": 2918,
  "Ġbean": 2919,
  "Ġpainted": 2920,
  "Sally": 2921,
  "Ġmeal": 2922,
  "cc": 2923,
  "Ġrode": 2924,
  "Ġfluffy": 2925,
  "Ġstubb": 2926,
  "Ġwitch": 2927,
  "Ġcor": 2928,
  "Ġham": 2929,
  "Dad": 2930,
  "Ġpumpkin": 2931,
  "kn": 2932,
  "corn": 2933,
  "Ġwagon": 2934,
  "Ġdead": 2935,
  "Ġstubborn": 2936,
  "Ġbarn": 2937,
  "Ġterrible": 2938,
  "Ġclum": 2939,
  "Ġmailbox": 2940,
  "Ġtrack": 2941,
  "asing": 2942,
  "ipop": 2943,
  "llipop": 2944,
  "ĠBe": 2945,
  "Ġnosy": 2946,
  "Ġbushes": 2947,
  "Ġescape": 2948,
  "Ġlollipop": 2949,
  "Ġbridge": 2950,
  "uring": 2951,
  "Ġcompet": 2952,
  "Ġclumsy": 2953,
  "Ġfright": 2954,
  "Ġtag": 2955,
  "Ġstat": 2956,
  "Ġpopcorn": 2957,
  "known": 2958,
  "ipper": 2959,
  "Ġbitter": 2960,
  "Ġfier": 2961,
  "Ġpir": 2962,
  "Ġpacked": 2963,
  "Ġmarket": 2964,
  "Ġusing": 2965,
  "Ġlibr": 2966,
  "Ġumbrella": 2967,
  "Ġmeasure": 2968,
  "Ġbubbles": 2969,
  "ĠDon": 2970,
  "Ġstudy": 2971,
  "Ġfierce": 2972,
  "Ġanyway": 2973,
  "Ġtripped": 2974,
  "Ġunknown": 2975,
  "ighed": 2976,
  "Ġcrack": 2977,
  "ĠLuna": 2978,
  "Ġoffice": 2979,
  "Ġfool": 2980,
  "Ġwake": 2981,
  "ĠMrs": 2982,
  "Ġweal": 2983,
  "Ġforgave": 2984,
  "ying": 2985,
  "Ġgar": 2986,
  "Ġdove": 2987,
  "ony": 2988,
  "Ġwander": 2989,
  "Ġcrazy": 2990,
  "ray": 2991,
  "ĠSometimes": 2992,
  "?âĢĿ": 2993,
  "pes": 2994,
  "ĠYour": 2995,
  "Ġscreamed": 2996,
  "Ġkindness": 2997,
  "Where": 2998,
  "Ġbored": 2999,
  "Ġlicked": 3000,
  "Ġdull": 3001,
  "Ġwis": 3002,
  "Ġmeans": 3003,
  "Ġfrightened": 3004,
  "edient": 3005,
  "Ġdug": 3006,
  "ĠWith": 3007,
  "Ġdepend": 3008,
  "Ġrh": 3009,
  "Ġstove": 3010,
  "illi": 3011,
  "Ġdreaming": 3012,
  "ung": 3013,
  "fted": 3014,
  "ĠChirpy": 3015,
  "ĠCat": 3016,
  "Ġres": 3017,
  "Ġcher": 3018,
  "Ġwrap": 3019,
  "ery": 3020,
  "ĠIf": 3021,
  "Ġbrace": 3022,
  "xible": 3023,
  "Together": 3024,
  "Ġfoolish": 3025,
  "urous": 3026,
  "Ġscr": 3027,
  "Ġobedient": 3028,
  "Ġadventurous": 3029,
  "Ġweek": 3030,
  "Ġbracelet": 3031,
  "comfortable": 3032,
  "lies": 3033,
  "Ġgas": 3034,
  "ĠEven": 3035,
  "Ġrespec": 3036,
  "Ġuncomfortable": 3037,
  "Ġcircle": 3038,
  "Ġpracticed": 3039,
  "Billy": 3040,
  "Ġsauce": 3041,
  "Ġpotato": 3042,
  "Ġcompetit": 3043,
  "Ġgiving": 3044,
  "Ġjam": 3045,
  "Ġgloomy": 3046,
  "land": 3047,
  "Ġstatue": 3048,
  "Ġpoured": 3049,
  "Ġrecord": 3050,
  "Ġwealthy": 3051,
  "Ġflexible": 3052,
  "Ġref": 3053,
  "osie": 3054,
  "Ġwheel": 3055,
  "Ġcrawled": 3056,
  "inal": 3057,
  "ĠBobby": 3058,
  "gu": 3059,
  "Ġsleeping": 3060,
  "ict": 3061,
  "Ġnuts": 3062,
  "Ġstage": 3063,
  "Ġsafely": 3064,
  "Ġdisappeared": 3065,
  "Ġchar": 3066,
  "Ġcorn": 3067,
  "irsty": 3068,
  "Ġflash": 3069,
  "Ġtrucks": 3070,
  "ĠFr": 3071,
  "Ġrespect": 3072,
  "Ġruined": 3073,
  "Ġboard": 3074,
  "Ġimpress": 3075,
  "cod": 3076,
  "Ġbelonged": 3077,
  "ĠMary": 3078,
  "illiant": 3079,
  "Ġsalad": 3080,
  "Ġhoop": 3081,
  "Ġorig": 3082,
  "ĠSt": 3083,
  "iable": 3084,
  "Ġtank": 3085,
  "Ġtoast": 3086,
  "Ġsuccessful": 3087,
  "Ġbrilliant": 3088,
  "apped": 3089,
  "ormous": 3090,
  "Stop": 3091,
  "Ġthirsty": 3092,
  "Ġgoat": 3093,
  "Ġcere": 3094,
  "Ġsunf": 3095,
  "Ġbananas": 3096,
  "Ġgum": 3097,
  "Ġswe": 3098,
  "Ġsmiling": 3099,
  "Ġenormous": 3100,
  "shion": 3101,
  "Ġhose": 3102,
  "ĠTheir": 3103,
  "Ġhorn": 3104,
  "Ġtrick": 3105,
  "Ġshoe": 3106,
  "Ġhairy": 3107,
  "Ġknife": 3108,
  "Ġoriginal": 3109,
  "Ġcam": 3110,
  "elp": 3111,
  "Ġgrandpa": 3112,
  "ĠBear": 3113,
  "ours": 3114,
  "Ġcooking": 3115,
  "Ġsteal": 3116,
  "Ġindepend": 3117,
  "Ġtwist": 3118,
  "gust": 3119,
  "any": 3120,
  "Ġjuicy": 3121,
  "Ġhay": 3122,
  "Ġcrane": 3123,
  "coa": 3124,
  "Ġbadly": 3125,
  "bled": 3126,
  "Ġshiver": 3127,
  "Ġdisgust": 3128,
  "Ġcrocod": 3129,
  "Ġcereal": 3130,
  "Ġisland": 3131,
  "Ġdestro": 3132,
  "Ġsuggested": 3133,
  "inky": 3134,
  "Ġclay": 3135,
  "Ġcheap": 3136,
  "Ġserious": 3137,
  "Ġgoes": 3138,
  "Ġindependent": 3139,
  "Ġgives": 3140,
  "Ġimpressive": 3141,
  "Ġreliable": 3142,
  "Ġaunt": 3143,
  "met": 3144,
  "Me": 3145,
  "ushed": 3146,
  "Ġmole": 3147,
  "Ġpant": 3148,
  "Ġcounted": 3149,
  "isted": 3150,
  "oin": 3151,
  "Ġhelmet": 3152,
  "Ġdependable": 3153,
  "Ġrose": 3154,
  "atter": 3155,
  "Ġgrace": 3156,
  "als": 3157,
  "ĠGo": 3158,
  "Ġang": 3159,
  "ĠPlease": 3160,
  "Ġloves": 3161,
  "ages": 3162,
  "Ġdisgusting": 3163,
  "cles": 3164,
  "Ġjog": 3165,
  "ilty": 3166,
  "Ġmoder": 3167,
  "Ġguilty": 3168,
  "upid": 3169,
  "Ġtrap": 3170,
  "inary": 3171,
  "Ġliz": 3172,
  "ĠPolly": 3173,
  "Ġinvited": 3174,
  "loo": 3175,
  "Ġthoughtful": 3176,
  "Ġpenny": 3177,
  "Ġlifted": 3178,
  "Ġcocoa": 3179,
  "Ġforth": 3180,
  "Ġraven": 3181,
  "ĠSm": 3182,
  "Ġdolphin": 3183,
  "Ġmid": 3184,
  "iches": 3185,
  "Ġsandwiches": 3186,
  "Ġparade": 3187,
  "Ġjolly": 3188,
  "Ġrelax": 3189,
  "Ġlab": 3190,
  "Ġplayful": 3191,
  "uth": 3192,
  "Ġexciting": 3193,
  "Ġlocked": 3194,
  "Ġcrocodile": 3195,
  "ĠPe": 3196,
  "Ġregular": 3197,
  "Ġknight": 3198,
  "anger": 3199,
  "Ġjoined": 3200,
  "Ġrat": 3201,
  "Ġsaf": 3202,
  "ĠDoggy": 3203,
  "gy": 3204,
  "Ġenv": 3205,
  "Ġcorner": 3206,
  "uper": 3207,
  "Ġmiddle": 3208,
  "Ġdisappoin": 3209,
  "cut": 3210,
  "Ġpige": 3211,
  "Ġmask": 3212,
  "Ġwip": 3213,
  "Ġhammer": 3214,
  "Ġstupid": 3215,
  "Ġputs": 3216,
  "Ġblueber": 3217,
  "Ġprize": 3218,
  "Ġcamera": 3219,
  "ĠSnow": 3220,
  "ĠMomo": 3221,
  "Ġpopular": 3222,
  "Ġlizard": 3223,
  "Ġeye": 3224,
  "Ġsquee": 3225,
  "Ġcheerful": 3226,
  "Ġclap": 3227,
  "Ġjet": 3228,
  "Ġreminded": 3229,
  "Ġcrayon": 3230,
  "Ġgarage": 3231,
  "Ġmodern": 3232,
  "Ġsailed": 3233,
  "Ġpil": 3234,
  "Ġgoose": 3235,
  "Ġfountain": 3236,
  "Ġearly": 3237,
  "Ġdeliver": 3238,
  "iness": 3239,
  "Ġgrown": 3240,
  "Ġsock": 3241,
  "Ġhurts": 3242,
  "Ġtunn": 3243,
  "htub": 3244,
  "Ġbathtub": 3245,
  "Ġcharming": 3246,
  "Ġstamp": 3247,
  "If": 3248,
  "Ġgir": 3249,
  "Ġdestroy": 3250,
  "Ġtor": 3251,
  "Help": 3252,
  "Ġpaws": 3253,
  "Ġsmaller": 3254,
  "Ġchoose": 3255,
  "aurant": 3256,
  "Ġgem": 3257,
  "Ġbeet": 3258,
  "How": 3259,
  "Ġlow": 3260,
  "Ġrestaurant": 3261,
  "Ġhunter": 3262,
  "Ġrep": 3263,
  "Ġcartoon": 3264,
  "host": 3265,
  "Ġnowhere": 3266,
  "Ġreturned": 3267,
  "Ġcomput": 3268,
  "Ġstri": 3269,
  "Ġneeds": 3270,
  "Ġcompass": 3271,
  "Ġmush": 3272,
  "erable": 3273,
  "Ġwarned": 3274,
  "ates": 3275,
  "cream": 3276,
  "Ġbarber": 3277,
  "Ġfearful": 3278,
  "Ġpian": 3279,
  "Ġled": 3280,
  "ĠAndy": 3281,
  "Ġdoesn": 3282,
  "ĠRosie": 3283,
  "Ġmiserable": 3284,
  "Ġmagn": 3285,
  "Ġcareless": 3286,
  "ĠInstead": 3287,
  "Ġyet": 3288,
  "Ġbandage": 3289,
  "Ġsaying": 3290,
  "Ġhumble": 3291,
  "Ġarrow": 3292,
  "Ġghost": 3293,
  "Ġer": 3294,
  "Ġcoll": 3295,
  "Ġspring": 3296,
  "Ġsquare": 3297,
  "Ġfig": 3298,
  "Ġrug": 3299,
  "Ġtruth": 3300,
  "ĠBird": 3301,
  "Ġcooked": 3302,
  "Ġpiano": 3303,
  "Ġbull": 3304,
  "Ġharmless": 3305,
  "Ġpants": 3306,
  "Ġtrunk": 3307,
  "Ġeager": 3308,
  "Ġlibrary": 3309,
  "Ġsunflower": 3310,
  "Ġtied": 3311,
  "Ġflashlight": 3312,
  "Ġmuff": 3313,
  "ating": 3314,
  "ps": 3315,
  "Ġpebble": 3316,
  "Ġfork": 3317,
  "Ġanswered": 3318,
  "Ġsuper": 3319,
  "Ġfilthy": 3320,
  "anged": 3321,
  "time": 3322,
  "Ġcreate": 3323,
  "Ġorder": 3324,
  "ctop": 3325,
  "iv": 3326,
  "Ġwalks": 3327,
  "Ġroof": 3328,
  "ention": 3329,
  "Ġdisappointed": 3330,
  "opter": 3331,
  "ina": 3332,
  "Ġmushroom": 3333,
  "icopter": 3334,
  "vice": 3335,
  "Ġtwirl": 3336,
  "Ġdistance": 3337,
  "live": 3338,
  "igator": 3339,
  "Ġcase": 3340,
  "Ġapologized": 3341,
  "Ġstranger": 3342,
  "Ġwrapped": 3343,
  "Ġzip": 3344,
  "Ġhelicopter": 3345,
  "oli": 3346,
  "Ġboxes": 3347,
  "ither": 3348,
  "Ġcomb": 3349,
  "Ġcomputer": 3350,
  "Ġbase": 3351,
  "ccoli": 3352,
  "ctopus": 3353,
  "Ġtries": 3354,
  "Ġending": 3355,
  "Ġbottom": 3356,
  "ĠSome": 3357,
  "Ġjeep": 3358,
  "Ġbeetle": 3359,
  "ĠSmith": 3360,
  "Ġvide": 3361,
  "Ġgifted": 3362,
  "Kitty": 3363,
  "Ġsoar": 3364,
  "Ġvalue": 3365,
  "Ġparrot": 3366,
  "Ġanx": 3367,
  "Ġtorn": 3368,
  "ief": 3369,
  "ready": 3370,
  "atch": 3371,
  "Ġsink": 3372,
  "Ġwaff": 3373,
  "Ġwhispered": 3374,
  "Ġeng": 3375,
  "Ġordinary": 3376,
  "Ġenc": 3377,
  "Ġanxious": 3378,
  "amond": 3379,
  "Ġcrawl": 3380,
  "Ġsil": 3381,
  "Ġrubb": 3382,
  "Ġdreamed": 3383,
  "Ġquar": 3384,
  "Ġgraceful": 3385,
  "Ġalready": 3386,
  "Ġprep": 3387,
  "Ġpasta": 3388,
  "Ġcandle": 3389,
  "Ġcompassion": 3390,
  "Ġtwig": 3391,
  "Ġpepper": 3392,
  "Ġtooth": 3393,
  "Ġtroubled": 3394,
  "Ġanywhere": 3395,
  "Ġhaircut": 3396,
  "Ġmagnet": 3397,
  "ĠBuzz": 3398,
  "Ġoctopus": 3399,
  "ellig": 3400,
  "Ġdiamond": 3401,
  "Ġalligator": 3402,
  "Ġcryst": 3403,
  "Ġcube": 3404,
  "Ġbicy": 3405,
  "Ġfrown": 3406,
  "Ġintellig": 3407,
  "Ġsandc": 3408,
  "Every": 3409,
  "ature": 3410,
  "Ġrescue": 3411,
  "Ġtire": 3412,
  "Ġbroccoli": 3413,
  "Ġflute": 3414,
  "Ġkis": 3415,
  "Ġsmoke": 3416,
  "Ġskin": 3417,
  "Ġdeaf": 3418,
  "Ġtricks": 3419,
  "ĠFreddy": 3420,
  "Ġpersist": 3421,
  "Ġwallet": 3422,
  "Ġmill": 3423,
  "utes": 3424,
  "io": 3425,
  "Ġcoins": 3426,
  "Ġbees": 3427,
  "Ġways": 3428,
  "Ġplanet": 3429,
  "Ġtimes": 3430,
  "Ġenvious": 3431,
  "Ġcelebrate": 3432,
  "Ġlying": 3433,
  "ject": 3434,
  "Ġjug": 3435,
  "Here": 3436,
  "Ġsend": 3437,
  "Ġpicking": 3438,
  "illa": 3439,
  "most": 3440,
  "ĠBetsy": 3441,
  "Ġhelpless": 3442,
  "Ġdecorate": 3443,
  "Ġpale": 3444,
  "umpet": 3445,
  "Ġchanged": 3446,
  "opard": 3447,
  "Ġpigeon": 3448,
  "Ġdesk": 3449,
  "Ġrestless": 3450,
  "Ġtrumpet": 3451,
  "ĠMama": 3452,
  "Ġscoot": 3453,
  "Ġalmost": 3454,
  "Ġthief": 3455,
  "Ġcop": 3456,
  "Ġsoldier": 3457,
  "Ġminutes": 3458,
  "Ġattract": 3459,
  "Ġintelligent": 3460,
  "Ġadvice": 3461,
  "Ġstream": 3462,
  "old": 3463,
  "Ġbutterflies": 3464,
  "Ġpersistent": 3465,
  "Ġtax": 3466,
  "Ġangel": 3467,
  "Ġalert": 3468,
  "Ġlit": 3469,
  "Ġquarrel": 3470,
  "Ġenvel": 3471,
  "Ġharsh": 3472,
  "Ġcompassionate": 3473,
  "Ġstronger": 3474,
  "atient": 3475,
  "Ġyours": 3476,
  "Ġvi": 3477,
  "Ġmelon": 3478,
  "Ġlean": 3479,
  "Ġguess": 3480,
  "aff": 3481,
  "Ġscale": 3482,
  "Ġnotice": 3483,
  "Ġthinking": 3484,
  "Ġbasketball": 3485,
  "Ġsle": 3486,
  "Ġquestion": 3487,
  "Ġdesign": 3488,
  "night": 3489,
  "ubby": 3490,
  "Ġscatter": 3491,
  "Ġleopard": 3492,
  "Ġbelt": 3493,
  "Ġsighed": 3494,
  "Ġsuit": 3495,
  "Ġboats": 3496,
  "Ġtunnel": 3497,
  "Ġcricket": 3498,
  "Ġreading": 3499,
  "Ġcap": 3500,
  "Ġtelling": 3501,
  "Ġmelt": 3502,
  "Ġmeat": 3503,
  "Ġbedroom": 3504,
  "Ġcollar": 3505,
  "opl": 3506,
  "Ġlearning": 3507,
  "eropl": 3508,
  "Ġstretch": 3509,
  "Who": 3510,
  "Ġmug": 3511,
  "Ġattractive": 3512,
  "Ġhouses": 3513,
  "Ġpurse": 3514,
  "Ġvalu": 3515,
  "can": 3516,
  "ĠTiny": 3517,
  "Ġaeropl": 3518,
  "Ġmay": 3519,
  "Ġtem": 3520,
  "Ġnail": 3521,
  "Ġador": 3522,
  "Ġengine": 3523,
  "Ġtaxi": 3524,
  "Ġexcite": 3525,
  "Ġrice": 3526,
  "Ġimpatient": 3527,
  "Ġbump": 3528,
  "asses": 3529,
  "Ġvol": 3530,
  "urb": 3531,
  "Ġspeed": 3532,
  "Ġchubby": 3533,
  "Ġpost": 3534,
  "pet": 3535,
  "Ġcrystal": 3536,
  "Ġcompetitive": 3537,
  "Ġfigure": 3538,
  "Ġadorable": 3539,
  "Ġstanding": 3540,
  "Ġstation": 3541,
  "Ġcact": 3542,
  "Ġthose": 3543,
  "Ġavoc": 3544,
  "uggled": 3545,
  "Ġflour": 3546,
  "Ġload": 3547,
  "Ġearth": 3548,
  "Ġbicycle": 3549,
  "Ġrubbed": 3550,
  "Ġknock": 3551,
  "ebra": 3552,
  "Ġyogurt": 3553,
  "cycle": 3554,
  "olin": 3555,
  "Ġpackage": 3556,
  "Ġdisturb": 3557,
  "Ġcarpet": 3558,
  "Ġenjoying": 3559,
  "Ġspeak": 3560,
  "aser": 3561,
  "Ġbarking": 3562,
  "Ġshine": 3563,
  "Ġsweater": 3564,
  "Ġcomet": 3565,
  "hero": 3566,
  "Ġencou": 3567,
  "Ġthu": 3568,
  "Ġpow": 3569,
  "Ġsuperhero": 3570,
  "ete": 3571,
  "Ġtravel": 3572,
  "Ġuncle": 3573,
  "Ġlaund": 3574,
  "Ġsurf": 3575,
  "Ġonce": 3576,
  "angle": 3577,
  "Ġlaundry": 3578,
  "ĠU": 3579,
  "Ġzebra": 3580,
  "Ġrece": 3581,
  "Ġbags": 3582,
  "Ġthread": 3583,
  "Ġsheet": 3584,
  "Ġlively": 3585,
  "Ġthemselves": 3586,
  "Ġdust": 3587,
  "Ġhours": 3588,
  "Ġignorant": 3589,
  "Ġuniver": 3590,
  "Ġpony": 3591,
  "Ġenvelope": 3592,
  "Ġwheels": 3593,
  "Ġvaluable": 3594,
  "There": 3595,
  "cano": 3596,
  "Ġcurt": 3597,
  "Ġradio": 3598,
  "Ġacce": 3599,
  "Ġturkey": 3600,
  "Ġviolin": 3601,
  "Ġcurtain": 3602,
  "Ġguard": 3603,
  "ebook": 3604,
  "Ġwheat": 3605,
  "Ġnotebook": 3606,
  "Ġshade": 3607,
  "Ġenth": 3608,
  "Ġcats": 3609,
  "Ġenthus": 3610,
  "Ġadded": 3611,
  "bul": 3612,
  "Ġseal": 3613,
  "Ġvolcano": 3614,
  "Ġshrimp": 3615,
  "Ġwire": 3616,
  "Ġpengu": 3617,
  "affe": 3618,
  "Ġcactus": 3619,
  "Ġwiped": 3620,
  "Ġquestions": 3621,
  "Ġext": 3622,
  "aky": 3623,
  "Ġscreen": 3624,
  "umbled": 3625,
  "Ġsaus": 3626,
  "Ġunlock": 3627,
  "dom": 3628,
  "Ġsquash": 3629,
  "dest": 3630,
  "cake": 3631,
  "cu": 3632,
  "Ġplayground": 3633,
  "Ġscooter": 3634,
  "Ġgets": 3635,
  "Ġfirework": 3636,
  "Ġears": 3637,
  "Ġhappiness": 3638,
  "Ġstack": 3639,
  "ĠAl": 3640,
  "Ġhelps": 3641,
  "Ġgathered": 3642,
  "Ġmoms": 3643,
  "Ġdrawings": 3644,
  "Ġphot": 3645,
  "Ġbehave": 3646,
  "Ġbounced": 3647,
  "Ġreturn": 3648,
  "Ġoat": 3649,
  "Ġchirp": 3650,
  "bulance": 3651,
  "Ġpipe": 3652,
  "Ġcompl": 3653,
  "Ġambulance": 3654,
  "Ġcamp": 3655,
  "acht": 3656,
  "Ġ'": 3657,
  "Ġyaw": 3658,
  "az": 3659,
  "Ġdistant": 3660,
  "Ġtears": 3661,
  "Ġraft": 3662,
  "Ġchalk": 3663,
  "Ġslept": 3664,
  "Ġextra": 3665,
  "ubbles": 3666,
  "Ġnicely": 3667,
  "Ġyacht": 3668,
  "Ġarg": 3669,
  "Ġtemp": 3670,
  "Ġgiraffe": 3671,
  "Ġvet": 3672,
  "Ġcomfort": 3673,
  "Ġhalf": 3674,
  "Ġdreams": 3675,
  "Ġmeadow": 3676,
  "Ġspinning": 3677,
  "Ġbul": 3678,
  "Ġpractice": 3679,
  "Ġ3": 3680,
  "Ġmodest": 3681,
  "elery": 3682,
  "Ġinse": 3683,
  "Ġpoem": 3684,
  "ision": 3685,
  "Ġperm": 3686,
  "Ġlights": 3687,
  "Ġvine": 3688,
  "Ġhelper": 3689,
  "ulif": 3690,
  "ines": 3691,
  "Ġnurse": 3692,
  "ceed": 3693,
  "Ġticket": 3694,
  "Ġthankful": 3695,
  "Ġjellyfish": 3696,
  "ito": 3697,
  "ĠTr": 3698,
  "Ġcity": 3699,
  "ache": 3700,
  "Ġknot": 3701,
  "Ġfalling": 3702,
  "Ġeraser": 3703,
  "Ġcelery": 3704,
  "stic": 3705,
  "Ġcaulif": 3706,
  "Ġcalling": 3707,
  "ube": 3708,
  "iew": 3709,
  "iastic": 3710,
  "Inside": 3711,
  "Ġpirate": 3712,
  "Ġenthusiastic": 3713,
  "quito": 3714,
  "Ġmistakes": 3715,
  "Ġswinging": 3716,
  "Ġforward": 3717,
  "Ġriding": 3718,
  "Ġlistening": 3719,
  "Ġshut": 3720,
  "Ġgor": 3721,
  "Ġmotorcycle": 3722,
  "Ġimpro": 3723,
  "Ġcows": 3724,
  "nam": 3725,
  "Ġview": 3726,
  "Sarah": 3727,
  "Ġrepair": 3728,
  "Ġsucceed": 3729,
  "Ġcauliflower": 3730,
  "Ġmos": 3731,
  "Ġshowing": 3732,
  "Ġcushion": 3733,
  "otter": 3734,
  "Ġtrash": 3735,
  "sses": 3736,
  "Ġaeroplane": 3737,
  "Ġsteak": 3738,
  "Ġotter": 3739,
  "Ġencoura": 3740,
  "Ġbulb": 3741,
  "Ġclimbing": 3742,
  "Ġing": 3743,
  "Ġsupport": 3744,
  "Ġbarrel": 3745,
  "Ġoy": 3746,
  "Ġgust": 3747,
  "redient": 3748,
  "Ġrub": 3749,
  "Ġingredient": 3750,
  "Ġpilot": 3751,
  "Ġhook": 3752,
  "Ġthunder": 3753,
  "Ġshape": 3754,
  "Ġmosquito": 3755,
  "Ġscrew": 3756,
  "Ġspell": 3757,
  "stri": 3758,
  "Ġpee": 3759,
  "Ġboys": 3760,
  "Ġmessage": 3761,
  "ination": 3762,
  "Ġeventually": 3763,
  "Ġputting": 3764,
  "Ġpoint": 3765,
  "Ġchasing": 3766,
  "Ġshield": 3767,
  "Ġskip": 3768,
  "Ġtells": 3769,
  "Ġreward": 3770,
  "Ġmarry": 3771,
  "aged": 3772,
  "lu": 3773,
  "nament": 3774,
  "Ġcostume": 3775,
  "Ġtube": 3776,
  "lete": 3777,
  "Ġcarrying": 3778,
  "Ġchain": 3779,
  "Ġtools": 3780,
  "Ġbin": 3781,
  "Ġpeach": 3782,
  "Sorry": 3783,
  "Ġspun": 3784,
  "Ġsplit": 3785,
  "Ġhotel": 3786,
  "Ġpretending": 3787,
  "Ġdiary": 3788,
  "lier": 3789,
  "Ġattic": 3790,
  "Ġtriangle": 3791,
  "Ġtroph": 3792,
  "Ġclub": 3793,
  "Ġdishes": 3794,
  "Ġbaseball": 3795,
  "Ġcomplete": 3796,
  "Ġstones": 3797,
  "arian": 3798,
  "Ġfour": 3799,
  "Ġpolish": 3800,
  "Ġorganize": 3801,
  "Ġornament": 3802,
  "Ġunpack": 3803,
  "Ġrod": 3804,
  "tern": 3805,
  "Ġinsect": 3806,
  "aid": 3807,
  "gging": 3808,
  "eer": 3809,
  "Ġshells": 3810,
  "Ġwife": 3811,
  "Ġneedle": 3812,
  "Ġmop": 3813,
  "hip": 3814,
  "azz": 3815,
  "Ġhipp": 3816,
  "Ġeaten": 3817,
  "Ġgorilla": 3818,
  "Well": 3819,
  "Ġfallen": 3820,
  "par": 3821,
  "ailable": 3822,
  "Ġearlier": 3823,
  "appy": 3824,
  "Ġexcitement": 3825,
  "Ġtray": 3826,
  "Ġfolder": 3827,
  "Ġsniff": 3828,
  "Ġgro": 3829,
  "Ġrag": 3830,
  "Ġfootball": 3831,
  "Ġmild": 3832,
  "Ġitch": 3833,
  "Ġmetal": 3834,
  "Ġinclu": 3835,
  "seum": 3836,
  "Ġobject": 3837,
  "Ġnature": 3838,
  "essert": 3839,
  "Ġtrophy": 3840,
  "Ġsepar": 3841,
  "utty": 3842,
  "Ġavailable": 3843,
  "Ġhats": 3844,
  "vator": 3845,
  "Ġsparkly": 3846,
  "Ġmuseum": 3847,
  "Ġdessert": 3848,
  "Ġrushed": 3849,
  "Ġgrowl": 3850,
  "strich": 3851,
  "Ġelevator": 3852,
  "Ġrubber": 3853,
  "Ġfort": 3854,
  "ĠBubbles": 3855,
  "Ġgrapes": 3856,
  "Ġmem": 3857,
  "Ġfriendship": 3858,
  "Ġharder": 3859,
  "Ġpatch": 3860,
  "Ġdeter": 3861,
  "Ġhanging": 3862,
  "Gra": 3863,
  "Ġflea": 3864,
  "Ġur": 3865,
  "Ġdrawer": 3866,
  "Ġleash": 3867,
  "Ġingredients": 3868,
  "Ġpuddles": 3869,
  "Ġmint": 3870,
  "Ġglove": 3871,
  "Ġpit": 3872,
  "urch": 3873,
  "Ġshouldn": 3874,
  "Ġonion": 3875,
  "ĠRose": 3876,
  "Ġdeterm": 3877,
  "Qu": 3878,
  "Ġherb": 3879,
  "Ġrhin": 3880,
  "Ġstairs": 3881,
  "Ġsize": 3882,
  "Ġgolf": 3883,
  "ric": 3884,
  "Tweet": 3885,
  "Ġboots": 3886,
  "Ġseas": 3887,
  "body": 3888,
  "ĠPete": 3889,
  "Ġpole": 3890,
  "Ġeither": 3891,
  "chair": 3892,
  "Ġhears": 3893,
  "Ġkay": 3894,
  "Ġdive": 3895,
  "Ġmonkeys": 3896,
  "ĠRex": 3897,
  "Ġitself": 3898,
  "indeer": 3899,
  "Ġhippo": 3900,
  "ffe": 3901,
  "Ġraced": 3902,
  "ffee": 3903,
  "we": 3904,
  "seek": 3905,
  "Ġbaking": 3906,
  "Ġchess": 3907,
  "Ġfilm": 3908,
  "Ġlend": 3909,
  "ĠMany": 3910,
  "Ġcupboard": 3911,
  "Ġyoga": 3912,
  "ocer": 3913,
  "ĠJimmy": 3914,
  "Ġgrowing": 3915,
  "Ġhedge": 3916,
  "Ġink": 3917,
  "Ġpun": 3918,
  "Ġchurch": 3919,
  "Ġwalls": 3920,
  "Ġcries": 3921,
  "Ġarmchair": 3922,
  "Ġglowing": 3923,
  "Ġsurprises": 3924,
  "Ġstrawberry": 3925,
  "Ġsquirrels": 3926,
  "Ġreindeer": 3927,
  "Ġjournal": 3928,
  "Ġfu": 3929,
  "Ġhandle": 3930,
  "Ġjudge": 3931,
  "Ġframe": 3932,
  "kelet": 3933,
  "ĠWill": 3934,
  "irit": 3935,
  "ressed": 3936,
  "Ġpattern": 3937,
  "play": 3938,
  "oceros": 3939,
  "Ġcudd": 3940,
  "ĠElla": 3941,
  "Ġpopped": 3942,
  "Ġvideo": 3943,
  "Ġmaze": 3944,
  "Ġprun": 3945,
  "gl": 3946,
  "Ġvest": 3947,
  "Ġactually": 3948,
  "Ġmicroph": 3949,
  "Ġmule": 3950,
  "Ġbiggest": 3951,
  "Ġairport": 3952,
  "Ġlime": 3953,
  "Ġgrocer": 3954,
  "Ġpor": 3955,
  "Ġsoc": 3956,
  "Ġcoffee": 3957,
  "Ġvend": 3958,
  "Ġavocado": 3959,
  "Ġsoccer": 3960,
  "Ġins": 3961,
  "ree": 3962,
  "Ġshows": 3963,
  "Ġstumbled": 3964,
  "Ġkissed": 3965,
  "Ġhive": 3966,
  "Ġmicrophone": 3967,
  "Ġsalt": 3968,
  "iest": 3969,
  "Ġdisplay": 3970,
  "iron": 3971,
  "Ġfresh": 3972,
  "Ġrhinoceros": 3973,
  "Ġtask": 3974,
  "ped": 3975,
  "Ġcounting": 3976,
  "Ġskelet": 3977,
  "Ġpenguin": 3978,
  "Ġimpressed": 3979,
  "ĠLater": 3980,
  "glasses": 3981,
  "Ġsunglasses": 3982,
  "cakes": 3983,
  "Ġoyster": 3984,
  "omes": 3985,
  "Ġcoal": 3986,
  "Ġmagaz": 3987,
  "Ġresist": 3988,
  "Ġskipped": 3989,
  "Ġlouder": 3990,
  "Ġquit": 3991,
  "Ġvendor": 3992,
  "Ġhurry": 3993,
  "Ġrepe": 3994,
  "ugged": 3995,
  "enny": 3996,
  "Ġfreez": 3997,
  "astle": 3998,
  "Ġfactor": 3999,
  "Ġdecide": 4000,
  "Ġsounded": 4001,
  "Ġmath": 4002,
  "Ġfactory": 4003,
  "Ġostrich": 4004,
  "gen": 4005,
  "Ġfireman": 4006,
  "Ġsandcastle": 4007,
  "Ġchecked": 4008,
  "Ġdiscovered": 4009,
  "Their": 4010,
  "Ġcord": 4011,
  "Ġwool": 4012,
  "Ġsight": 4013,
  "ĠNutty": 4014,
  "Ġobser": 4015,
  "Ġdrop": 4016,
  "Ġkayak": 4017,
  "Ġskeleton": 4018,
  "Ġrot": 4019,
  "web": 4020,
  "gn": 4021,
  "Ġradish": 4022,
  "Ġmedal": 4023,
  "Ġmixer": 4024,
  "ley": 4025,
  "place": 4026,
  "Ġstuffed": 4027,
  "ations": 4028,
  "Ġpand": 4029,
  "zzy": 4030,
  "Ġpowder": 4031,
  "Ġsett": 4032,
  "Ġreco": 4033,
  "Ġsailor": 4034,
  "Ġcob": 4035,
  "ckey": 4036,
  "Ġhockey": 4037,
  "Ġcable": 4038,
  "Ġsy": 4039,
  "head": 4040,
  "iggle": 4041,
  "Ġtowers": 4042,
  "Ġcrawling": 4043,
  "Ġlightning": 4044,
  "Ġmatt": 4045,
  "Ġmakeup": 4046,
  "Ġskirt": 4047,
  "Ġskull": 4048,
  "Ġnods": 4049,
  "Ġpear": 4050,
  "chan": 4051,
  "Thanks": 4052,
  "aroo": 4053,
  "angaroo": 4054,
  "Ġspear": 4055,
  "Ġcardboard": 4056,
  "Ġpoke": 4057,
  "Ġprov": 4058,
  "Ġgrand": 4059,
  "ron": 4060,
  "Ġroot": 4061,
  "Ġporch": 4062,
  "asher": 4063,
  "Ġweather": 4064,
  "Ġcooler": 4065,
  "Ġlotion": 4066,
  "Ġzipper": 4067,
  "Ġhung": 4068,
  "Ġveil": 4069,
  "Ġcobweb": 4070,
  "lter": 4071,
  "Ġrever": 4072,
  "Jim": 4073,
  "icer": 4074,
  "Ġbattery": 4075,
  "Ġaccidents": 4076,
  "ured": 4077,
  "umbers": 4078,
  "Ġfireplace": 4079,
  "Ġblueberries": 4080,
  "washer": 4081,
  "Ġexcitedly": 4082,
  "Ġshelter": 4083,
  "Ġtut": 4084,
  "iling": 4085,
  "Ġspirit": 4086,
  "Ġfixing": 4087,
  "ĠNo": 4088,
  "Ġmattress": 4089,
  "Ġfisher": 4090,
  "keep": 4091,
  "ney": 4092,
  "Ġbury": 4093,
  "Ġsub": 4094,
  "Ġstaff": 4095,
  "rosc": 4096,
  "Ġspotted": 4097,
  "nger": 4098,
  "ucet": 4099,
  "Ġfaucet": 4100,
  "Ġkangaroo": 4101,
  "Ġbuttons": 4102,
  "arry": 4103,
  "ĠTrue": 4104,
  "ye": 4105,
  "Ġdishwasher": 4106,
  "Ġrefused": 4107,
  "edy": 4108,
  "Ġhomes": 4109,
  "Fl": 4110,
  "Ġpine": 4111,
  "Ġig": 4112,
  "Ġigloo": 4113,
  "roscope": 4114,
  "esday": 4115,
  "Ġgear": 4116,
  "chanic": 4117,
  "Ġloop": 4118,
  "Ġnapkin": 4119,
  "Ġweep": 4120,
  "istol": 4121,
  "Ġpointing": 4122,
  "Ġrecogn": 4123,
  "Ġmanaged": 4124,
  "ĠSnowy": 4125,
  "ext": 4126,
  "Ġhoping": 4127,
  "Ġax": 4128,
  "Ġswung": 4129,
  "Ġcabinet": 4130,
  "Ġmusician": 4131,
  "Ġgrill": 4132,
  "Ġpistol": 4133,
  "Ġrise": 4134,
  "Ġmuffin": 4135,
  "Ġimagine": 4136,
  "ym": 4137,
  "Ġmechanic": 4138,
  "Ġlaser": 4139,
  "Ġairpl": 4140,
  "ĠSpike": 4141,
  "Ġcherries": 4142,
  "Ġtap": 4143,
  "imney": 4144,
  "Mum": 4145,
  "Ġagainst": 4146,
  "Ġteleph": 4147,
  "Ġchimney": 4148,
  "Ġbreat": 4149,
  "Ġgoal": 4150,
  "Ġshrink": 4151,
  "Ġtear": 4152,
  "Ġnumbers": 4153,
  "ef": 4154,
  "Ġfisherman": 4155,
  "Ġwishes": 4156,
  "Ġwipe": 4157,
  "Ġdetermined": 4158,
  "Ġdisag": 4159,
  "Ġaxe": 4160,
  "Ġtemple": 4161,
  "Ġnewsp": 4162,
  "Ġbears": 4163,
  "Ġtelephone": 4164,
  "Ġed": 4165,
  "Ġhall": 4166,
  "ĠFo": 4167,
  "Ġart": 4168,
  "Ġsneeze": 4169,
  "Ġparent": 4170,
  "Ġaut": 4171,
  "Ġoak": 4172,
  "Ġflame": 4173,
  "ĠPeter": 4174,
  "Ġkeeping": 4175,
  "Ġgym": 4176,
  "Yay": 4177,
  "Ġphoto": 4178,
  "case": 4179,
  "Ġsne": 4180,
  "inking": 4181,
  "orted": 4182,
  "Mama": 4183,
  "Ġcane": 4184,
  "Ġsunset": 4185,
  "Ġmicroscope": 4186,
  "Ouch": 4187,
  "stairs": 4188,
  "Ġprevent": 4189,
  "Ġanch": 4190,
  "Ġtornado": 4191,
  "Ġblouse": 4192,
  "Ġadmired": 4193,
  "Ġpal": 4194,
  "Ġwinter": 4195,
  "Ġresp": 4196,
  "Ġpastry": 4197,
  "Ġjokes": 4198,
  "Ġoil": 4199,
  "Ġfastest": 4200,
  "Ġburn": 4201,
  "Ġblackboard": 4202,
  "Ġrolling": 4203,
  "ense": 4204,
  "Ġsilver": 4205,
  "Ġshort": 4206,
  "Ġpainter": 4207,
  "Ġbill": 4208,
  "Ġfreezer": 4209,
  "Ġpeeked": 4210,
  "Ġbookshe": 4211,
  "Ġward": 4212,
  "ĠLook": 4213,
  "Ġpassport": 4214,
  "Ġdancer": 4215,
  "keeper": 4216,
  "Ġwardrobe": 4217,
  "Ġanchor": 4218,
  "Ġpalace": 4219,
  "ilet": 4220,
  "Ġpanda": 4221,
  "ĠFro": 4222,
  "Ġswitch": 4223,
  "house": 4224,
  "Ġswamp": 4225,
  "Ġbookshelf": 4226,
  "Ġslides": 4227,
  "Ġbackpack": 4228,
  "erc": 4229,
  "Ġmarble": 4230,
  "Ġmissile": 4231,
  "Ġminer": 4232,
  "Ġiron": 4233,
  "Ġtoilet": 4234,
  "lau": 4235,
  "Ġsubway": 4236,
  "Ġplanned": 4237,
  "Ġimprove": 4238,
  "Ġbathrobe": 4239,
  "Ġcircles": 4240,
  "omob": 4241,
  "Ġrained": 4242,
  "aced": 4243,
  "Ġweigh": 4244,
  "ampoo": 4245,
  "Ġautomob": 4246,
  "Ġtutor": 4247,
  "uggling": 4248,
  "Ġshocked": 4249,
  "Ġreef": 4250,
  "ival": 4251,
  "Ġsoil": 4252,
  "Ġsadly": 4253,
  "Ġfingers": 4254,
  "ĠSpark": 4255,
  "Ġchoice": 4256,
  "Ġcast": 4257,
  "Ġdear": 4258,
  "ĠToday": 4259,
  "Ġbookcase": 4260,
  "Ġpicks": 4261,
  "shed": 4262,
  "Ġmagazine": 4263,
  "See": 4264,
  "Ġolive": 4265,
  "Ġexerc": 4266,
  "Ġcomplain": 4267,
  "te": 4268,
  "Ġmeowed": 4269,
  "Ġfog": 4270,
  "Molly": 4271,
  "Ġribb": 4272,
  "Ġdisappear": 4273,
  "anny": 4274,
  "Ġspoke": 4275,
  "ience": 4276,
  "render": 4277,
  "vision": 4278,
  "Ġshampoo": 4279,
  "Em": 4280,
  "Ġcreek": 4281,
  "lend": 4282,
  "Ġten": 4283,
  "Ġceiling": 4284,
  "Ġsuff": 4285,
  "Ġperfume": 4286,
  "arm": 4287,
  "Ġsaving": 4288,
  "Ġexplain": 4289,
  "angu": 4290,
  "Did": 4291,
  "ĠSh": 4292,
  "Ġnewspaper": 4293,
  "hic": 4294,
  "Ġtheater": 4295,
  "Ġvehic": 4296,
  "Ġallowed": 4297,
  "Ġtelevision": 4298,
  "Ġlangu": 4299,
  "Ġstarting": 4300,
  "Ġmen": 4301,
  "htray": 4302,
  "Ġtrail": 4303,
  "Ġopera": 4304,
  "Ġfest": 4305,
  "Mr": 4306,
  "ĠJenny": 4307,
  "Ġbathe": 4308,
  "Ġshaking": 4309,
  "rod": 4310,
  "ately": 4311,
  "Ġstirred": 4312,
  "iction": 4313,
  "Ġneat": 4314,
  "Ġtuna": 4315,
  "Ġhappier": 4316,
  "Ġdelight": 4317,
  "Ġrake": 4318,
  "Ġfuel": 4319,
  "Ġintrod": 4320,
  "apers": 4321,
  "Ġfile": 4322,
  "ictionary": 4323,
  "Ġprepare": 4324,
  "Ġtaller": 4325,
  "Ġhut": 4326,
  "Ġsnuggled": 4327,
  "Ġraz": 4328,
  "Ġimagined": 4329,
  "Ġmeeting": 4330,
  "Ġashtray": 4331,
  "Ġbirdc": 4332,
  "Ġcontent": 4333,
  "uckily": 4334,
  "Ġdrain": 4335,
  "Ġseparate": 4336,
  "Ġletters": 4337,
  "Ġcups": 4338,
  "Ġletting": 4339,
  "Ġbirdcage": 4340,
  "mend": 4341,
  "Ġcrib": 4342,
  "Ġshower": 4343,
  "mbol": 4344,
  "Ġbeef": 4345,
  "Ġjewelry": 4346,
  "ĠJake": 4347,
  "commend": 4348,
  "Ġregret": 4349,
  "Daddy": 4350,
  "asis": 4351,
  "Ġserve": 4352,
  "Ġrecommend": 4353,
  "Ġsymbol": 4354,
  "Ġcards": 4355,
  "Ġmeas": 4356,
  "Ġhanger": 4357,
  "Ġremove": 4358,
  "Ġreve": 4359,
  "Ġmustache": 4360,
  "Ġtease": 4361,
  "Ġnovel": 4362,
  "iform": 4363,
  "Ġdelay": 4364,
  "Ġlawy": 4365,
  "leased": 4366,
  "Ġcalend": 4367,
  "Ġuniform": 4368,
  "Ġeasily": 4369,
  "Ġedge": 4370,
  "Bobo": 4371,
  "Ġdictionary": 4372,
  "Ġchance": 4373,
  "Ġstrawberries": 4374,
  "Ġsausage": 4375,
  "Ġfather": 4376,
  "Ġwashing": 4377,
  "Ġnobody": 4378,
  "Ġreveal": 4379,
  "Ġoasis": 4380,
  "Ġraining": 4381,
  "Ġlions": 4382,
  "ĠRob": 4383,
  "Ġautomobile": 4384,
  "essie": 4385,
  "Ġproblems": 4386,
  "mand": 4387,
  "Ġcalendar": 4388,
  "Ġwaffle": 4389,
  "ĠMiss": 4390,
  "Ġlemonade": 4391,
  "Ġvisited": 4392,
  "Ġtrains": 4393,
  "Ġmitten": 4394,
  "Ġtrusted": 4395,
  "Ġfestival": 4396,
  "eterin": 4397,
  "eterinarian": 4398,
  "Ġfishing": 4399,
  "Ġknows": 4400,
  "Ġveterinarian": 4401,
  "ĠAre": 4402,
  "Ġyield": 4403,
  "Ġattach": 4404,
  "Ġmarched": 4405,
  "xy": 4406,
  "Ġrazor": 4407,
  "Ġairplane": 4408,
  "Ġroared": 4409,
  "Ġreverse": 4410,
  "Ġsocks": 4411,
  "Ġlawyer": 4412,
  "Ġstom": 4413,
  "Ġbelongs": 4414,
  "Ġpinch": 4415,
  "Ġstickers": 4416,
  "Ġcell": 4417,
  "Ġpanic": 4418,
  "Ġchickens": 4419,
  "Ġsurrender": 4420,
  "Ġclassroom": 4421,
  "nit": 4422,
  "Ġsent": 4423,
  "Ġaccept": 4424,
  "Ġwindows": 4425,
  "ĠCarl": 4426,
  "Fluffy": 4427,
  "asp": 4428,
  "Ġinvite": 4429,
  "Ġdresses": 4430,
  "Ġcliff": 4431,
  "Ġbillboard": 4432,
  "Ġlawn": 4433,
  "niture": 4434,
  "Ġinsisted": 4435,
  "Ġdiscu": 4436,
  "ait": 4437,
  "Ġtub": 4438,
  "Ġcreatures": 4439,
  "Jane": 4440,
  "Ġsearching": 4441,
  "Ġfurniture": 4442,
  "Ġfloat": 4443,
  "Ġcollection": 4444,
  "Go": 4445,
  "Quack": 4446,
  "Ġplayer": 4447,
  "Ġstruggling": 4448,
  "Ġjunk": 4449,
  "Ġtrade": 4450,
  "ĠSunny": 4451,
  "Ġsandbox": 4452,
  "Ġpair": 4453,
  "Ġsneezed": 4454,
  "Ġreplace": 4455,
  "Ġalarm": 4456,
  "Ġholes": 4457,
  "Ġblowing": 4458,
  "Ġpressed": 4459,
  "Ġwhip": 4460,
  "Ġlie": 4461,
  "Ġfive": 4462,
  "Ġburied": 4463,
  "riger": 4464,
  "rigerator": 4465,
  "laud": 4466,
  "Give": 4467,
  "ĠPandy": 4468,
  "Ġlumber": 4469,
  "Ġrefrigerator": 4470,
  "Ġpapers": 4471,
  "Ġstared": 4472,
  "nce": 4473,
  "ĠPipp": 4474,
  "ium": 4475,
  "Ġconf": 4476,
  "Ġcountry": 4477,
  "Ġwaste": 4478,
  "Ġsupply": 4479,
  "Ġhuman": 4480,
  "Ġquiz": 4481,
  "Ġmod": 4482,
  "Ġknob": 4483,
  "Ġpatiently": 4484,
  "Ġhanded": 4485,
  "ĠWould": 4486,
  "Ġped": 4487,
  "aches": 4488,
  "ulu": 4489,
  "Ġsteps": 4490,
  "Bye": 4491,
  "Ġfla": 4492,
  "etch": 4493,
  "Ġsprayed": 4494,
  "Ġduring": 4495,
  "Ġapron": 4496,
  "Ġfiref": 4497,
  "Ġsnap": 4498,
  "ĠSque": 4499,
  "son": 4500,
  "Ġperfectly": 4501,
  "Ġstable": 4502,
  "Ġrail": 4503,
  "rec": 4504,
  "Ġrules": 4505,
  "Ġdifference": 4506,
  "Ġabove": 4507,
  "Ġcur": 4508,
  "Ġapplaud": 4509,
  "Ġargue": 4510,
  "Ġlanguage": 4511,
  "ĠPoppy": 4512,
  "Ġchose": 4513,
  "ĠDolly": 4514,
  "Ġlic": 4515,
  "igi": 4516,
  "wards": 4517,
  "ĠFloppy": 4518,
  "Ġyucky": 4519,
  "Ġdestroyed": 4520,
  "Ġson": 4521,
  "Ġincre": 4522,
  "Ġbikes": 4523,
  "ĠPeople": 4524,
  "aspoon": 4525,
  "ĠOK": 4526,
  "Ġbet": 4527,
  "quest": 4528,
  "Ġfeelings": 4529,
  "Ġignore": 4530,
  "Re": 4531,
  "Your": 4532,
  "Ġadmire": 4533,
  "Ġpage": 4534,
  "Ġdemand": 4535,
  "Ġseeing": 4536,
  "Ġstretched": 4537,
  "Ġrequest": 4538,
  "astic": 4539,
  "Ġteaspoon": 4540,
  "ison": 4541,
  "Ġburned": 4542,
  "ĠGrandpa": 4543,
  "Ġrespons": 4544,
  "Ġbumped": 4545,
  "Ġshoulder": 4546,
  "Ġpeek": 4547,
  "ays": 4548,
  "Ġhappens": 4549,
  "reci": 4550,
  "ips": 4551,
  "Ġhate": 4552,
  "Ġpoked": 4553,
  "Ġappreci": 4554,
  "Ġga": 4555,
  "Ġlicense": 4556,
  "Ġbuckle": 4557,
  "eor": 4558,
  "Ġmarbles": 4559,
  "Ġthrowing": 4560,
  "Al": 4561,
  "Ġunite": 4562,
  "Ġleaned": 4563,
  "Ġnews": 4564,
  "Ġended": 4565,
  "hood": 4566,
  "ummer": 4567,
  "Ġcared": 4568,
  "Ġvehicle": 4569,
  "Ġfalls": 4570,
  "inked": 4571,
  "Ġbaked": 4572,
  "adly": 4573,
  "cted": 4574,
  "adium": 4575,
  "Is": 4576,
  "Ġproudly": 4577,
  "Ġstadium": 4578,
  "anges": 4579,
  "Ġfought": 4580,
  "Ġinf": 4581,
  "Ġvac": 4582,
  "Wait": 4583,
  "Ġweap": 4584,
  "Ġrestore": 4585,
  "Ġahead": 4586,
  "Ġranch": 4587,
  "Ġdigg": 4588,
  "Ġscratch": 4589,
  "Ġspade": 4590,
  "vest": 4591,
  "Ġdigging": 4592,
  "Ġberry": 4593,
  "Ġmall": 4594,
  "Ġmodel": 4595,
  "ecause": 4596,
  "Ġmystery": 4597,
  "ĠBa": 4598,
  "Ġcapt": 4599,
  "ari": 4600,
  "Ġsuffer": 4601,
  "ricane": 4602,
  "usie": 4603,
  "Ġcaring": 4604,
  "Ġvalley": 4605,
  "eorge": 4606,
  "Ch": 4607,
  "Ġknown": 4608,
  "Ġjail": 4609,
  "ĠHoppy": 4610,
  "uggage": 4611,
  "Ġwine": 4612,
  "Ġexpec": 4613,
  "ĠPip": 4614,
  "Ġlaughs": 4615,
  "ĠZoom": 4616,
  "Ġmineral": 4617,
  "Ġwinning": 4618,
  "Ġblinked": 4619,
  "mm": 4620,
  "ĠHere": 4621,
  "Ġsummer": 4622,
  "Ġskill": 4623,
  "Ġluggage": 4624,
  "zag": 4625,
  "ĠLulu": 4626,
  "Ġwatered": 4627,
  "rise": 4628,
  "Ġfetch": 4629,
  "Ġcounter": 4630,
  "Ġmention": 4631,
  "Ġworth": 4632,
  "ĠLittle": 4633,
  "Ġguy": 4634,
  "Ġfields": 4635,
  "Ġprotec": 4636,
  "elcome": 4637,
  "Ġflood": 4638,
  "Ġshone": 4639,
  "Ġattention": 4640,
  "igzag": 4641,
  "Ġolder": 4642,
  "aring": 4643,
  "Ġsunrise": 4644,
  "Ġplastic": 4645,
  "Ġbrothers": 4646,
  "Ġprovide": 4647,
  "cus": 4648,
  "ucture": 4649,
  "Ġtwirled": 4650,
  "Ġstructure": 4651,
  "Sammy": 4652,
  "Ġgrape": 4653,
  "emember": 4654,
  "Ġraise": 4655,
  ",âĢĿ": 4656,
  "Mittens": 4657,
  "Ġharbor": 4658,
  "Ġenter": 4659,
  "Ġrabbits": 4660,
  "Ġquietly": 4661,
  "ĠBirdy": 4662,
  "Ġhurricane": 4663,
  "noon": 4664,
  "Ġafternoon": 4665,
  "Ġsqueeze": 4666,
  "Ġpoppy": 4667,
  "ĠGive": 4668,
  "Ġshrugged": 4669,
  "Ġsew": 4670,
  "Ġkneel": 4671,
  "?\".": 4672,
  "ĠTed": 4673,
  "Ġport": 4674,
  "Grandma": 4675,
  "Ġmyself": 4676,
  "Ġevening": 4677,
  "Ġpages": 4678,
  "ding": 4679,
  "ĠWhere": 4680,
  "amber": 4681,
  "Ġclosely": 4682,
  "Ġcartoons": 4683,
  "sity": 4684,
  "Ġthumb": 4685,
  "Ġdaisy": 4686,
  "Ġprop": 4687,
  "rmomet": 4688,
  "Ġexercise": 4689,
  "aked": 4690,
  "uct": 4691,
  "Ġzoomed": 4692,
  "Ġinvest": 4693,
  "Ġshivering": 4694,
  "Ġacorns": 4695,
  "Ġplanes": 4696,
  "ĠJoey": 4697,
  "rmometer": 4698,
  "Ġinvestig": 4699,
  "oby": 4700,
  "Ġkinds": 4701,
  "ipping": 4702,
  "ĠGigi": 4703,
  "ĠRu": 4704,
  "Ġbreathe": 4705,
  "Ġvacation": 4706,
  "Ġcaptain": 4707,
  "Ġoats": 4708,
  "Ġwarn": 4709,
  "Ġchamber": 4710,
  "ĠMum": 4711,
  "ived": 4712,
  "ement": 4713,
  "Ġhorses": 4714,
  "Ġinvestigate": 4715,
  "Ġsqueezed": 4716,
  "Ġribbon": 4717,
  "Ġpeanuts": 4718,
  "Ġleak": 4719,
  "Ġtour": 4720,
  "Ex": 4721,
  "Ġtoe": 4722,
  "Ġimagination": 4723,
  "Ġsteam": 4724,
  "Ġmatches": 4725,
  "Ġbelieved": 4726,
  "Ġhurting": 4727,
  "vet": 4728,
  "quake": 4729,
  "icorn": 4730,
  "Ġsplashing": 4731,
  "ĠCo": 4732,
  "Ġsailing": 4733,
  "lest": 4734,
  "Ġmenu": 4735,
  "Ġunicorn": 4736,
  "Ġthermometer": 4737,
  "Ġsniffed": 4738,
  "Ġclaw": 4739,
  "ĠSqueaky": 4740,
  "lid": 4741,
  "Ġencouraged": 4742,
  "thank": 4743,
  "Ġexpect": 4744,
  "Ġslipper": 4745,
  "Ġearthquake": 4746,
  "Ġevent": 4747,
  "Ġequ": 4748,
  "Ġrooms": 4749,
  "Ġslippery": 4750,
  "ooped": 4751,
  "ĠUn": 4752,
  "Ġdiscuss": 4753,
  "Ġholid": 4754,
  "Ġofficer": 4755,
  "Ġfireworks": 4756,
  "Ġspending": 4757,
  "Ġpad": 4758,
  "Ġmass": 4759,
  "Ġexamine": 4760,
  "Ġcomf": 4761,
  "ĠQuack": 4762,
  "Ġsparkled": 4763,
  "Ġuniverse": 4764,
  "Ġplaced": 4765,
  "Ġupstairs": 4766,
  "ĠJohnson": 4767,
  "Ġpancakes": 4768,
  "Ġchirped": 4769,
  "Ġnames": 4770,
  "Ġoranges": 4771,
  "Ġbeauty": 4772,
  "Ġbeans": 4773,
  "ups": 4774,
  "low": 4775,
  "Ġpoison": 4776,
  "Ġsport": 4777,
  "Ġrow": 4778,
  "ety": 4779,
  "ĠBessie": 4780,
  "Ġselling": 4781,
  "Ġsorts": 4782,
  "Ġbrick": 4783,
  "Ġfreeze": 4784,
  "Ġtreasures": 4785,
  "Ġstud": 4786,
  "Ġscore": 4787,
  "Ġener": 4788,
  "Jill": 4789,
  "Ġflapped": 4790,
  "Ġinvit": 4791,
  "Ġfut": 4792,
  "Ġsafari": 4793,
  "Ġpaid": 4794,
  "Ġfuture": 4795,
  "Ġscold": 4796,
  "Ġsprink": 4797,
  "Ġcolour": 4798,
  "Ġok": 4799,
  "Ġchairs": 4800,
  "Ġweapon": 4801,
  "Jimmy": 4802,
  "Ġrepeat": 4803,
  "Ġflavor": 4804,
  "'d": 4805,
  "Ġfrogs": 4806,
  "ickey": 4807,
  "ĠTina": 4808,
  "atched": 4809,
  "Ġwag": 4810,
  "ĠPippin": 4811,
  "Ġaw": 4812,
  "Ġagree": 4813,
  "ring": 4814,
  "Ġshovel": 4815,
  "Ġlid": 4816,
  "Ġbeep": 4817,
  "arlie": 4818,
  "Ġinfant": 4819,
  "Ġx": 4820,
  "ĠBinky": 4821,
  "Ġwaving": 4822,
  "Ġreceived": 4823,
  "icing": 4824,
  "Ġsticker": 4825,
  "Ġsafety": 4826,
  "Ġtalent": 4827,
  "mble": 4828,
  "Ġoffer": 4829,
  "Ġtip": 4830,
  "Ġow": 4831,
  "Ġstomach": 4832,
  "Ġfollowing": 4833,
  "Ġtore": 4834,
  "Ġpup": 4835,
  "Ġholiday": 4836,
  "boo": 4837,
  "Ġcherry": 4838,
  "Ġopens": 4839,
  "Ġvroom": 4840,
  "Ġprayed": 4841,
  "Ġtremble": 4842,
  "ĠBetty": 4843,
  "Ġgain": 4844,
  "Bun": 4845,
  "Ġuniversity": 4846,
  "Ġneighborhood": 4847,
  "Ġgiven": 4848,
  "uggles": 4849,
  "Ġplates": 4850,
  "fa": 4851,
  "Ġpigs": 4852,
  "Ġlabel": 4853,
  "Ġshot": 4854,
  "Ġsettle": 4855,
  "ĠHarry": 4856,
  "Ġthanks": 4857,
  "Ġworse": 4858,
  "ik": 4859,
  "Ġplanted": 4860,
  "Ġnavy": 4861,
  "Ġexplored": 4862,
  "Ġrealised": 4863,
  "Ġreceive": 4864,
  "Ġyawned": 4865,
  "ah": 4866,
  "ĠBuzzy": 4867,
  "Ġgasped": 4868,
  "Ġcandles": 4869,
  "Ġpur": 4870,
  "ĠOw": 4871,
  "Ġstops": 4872,
  "Ġdoors": 4873,
  "Ġbuzz": 4874,
  "ĠLucky": 4875,
  "Ġgrocery": 4876,
  "Ġpushing": 4877,
  "ipment": 4878,
  "ĠSund": 4879,
  "ĠHel": 4880,
  "Ġbother": 4881,
  "chie": 4882,
  "Ġvanished": 4883,
  "Ġordered": 4884,
  "Ġapart": 4885,
  "Ġequipment": 4886,
  "Ġjazz": 4887,
  "Ġdrinking": 4888,
  "Ġrespectful": 4889,
  "Ġcopper": 4890,
  "ges": 4891,
  "ĠZip": 4892,
  "Ġcutting": 4893,
  "Ġholds": 4894,
  "Ġsomewhere": 4895,
  "Ġignored": 4896,
  "Ġwriting": 4897,
  "ssible": 4898,
  "Ġrang": 4899,
  "Ġalive": 4900,
  "Ġclaws": 4901,
  "uggle": 4902,
  "Ow": 4903,
  "yth": 4904,
  "Ġobserve": 4905,
  "Ġcakes": 4906,
  "Ġurge": 4907,
  "ĠPinky": 4908,
  "Ġscattered": 4909,
  "Ġtwisted": 4910,
  "ythm": 4911,
  "Ġwarning": 4912,
  "Ġshooting": 4913,
  "Ġcatching": 4914,
  "Ġlives": 4915,
  "Ġbrain": 4916,
  "ĠBoun": 4917,
  "oph": 4918,
  "Ġbouncing": 4919,
  "Ġwre": 4920,
  "Ġsticky": 4921,
  "ĠEverywhere": 4922,
  "Ġtide": 4923,
  "Ġmummy": 4924,
  "Ġsofa": 4925,
  "Ġcrashed": 4926,
  "ĠSnuggles": 4927,
  "Ġslip": 4928,
  "ince": 4929,
  "Joe": 4930,
  "Ġspots": 4931,
  "Ġdare": 4932,
  "Ġrhythm": 4933,
  "men": 4934,
  "Ġpunish": 4935,
  "Ġenergy": 4936,
  "Ġoper": 4937,
  "looking": 4938,
  "Ġstreng": 4939,
  "Ġsmells": 4940,
  "Ġmarried": 4941,
  "mare": 4942,
  "Ġminute": 4943,
  "Ġskills": 4944,
  "Ġjumps": 4945,
  "Daisy": 4946,
  "Ġsoak": 4947,
  "ĠCl": 4948,
  "Ġstrength": 4949,
  "ĠGeorge": 4950,
  "Ġbricks": 4951,
  "Ġforgotten": 4952,
  "sters": 4953,
  "Ġallow": 4954,
  "Ġbrighter": 4955,
  "Ġmassage": 4956,
  "Ġdressed": 4957,
  "Ġpalm": 4958,
  "Ġinst": 4959,
  "Ġwaffles": 4960,
  "ship": 4961,
  "ween": 4962,
  "Mmm": 4963,
  "Ġappear": 4964,
  "Ġbetween": 4965,
  "ffic": 4966,
  "Ġtonight": 4967,
  "Ġprinter": 4968,
  "Everyone": 4969,
  "Ġfrowned": 4970,
  "Ġsty": 4971,
  "Ġjewels": 4972,
  "Ġali": 4973,
  "Ġcrossed": 4974,
  "Ġsteel": 4975,
  "Because": 4976,
  "med": 4977,
  "Emma": 4978,
  "ecture": 4979,
  "ero": 4980,
  "Ġnightmare": 4981,
  "ĠSusie": 4982,
  "Ġclapping": 4983,
  "ib": 4984,
  "Ġlecture": 4985,
  "Ġrelease": 4986,
  "ĠMickey": 4987,
  "Ġcircus": 4988,
  "Ġbak": 4989,
  "Ġtraffic": 4990,
  "Mummy": 4991,
  "Ġhers": 4992,
  "Ġmailman": 4993,
  "Ġteaching": 4994,
  "Ġwandered": 4995,
  "Ġremain": 4996,
  "Ġleather": 4997,
  "ores": 4998,
  "Ġhist": 4999,
  "Ġpirates": 5000,
  "sit": 5001,
  "Ġparts": 5002,
  "Ġtrapped": 5003,
  "Ġlip": 5004,
  "Ġhistory": 5005,
  "Little": 5006,
  "Ġappreciate": 5007,
  "ĠKim": 5008,
  "xygen": 5009,
  "ĠToby": 5010,
  "Ġtomatoes": 5011,
  "Ġpermit": 5012,
  "Ġresponsible": 5013,
  "Ġprune": 5014,
  "ĠMar": 5015,
  "Ġyawn": 5016,
  "angers": 5017,
  "Ġgiggle": 5018,
  "walk": 5019,
  "Ġrush": 5020,
  "Ġbrightly": 5021,
  "ĠFinn": 5022,
  "Ġstrangers": 5023,
  "nies": 5024,
  "Ġpastel": 5025,
  "Ġweight": 5026,
  "!\".": 5027,
  "Ġoperation": 5028,
  "utter": 5029,
  "Ġpotatoes": 5030,
  "Ġinclude": 5031,
  "Ġworms": 5032,
  "Ġchewed": 5033,
  "Ġwagging": 5034,
  "ising": 5035,
  "Ġdisagre": 5036,
  "Ġjogged": 5037,
  "Ġsidewalk": 5038,
  "Ġcollected": 5039,
  "omed": 5040,
  "Ġentered": 5041,
  "ories": 5042,
  "ĠHoot": 5043,
  "Ġunderground": 5044,
  "Ġweb": 5045,
  "ishing": 5046,
  "Ġlemons": 5047,
  "Ġpleased": 5048,
  "Ġcastles": 5049,
  "Ġsecond": 5050,
  "ĠBluey": 5051,
  "Ġjogging": 5052,
  "unately": 5053,
  "ĠEventually": 5054,
  "Ġbend": 5055,
  "Ġkingdom": 5056,
  "Ġchores": 5057,
  "Ġpresents": 5058,
  "Ġprice": 5059,
  "Ġstrip": 5060,
  "Ġwisdom": 5061,
  "Ġluck": 5062,
  "Ġfloating": 5063,
  "Ġbouncy": 5064,
  "Days": 5065,
  "allow": 5066,
  "Teddy": 5067,
  "Ġscolded": 5068,
  "Ġnation": 5069,
  "Ġexper": 5070,
  "Ġblueberry": 5071,
  "Ġincrease": 5072,
  "Ġkitty": 5073,
  "ĠHelp": 5074,
  "Ġbreaks": 5075,
  "ĠGr": 5076,
  "Ġstarts": 5077,
  "Ġmarching": 5078,
  "Ġcheek": 5079,
  "Ġheat": 5080,
  "Ġsolved": 5081,
  "Ġdeeper": 5082,
  "Ġsnowball": 5083,
  "Ġfolded": 5084,
  "Ġtracks": 5085,
  "These": 5086,
  "Ġgrowled": 5087,
  "Ducky": 5088,
  "agull": 5089,
  "Ġelephants": 5090,
  "Ġwelcom": 5091,
  "Ġsoftly": 5092,
  "Ġmice": 5093,
  "Ġemer": 5094,
  "Ġmanage": 5095,
  "Ġbent": 5096,
  "Ġburrow": 5097,
  "Ġnetwork": 5098,
  "sing": 5099,
  "Ġglo": 5100,
  "Ġspaceship": 5101,
  "Ġracing": 5102,
  "Ġinvitation": 5103,
  "Welcome": 5104,
  "Ġpuzzles": 5105,
  "ĠY": 5106,
  "Ġslice": 5107,
  "Ġblankets": 5108,
  "All": 5109,
  "'ve": 5110,
  "Ġpetted": 5111,
  "Ġmeasured": 5112,
  "Ġdared": 5113,
  "Ġmemory": 5114,
  "Ġbudge": 5115,
  "omeday": 5116,
  "vour": 5117,
  "Ġintroduce": 5118,
  "Ġseagull": 5119,
  "Ġsip": 5120,
  "bug": 5121,
  "Ġspill": 5122,
  "Ġmemories": 5123,
  "Ġgloves": 5124,
  "Blue": 5125,
  "ĠCharlie": 5126,
  "ĠSunday": 5127,
  "edn": 5128,
  "ednesday": 5129,
  "Ġunh": 5130,
  "Ġencourage": 5131,
  "Ġmoves": 5132,
  "use": 5133,
  "Ġpedal": 5134,
  "ola": 5135,
  "ĠNext": 5136,
  "Ġbegged": 5137,
  "Will": 5138,
  "Ġappro": 5139,
  "essed": 5140,
  "Ġsomeday": 5141,
  "Ġhadn": 5142,
  "Ġsimp": 5143,
  "hell": 5144,
  "Ġbelow": 5145,
  "Ġwreck": 5146,
  "iers": 5147,
  "iki": 5148,
  "ded": 5149,
  "Ġpulling": 5150,
  "Ġstraight": 5151,
  "Ġfavour": 5152,
  "Ġfinds": 5153,
  "ester": 5154,
  "Ġmentioned": 5155,
  "fortunately": 5156,
  "Ġpetals": 5157,
  "ission": 5158,
  "Ġsnail": 5159,
  "Yuck": 5160,
  "Ġcollecting": 5161,
  "Ġheads": 5162,
  "Ġoxygen": 5163,
  "Ġunlocked": 5164,
  "Ġweeks": 5165,
  "esterday": 5166,
  "oved": 5167,
  "ĠSadly": 5168,
  "Ġdisagreed": 5169,
  "Ġquack": 5170,
  "ĠWednesday": 5171,
  "Ġpermission": 5172,
  "Ġshouting": 5173,
  "Ġraised": 5174,
  "Ġseashell": 5175,
  "Ġprett": 5176,
  "Ġstole": 5177,
  "Ġfavourite": 5178,
  "Not": 5179,
  "Ġspike": 5180,
  "Ġrested": 5181,
  "Ġpitch": 5182,
  "Before": 5183,
  "Ġzigzag": 5184,
  "Ġunhappy": 5185,
  "Ġolives": 5186,
  "ĠLee": 5187,
  "Ġdoctors": 5188,
  "ĠSpe": 5189,
  "Ġanytime": 5190,
  "Ġbones": 5191,
  "ĠOwl": 5192,
  "Ġvel": 5193,
  "Ġmuffins": 5194,
  "Ġfoods": 5195,
  "Ġremained": 5196,
  "Ġbreaking": 5197,
  "ĠV": 5198,
  "Ġvelvet": 5199,
  "rage": 5200,
  "Ġgreedy": 5201,
  "Ġrecognize": 5202,
  "Ġflies": 5203,
  "Ġladybug": 5204,
  "Ġboo": 5205,
  "Ġsoldiers": 5206,
  "Ġisn": 5207,
  "Ġdried": 5208,
  "Ġhills": 5209,
  "Ġfloated": 5210,
  "Ġfirefight": 5211,
  "During": 5212,
  "ĠOlive": 5213,
  "Ġeasier": 5214,
  "Ġlandscape": 5215,
  "Ġescap": 5216,
  "Ġcourage": 5217,
  "Ġpears": 5218,
  "lex": 5219,
  "umble": 5220,
  "ĠFroggy": 5221,
  "Ġteasing": 5222,
  "Ġresting": 5223,
  "Ġfurt": 5224,
  "ĠBow": 5225,
  "Luckily": 5226,
  "Ellie": 5227,
  "ucked": 5228,
  "Ġsucceeded": 5229,
  "Ġguys": 5230,
  "Ġprinted": 5231,
  "ored": 5232,
  "Ġpracticing": 5233,
  "ddy": 5234,
  "Ġdied": 5235,
  "Ġourselves": 5236,
  "ĠSparky": 5237,
  "Ġshouts": 5238,
  "Ġmama": 5239,
  "Ġsudden": 5240,
  "Ġstyle": 5241,
  "Ġsir": 5242,
  "Ġcrash": 5243,
  "uesday": 5244,
  "Ġstrike": 5245,
  "Ġattached": 5246,
  "Ġgazed": 5247,
  "Ġheel": 5248,
  "Tweety": 5249,
  "Ġfurther": 5250,
  "ab": 5251,
  "Ġlily": 5252,
  "ĠHop": 5253,
  "Ġcandies": 5254,
  "Ġcompany": 5255,
  "Ġpossible": 5256,
  "Yum": 5257,
  "ides": 5258,
  "Ġwhistled": 5259,
  "..": 5260,
  "Ġbalan": 5261,
  "Ġpunished": 5262,
  "ĠTuesday": 5263,
  "Ġwob": 5264,
  "Ġwelcomed": 5265,
  "eep": 5266,
  "Ġprunes": 5267,
  "Next": 5268,
  "ury": 5269,
  "Ġhearts": 5270,
  "Ġslap": 5271,
  "Ġdrinks": 5272,
  "Ġcub": 5273,
  "Ġurged": 5274,
  "Ġpeaches": 5275,
  "Ġwhisper": 5276,
  "ĠMike": 5277,
  "ĠCoco": 5278,
  "iggly": 5279,
  "ĠJazz": 5280,
  "Ġmittens": 5281,
  "Ġtrave": 5282,
  "ution": 5283,
  "Ġlaught": 5284,
  "Ġmuscles": 5285,
  "Ġlaughter": 5286,
  "Ġmuddy": 5287,
  "ĠLilly": 5288,
  "Ġsnapped": 5289,
  "pted": 5290,
  "Ġproperly": 5291,
  "Ġgrabs": 5292,
  "ĠHave": 5293,
  "Ġsurround": 5294,
  "izing": 5295,
  "Nemo": 5296,
  "Ġgroceries": 5297,
  "Ġrecognized": 5298,
  "ĠCra": 5299,
  "ishes": 5300,
  "Ġseats": 5301,
  "ĠRa": 5302,
  "Ġpinched": 5303,
  "Ġmixing": 5304,
  "Ġdemanded": 5305,
  "ĠGod": 5306,
  "osed": 5307,
  "eze": 5308,
  "Ġaccepted": 5309,
  "ĠâĢ": 5310,
  "Ġemergen": 5311,
  "Ġwaist": 5312,
  "Would": 5313,
  "Sh": 5314,
  "Ġlick": 5315,
  "aul": 5316,
  "Ġdelighted": 5317,
  "Ġpoints": 5318,
  "Ġpress": 5319,
  "Ġcape": 5320,
  "igned": 5321,
  "anted": 5322,
  "Ġdoggy": 5323,
  "Ġescaped": 5324,
  "Ġfashion": 5325,
  "ĠBill": 5326,
  "Ġsitu": 5327,
  "Ġtong": 5328,
  "ĠSpeedy": 5329,
  "ophie": 5330,
  "Ġrevealed": 5331,
  "Ġexit": 5332,
  "Ġpulls": 5333,
  "Ġsigh": 5334,
  "Ġlaid": 5335,
  "Ġblink": 5336,
  "Ġseason": 5337,
  "Ġhesit": 5338,
  "ĠBig": 5339,
  "Ġble": 5340,
  "hest": 5341,
  "Ġhon": 5342,
  "Ġstitch": 5343,
  "Ġtug": 5344,
  "Ġgrant": 5345,
  "Ġlung": 5346,
  "act": 5347,
  "ĠChick": 5348,
  "amb": 5349,
  "Ġstair": 5350,
  "Ġdecorations": 5351,
  "Ġpau": 5352,
  "Ġmelted": 5353,
  "Ġmeow": 5354,
  "Ġimage": 5355,
  "Mary": 5356,
  "Ġsprinkles": 5357,
  "Goodbye": 5358,
  "Ġchewing": 5359,
  "Ġalien": 5360,
  "Ġbarks": 5361,
  "ux": 5362,
  "Ġgained": 5363,
  "ĠFinny": 5364,
  "Ġshakes": 5365,
  "Ġpillows": 5366,
  "Ġsetting": 5367,
  "Ġcuddled": 5368,
  "Ġstruggled": 5369,
  "Ġshopping": 5370,
  "Ġstruck": 5371,
  "Ġgranted": 5372,
  "Ġpiggy": 5373,
  "riage": 5374,
  "Ġslapped": 5375,
  "Ġpies": 5376,
  "Ġstruggle": 5377,
  "Ġcolourful": 5378,
  "Ġtastes": 5379,
  "ĠSee": 5380,
  "Ġbringing": 5381,
  "ĠDid": 5382,
  "Ġbrings": 5383,
  "Ġrefre": 5384,
  "Ġpaused": 5385,
  "ĠAlice": 5386,
  "Ġturning": 5387,
  "Ġwaiter": 5388,
  "Ġsimple": 5389,
  "Ġcontest": 5390,
  "Ġburning": 5391,
  "Ġspiders": 5392,
  "Ġprotected": 5393,
  "ĠPat": 5394,
  "Ġlux": 5395,
  "Ġbreeze": 5396,
  "Ready": 5397,
  "Ġideas": 5398,
  "Ġflap": 5399,
  "Ġkeys": 5400,
  "Ġringing": 5401,
  "Ġsupposed": 5402,
  "Ġcreated": 5403,
  "Ġoh": 5404,
  "Ġzipped": 5405,
  "Ġcrow": 5406,
  "Ġpets": 5407,
  "Ġtoes": 5408,
  "Ġrides": 5409,
  "Ġchirping": 5410,
  "Ġpushes": 5411,
  "Ġopin": 5412,
  "Ġwest": 5413,
  "Ew": 5414,
  "ĠIs": 5415,
  "Ġpupil": 5416,
  "ĠKiki": 5417,
  "Ġdrops": 5418,
  "angled": 5419,
  "ĠSqu": 5420,
  "Ġemergency": 5421,
  "cuse": 5422,
  "Ġcoats": 5423,
  "enry": 5424,
  "Ġwiggle": 5425,
  "Ġchips": 5426,
  "Ġtongue": 5427,
  "Ġsliding": 5428,
  "With": 5429,
  "Ġflat": 5430,
  "ĠEnd": 5431,
  "Ġgolden": 5432,
  "ĠOr": 5433,
  "ictory": 5434,
  "ites": 5435,
  "Excuse": 5436,
  "Ġdisagree": 5437,
  "Ġherbs": 5438,
  "Ġdisturbed": 5439,
  "ĠFox": 5440,
  "Ġinstr": 5441,
  "Ġapologize": 5442,
  "Ġpearl": 5443,
  "izes": 5444,
  "Ġsolution": 5445,
  "Ġsausages": 5446,
  "Ġbravely": 5447,
  "ĠGood": 5448,
  "ĠHowever": 5449,
  "Ġapproached": 5450,
  "joyed": 5451,
  "Ġcelebrated": 5452,
  "Ġoverjoyed": 5453,
  "Ġmovies": 5454,
  "Ġpause": 5455,
  "Ġguessed": 5456,
  "Ġago": 5457,
  "Ġsinger": 5458,
  "bies": 5459,
  "Ġmonsters": 5460,
  "Ġstealing": 5461,
  "Ġcamping": 5462,
  "Ġripped": 5463,
  "Ġvanish": 5464,
  "Ġshoulders": 5465,
  "Ġscoop": 5466,
  "Ġluxury": 5467,
  "bba": 5468,
  "apping": 5469,
  "Ġsorting": 5470,
  "oe": 5471,
  "kins": 5472,
  "Ġscaring": 5473,
  "Buddy": 5474,
  "Ġwinner": 5475,
  "Ġstudied": 5476,
  "Ġrescued": 5477,
  "ĠDave": 5478,
  "Ġprepared": 5479,
  "ino": 5480,
  "Ġgotten": 5481,
  "reen": 5482,
  "umes": 5483,
  "ĠWho": 5484,
  "Remember": 5485,
  "Ġgifts": 5486,
  "Ġeagerly": 5487,
  "Ġstudying": 5488,
  "Ġexperience": 5489,
  "Ġradishes": 5490,
  "ĠBounce": 5491,
  "Ġskipping": 5492,
  "Ġpeel": 5493,
  "Ġacted": 5494,
  "Ġsigns": 5495,
  "Ġpassing": 5496,
  "apa": 5497,
  "Ġswooped": 5498,
  "Ġbabies": 5499,
  "ĠTuna": 5500,
  "Ġmountains": 5501,
  "Ġscratched": 5502,
  "Lisa": 5503,
  "year": 5504,
  "Ġcontro": 5505,
  "Ġmarriage": 5506,
  "idey": 5507,
  "Ġachie": 5508,
  "heart": 5509,
  "Ġnect": 5510,
  "Ġdinosaurs": 5511,
  "ction": 5512,
  "Ġnectar": 5513,
  "Ġthrows": 5514,
  "Ġcostumes": 5515,
  "ĠUnder": 5516,
  "Sometimes": 5517,
  "Ġvictory": 5518,
  "Ġinch": 5519,
  "Ġtex": 5520,
  "Ġtexture": 5521,
  "edding": 5522,
  "ĠBl": 5523,
  "Ġbleed": 5524,
  "Ġfed": 5525,
  "Ġstamps": 5526,
  "Ġbloomed": 5527,
  "Ġnails": 5528,
  "Ġfamil": 5529,
  "ĠPenny": 5530,
  "Ġrul": 5531,
  "Ġshopkeeper": 5532,
  "ĠGrace": 5533,
  "ĠAlways": 5534,
  "astles": 5535,
  "Ġcontinue": 5536,
  "ĠZoomy": 5537,
  "Ġneighbors": 5538,
  "Today": 5539,
  "Ġresult": 5540,
  "iggy": 5541,
  "Ġsandcastles": 5542,
  "ĠWhenever": 5543,
  "Mark": 5544,
  "ĠSharing": 5545,
  "Ġtremb": 5546,
  "Ġfrosting": 5547,
  "Ġeagle": 5548,
  "Ġweeping": 5549,
  "Ġwhistling": 5550,
  "Woof": 5551,
  "ĠBee": 5552,
  "Ġcupcakes": 5553,
  "Ġeast": 5554,
  "ippy": 5555,
  "Ġsorted": 5556,
  "Ġnone": 5557,
  "Ġzookeeper": 5558,
  "Ġloose": 5559,
  "Ġbrus": 5560,
  "Ġpurred": 5561,
  "rin": 5562,
  "eath": 5563,
  "Ġzero": 5564,
  "Ġsweetheart": 5565,
  "Ġrelaxed": 5566,
  "Ġrealize": 5567,
  "ud": 5568,
  "Ġmarkers": 5569,
  "Ġdire": 5570,
  "Ġcontrol": 5571,
  "Ġbrand": 5572,
  "Ġtouching": 5573,
  "Ann": 5574,
  "Ġquite": 5575,
  "Alice": 5576,
  "usty": 5577,
  "Ġbank": 5578,
  "Ġcrumb": 5579,
  "Ġcomforted": 5580,
  "na": 5581,
  "Ġwedding": 5582,
  "Ġmagician": 5583,
  "ĠLola": 5584,
  "Ġneighb": 5585,
  "Ġsettled": 5586,
  "Ġcomple": 5587,
  "ĠMummy": 5588,
  "Ġdecorated": 5589,
  "Ġweighed": 5590,
  "isty": 5591,
  "Ġbuzzing": 5592,
  "Ġtwigs": 5593,
  "Ġdrag": 5594,
  "ĠMandy": 5595,
  "ĠRobby": 5596,
  "Ġimportance": 5597,
  "ĠSk": 5598,
  "Ġunderstanding": 5599,
  "Ġsneak": 5600,
  "Ġvideos": 5601,
  "Ġcalls": 5602,
  "ĠAlex": 5603,
  "ĠRo": 5604,
  "ĠTw": 5605,
  "Ġbunch": 5606,
  "Ġworker": 5607,
  "ĠEverything": 5608,
  "Ġintroduc": 5609,
  "Ġbun": 5610,
  "Ġshined": 5611,
  "ĠBaa": 5612,
  "choo": 5613,
  "Ġrecorded": 5614,
  "ĠUncle": 5615,
  "ĠDory": 5616,
  "Ġcones": 5617,
  "araway": 5618,
  "Ġsizes": 5619,
  "Ġmatched": 5620,
  "Ġbroom": 5621,
  "Ġfaraway": 5622,
  "Ġamazement": 5623,
  "ĠKeep": 5624,
  "ĠChr": 5625,
  "Ġparties": 5626,
  "Ġweren": 5627,
  "Ġflutter": 5628,
  "riend": 5629,
  "Ġtucked": 5630,
  "Ġwanting": 5631,
  "inkle": 5632,
  "ĠZara": 5633,
  "Ġthreat": 5634,
  "Ġacting": 5635,
  "Ġhomework": 5636,
  "ĠBubba": 5637,
  "ging": 5638,
  "ĠFollow": 5639,
  "Ġpaints": 5640,
  "meal": 5641,
  "Ġcompetition": 5642,
  "Ġtickle": 5643,
  "Ġaff": 5644,
  "Ġsore": 5645,
  "Ġmachines": 5646,
  "Ġpouring": 5647,
  "Ġmelting": 5648,
  "Surpr": 5649,
  "Ġlollipops": 5650,
  "Ġyouth": 5651,
  "Bella": 5652,
  "Ġoatmeal": 5653,
  "Johnny": 5654,
  "Ġdent": 5655,
  "Ġbuildings": 5656,
  "Ġorganizing": 5657,
  "Ġregretted": 5658,
  "Ġkisses": 5659,
  "ĠSpidey": 5660,
  "Jenny": 5661,
  "Ġmeasuring": 5662,
  "zing": 5663,
  "Ġsoaked": 5664,
  "Ġblood": 5665,
  "Ġlearnt": 5666,
  "Ġactions": 5667,
  "Ġcuddle": 5668,
  "illie": 5669,
  "ĠTilly": 5670,
  "Ġguns": 5671,
  "Ġplays": 5672,
  "Ġexpected": 5673,
  "ĠRabbit": 5674,
  "do": 5675,
  "ĠDog": 5676,
  "aded": 5677,
  "Bu": 5678,
  "rr": 5679,
  "Ġlined": 5680,
  "Ġnaps": 5681,
  "Ġtune": 5682,
  "allen": 5683,
  "Ġbunnies": 5684,
  "Ġhated": 5685,
  "Ġremoved": 5686,
  "Ġroots": 5687,
  "Ġsilence": 5688,
  "Ġchallen": 5689,
  "ĠSophie": 5690,
  "Ġcurtains": 5691,
  "Whiskers": 5692,
  "Ġwherever": 5693,
  "Happy": 5694,
  "ĠElly": 5695,
  "Ġheaded": 5696,
  "ĠThese": 5697,
  "ĠDanny": 5698,
  "Ġadmir": 5699,
  "Ġbowed": 5700,
  "Ġfollows": 5701,
  "Ġserved": 5702,
  "ĠDan": 5703,
  "Ġsoared": 5704,
  "Mimi": 5705,
  "Ġkicking": 5706,
  "ĠSquirrel": 5707,
  "ents": 5708,
  "Ġtwisty": 5709,
  "Ġconfl": 5710,
  "gers": 5711,
  "coat": 5712,
  "Ġowned": 5713,
  "Ġyelling": 5714,
  "ĠRuby": 5715,
  "gie": 5716,
  "ĠSomeone": 5717,
  "Ġwags": 5718,
  "right": 5719,
  "Ġembarrass": 5720,
  "Ġbeat": 5721,
  "Ġraincoat": 5722,
  "Ġhopes": 5723,
  "Ġsituation": 5724,
  "Ġsneaky": 5725,
  "Ġpatterns": 5726,
  "Ġconcer": 5727,
  "Ġshed": 5728,
  "Ġlips": 5729,
  "Ġconflict": 5730,
  "Ġlines": 5731,
  "Ġdestination": 5732,
  "Surprise": 5733,
  "ĠRock": 5734,
  "ĠSu": 5735,
  "Ġstaying": 5736,
  "Ġhi": 5737,
  "Ġtreehouse": 5738,
  "Ġruler": 5739,
  "ĠâĢĵ": 5740,
  "Ġcreation": 5741,
  "ĠQuackers": 5742,
  "Ġtangled": 5743,
  "Ġargued": 5744,
  "Ġpastries": 5745,
  "Fred": 5746,
  "ĠBefore": 5747,
  "Ġdam": 5748,
  "Ġlosing": 5749,
  "Ġpra": 5750,
  "Ġstirring": 5751,
  "ĠPaul": 5752,
  "Ġspoons": 5753,
  "Ġache": 5754,
  "izard": 5755,
  "ĊĠ": 5756,
  "Ġchef": 5757,
  "Ġplaytime": 5758,
  "Meow": 5759,
  "Ġarrive": 5760,
  "Ġopinion": 5761,
  "Ġpupp": 5762,
  "Ġaren": 5763,
  "Ġstaring": 5764,
  "anta": 5765,
  "Ġpaintings": 5766,
  "Tweetie": 5767,
  "Ġintroduced": 5768,
  "Ġbye": 5769,
  "Sp": 5770,
  "Ġrepeated": 5771,
  "Ġnoon": 5772,
  "zen": 5773,
  "Ġrefreshed": 5774,
  "Ġreleased": 5775,
  "Ġbang": 5776,
  "Ġobserved": 5777,
  "Ġdecision": 5778,
  "ther": 5779,
  "Ġbites": 5780,
  "please": 5781,
  "mother": 5782,
  "Ġours": 5783,
  "Ġhealed": 5784,
  "ĠRemember": 5785,
  "Ġgirls": 5786,
  "Ġseems": 5787,
  "jam": 5788,
  "ĠPapa": 5789,
  "Ġdragons": 5790,
  "Ġkeeps": 5791,
  "Ġkneeled": 5792,
  "Ġbrushed": 5793,
  "Ġcrunch": 5794,
  "Ġforgi": 5795,
  "Ġteased": 5796,
  "ifi": 5797,
  "Ġranger": 5798,
  "antly": 5799,
  "sted": 5800,
  "reat": 5801,
  "Ġbumpy": 5802,
  "Emily": 5803,
  "Ġcrumbs": 5804,
  "Ġfolding": 5805,
  "Ġfrozen": 5806,
  "ĠBaby": 5807,
  "anes": 5808,
  "Ġprints": 5809,
  "Really": 5810,
  "Ġstripes": 5811,
  "Ġsince": 5812,
  "Ġfiremen": 5813,
  "va": 5814,
  "Ġworkers": 5815,
  "Ġshock": 5816,
  "Ġlicks": 5817,
  "Ġattack": 5818,
  "Yummy": 5819,
  "Ġbelly": 5820,
  "Ġwizard": 5821,
  "aved": 5822,
  "Ġwigg": 5823,
  "ĠAnnie": 5824,
  "Ġhurried": 5825,
  "Ġshadows": 5826,
  "Ġneighbour": 5827,
  "Leo": 5828,
  "Eventually": 5829,
  "ĠAn": 5830,
  "Ġgrin": 5831,
  "Ġfears": 5832,
  "Ġruin": 5833,
  "Ġpiles": 5834,
  "Ġduckling": 5835,
  "Ġfirefighters": 5836,
  "Ġcompleted": 5837,
  "Ġpotion": 5838,
  "eve": 5839,
  "Ġcracked": 5840,
  "Ġwarmth": 5841,
  "Ġworks": 5842,
  "Ġzooming": 5843,
  "Ġbakery": 5844,
  "ĠSanta": 5845,
  "Fr": 5846,
  "Ġapplauded": 5847,
  "Ġgoodnight": 5848,
  "jamas": 5849,
  "\",": 5850,
  "Ġglowed": 5851,
  "Ġcaused": 5852,
  "Ġkindly": 5853,
  "Ġanswers": 5854,
  "Ġreaches": 5855,
  "Ġprotecting": 5856,
  "ĠGranny": 5857,
  "Ġdentist": 5858,
  "Ġplanets": 5859,
  "Ġmotion": 5860,
  "urry": 5861,
  "ĠHenry": 5862,
  "eah": 5863,
  "Ġsecrets": 5864,
  "ongo": 5865,
  "oral": 5866,
  "Ġnicer": 5867,
  "iately": 5868,
  "Ġbuying": 5869,
  "Ġcomfy": 5870,
  "Ġrequested": 5871,
  "Ġpajamas": 5872,
  "Remy": 5873,
  "Ġtwin": 5874,
  "Ġsix": 5875,
  "Ġprincesses": 5876,
  "len": 5877,
  "Ġachieve": 5878,
  "Ġarea": 5879,
  "ĠChrist": 5880,
  "Ġbaths": 5881,
  "Ġpride": 5882,
  "mas": 5883,
  "Ġadmiring": 5884,
  "Ġartist": 5885,
  "Ġbedtime": 5886,
  "Ġspit": 5887,
  "Ġrecipe": 5888,
  "Ġlibrarian": 5889,
  "Ġpoems": 5890,
  "Ġdolphins": 5891,
  "Ġyesterday": 5892,
  "Ġexact": 5893,
  "Ġcurled": 5894,
  "Ġtickets": 5895,
  "Ġexamined": 5896,
  "Ġmoments": 5897,
  "Ġgathering": 5898,
  "Ġafford": 5899,
  "Ġonions": 5900,
  "ues": 5901,
  "ĠDino": 5902,
  "Ġparked": 5903,
  "Ġbravery": 5904,
  "Ġmister": 5905,
  "Ġstro": 5906,
  "Moral": 5907,
  "Ġtallest": 5908,
  "Ġconcert": 5909,
  "Ġhighest": 5910,
  "ĠWally": 5911,
  "imy": 5912,
  "Ġhits": 5913,
  "Ġbeds": 5914,
  "ĠChristmas": 5915,
  "Ġpraised": 5916,
  "ĠBo": 5917,
  "Ġitchy": 5918,
  "Ġgaze": 5919,
  "arth": 5920,
  "die": 5921,
  "Ġprettiest": 5922,
  "ĠFifi": 5923,
  "Ġnapping": 5924,
  "ĠSnowball": 5925,
  "Un": 5926,
  "Ġpadd": 5927,
  "cited": 5928,
  "Ġdesert": 5929,
  "Ġwrist": 5930,
  "Ġsits": 5931,
  "Ġsting": 5932,
  "Ġhitting": 5933,
  "Ġvisiting": 5934,
  "Ġcubes": 5935,
  "Ġsigned": 5936,
  "osity": 5937,
  "Ġcoloring": 5938,
  "Ġagreement": 5939,
  "Ġda": 5940,
  "ales": 5941,
  "ĠWoo": 5942,
  "Ġconfident": 5943,
  "Ġrecommended": 5944,
  "ĠFrog": 5945,
  "ĠMaria": 5946,
  "Ġstolen": 5947,
  "Ġchoices": 5948,
  "uest": 5949,
  "Ġhappiest": 5950,
  "Ġtrips": 5951,
  "Ġpolished": 5952,
  "Ġtablet": 5953,
  "Ġclimbs": 5954,
  "Ġmarks": 5955,
  "Ġsunlight": 5956,
  "Ġtrembling": 5957,
  "Ġspraying": 5958,
  "Ġpebbles": 5959,
  "uggy": 5960,
  "Ġdownstairs": 5961,
  "Ġvoices": 5962,
  "Ġmarked": 5963,
  "ĠKing": 5964,
  "ĠIts": 5965,
  "Ġfasc": 5966,
  "Ġguest": 5967,
  "ppers": 5968,
  "Ġbleeding": 5969,
  "Ġscru": 5970,
  "ĠAunt": 5971,
  "uddles": 5972,
  "Ġsmal": 5973,
  "ĠTony": 5974,
  "ĠWiggly": 5975,
  "Bobby": 5976,
  "Ġsmallest": 5977,
  "Ġbeside": 5978,
  "Ġsi": 5979,
  "Ġphotos": 5980,
  "Andy": 5981,
  "Ġincluded": 5982,
  "ĠLe": 5983,
  "oming": 5984,
  "Ġwarnings": 5985,
  "cious": 5986,
  "Ġple": 5987,
  "aggie": 5988,
  "ĠLuckily": 5989,
  "Ġhealth": 5990,
  "ities": 5991,
  "affes": 5992,
  "ids": 5993,
  "ĠCrabby": 5994,
  "arac": 5995,
  "Ġlied": 5996,
  "Ġcrunchy": 5997,
  "ĠEach": 5998,
  "Ġfamilies": 5999,
  "Ġsparkles": 6000,
  "Ġeff": 6001,
  "ĠMo": 6002,
  "Ġpowers": 6003,
  "Ġgiraffes": 6004,
  "Ġpromises": 6005,
  "Ġfascin": 6006,
  "Ġleader": 6007,
  "Ġcash": 6008,
  "ĠSandy": 6009,
  "Ġexactly": 6010,
  "dies": 6011,
  "Ġusual": 6012,
  "Ok": 6013,
  "ots": 6014,
  "Ġmatching": 6015,
  "aracter": 6016,
  "Ġmouths": 6017,
  "Ġcharacter": 6018,
  "Ġincluding": 6019,
  "Ġsticking": 6020,
  "Ġgoals": 6021,
  "ados": 6022,
  "Ġtraveled": 6023,
  "Ġsiren": 6024,
  "Ġstrings": 6025,
  "Ġsisters": 6026,
  "Ġsparkle": 6027,
  "Ġavo": 6028,
  "Ġtricked": 6029,
  "ility": 6030,
  "Ġimmed": 6031,
  "ĠSlow": 6032,
  "ĠChe": 6033,
  "Ġimmediately": 6034,
  "vers": 6035,
  "indy": 6036,
  "Ġpedals": 6037,
  "Ġgrandmother": 6038,
  "Ġbalancing": 6039,
  "Ġwink": 6040,
  "Uh": 6041,
  "Ġlap": 6042,
  "Ġpolishing": 6043,
  "Ġscra": 6044,
  "Ġhardly": 6045,
  "Ha": 6046,
  "Ġskunk": 6047,
  "Great": 6048,
  "Ġcause": 6049,
  "Ġrubbing": 6050,
  "Ġdeser": 6051,
  "Ġann": 6052,
  "Ġavocados": 6053,
  "Ġstare": 6054,
  "Ġtheirs": 6055,
  "Ġpacking": 6056,
  "Ġloving": 6057,
  "ĠLiz": 6058,
  "Ġpoking": 6059,
  "Ġhesitant": 6060,
  "Quick": 6061,
  "Have": 6062,
  "Bird": 6063,
  "Ġbehaved": 6064,
  "Grandpa": 6065,
  "Ġlets": 6066,
  "Jerry": 6067,
  "Ġwooden": 6068,
  "Ġslimy": 6069,
  "isten": 6070,
  "Ġwid": 6071,
  "Ġprecious": 6072,
  "Ġbatteries": 6073,
  "ĠEarth": 6074,
  "Ġdollhouse": 6075,
  "Ġcontain": 6076,
  "ĠBongo": 6077,
  "ĠLizzy": 6078,
  "Yeah": 6079,
  "Ġusually": 6080,
  "omething": 6081,
  "Ġeffort": 6082,
  "Ġmarker": 6083,
  "Ġbaker": 6084,
  "aster": 6085,
  "Ġcous": 6086,
  "Ġcashier": 6087,
  "Ġsnuck": 6088,
  "Ġknights": 6089,
  "Ġcho": 6090,
  "Ġrisk": 6091,
  "ĠDr": 6092,
  "Ġsoaring": 6093,
  "Ġgrowling": 6094,
  "isies": 6095,
  "Ġloaded": 6096,
  "riends": 6097,
  "Ġbeard": 6098,
  "Peter": 6099,
  "Ġwrapping": 6100,
  "Ġgrey": 6101,
  "iggie": 6102,
  "Ġdaisies": 6103,
  "Sadly": 6104,
  "hello": 6105,
  "ĠMay": 6106,
  "Ġlimes": 6107,
  "Ġscooped": 6108,
  "Ġsnatched": 6109,
  "ĠFirst": 6110,
  "Ġsnowballs": 6111,
  "ishy": 6112,
  "Ġsafer": 6113,
  "Ġscrubbed": 6114,
  "Ġchop": 6115,
  "Ġpockets": 6116,
  "Ġaccom": 6117,
  "ĠKate": 6118,
  "Ġeight": 6119,
  "oto": 6120,
  "Ġbecoming": 6121,
  "Ġgiggling": 6122,
  "ĠMe": 6123,
  "Ġswims": 6124,
  "Ġconv": 6125,
  "Ġcrabs": 6126,
  "ĠWooly": 6127,
  "Ġopening": 6128,
  "Ġcurly": 6129,
  "Ġaccompl": 6130,
  "Ġdiscovery": 6131,
  "ĠMillie": 6132,
  "roken": 6133,
  "ĠOut": 6134,
  "Ġprayer": 6135,
  "Ġlands": 6136,
  "Bet": 6137,
  "indro": 6138,
  "Ġshelves": 6139,
  "Ġbeamed": 6140,
  "Ġraindro": 6141,
  "Ġornaments": 6142,
  "eed": 6143,
  "enty": 6144,
  "Ġbrushes": 6145,
  "Ġni": 6146,
  "Ġpastels": 6147,
  "Ġbars": 6148,
  "Ġfever": 6149,
  "Ġclowns": 6150,
  "Ġtowels": 6151,
  "Ġhen": 6152,
  "Ġtalented": 6153,
  "Ġreplaced": 6154,
  "Ġbrid": 6155,
  "Ġknelt": 6156,
  "broken": 6157,
  "Ġpraying": 6158,
  "Ġwatches": 6159,
  "Ġ1": 6160,
  "Ġdelivered": 6161,
  "Ġpencils": 6162,
  "ĠRocky": 6163,
  "oys": 6164,
  "Ġinstruct": 6165,
  "Ġfairies": 6166,
  "ivity": 6167,
  "Ġalright": 6168,
  "Ġfascinated": 6169,
  "Ġsurrounded": 6170,
  "using": 6171,
  "Ġblocking": 6172,
  "fit": 6173,
  "Ġglitter": 6174,
  "Ollie": 6175,
  "Ġleast": 6176,
  "Ġpeppers": 6177,
  "Ġfirefly": 6178,
  "olph": 6179,
  "Ġscreaming": 6180,
  "Ġbridges": 6181,
  "tuce": 6182,
  "Boo": 6183,
  "Ġdefe": 6184,
  "ences": 6185,
  "Ġseesaw": 6186,
  "Ġremembering": 6187,
  "Ġwoof": 6188,
  "Ġlettuce": 6189,
  "ĠPepper": 6190,
  "Ġinsects": 6191,
  "Ġstain": 6192,
  "Ġitem": 6193,
  "Ġperched": 6194,
  "river": 6195,
  "shing": 6196,
  "sequ": 6197,
  "Excited": 6198,
  "eel": 6199,
  "Ġconsequ": 6200,
  "Ġhorns": 6201,
  "Ġbeg": 6202,
  "Ġheartbroken": 6203,
  "Ġwhatever": 6204,
  "Ġthrilled": 6205,
  "Ġsweets": 6206,
  "Ġdusty": 6207,
  "Ġheav": 6208,
  "ĠBoo": 6209,
  "guing": 6210,
  "Ġsurface": 6211,
  "Ġinstructions": 6212,
  "Ġtigers": 6213,
  "brush": 6214,
  "Ġscreams": 6215,
  "Ġthorn": 6216,
  "Ġtemper": 6217,
  "Ġrainbows": 6218,
  "icked": 6219,
  "Ġseashells": 6220,
  "ppa": 6221,
  "Ġreply": 6222,
  "Ġoutfit": 6223,
  "nie": 6224,
  "ĠHootie": 6225,
  "ĠBuggy": 6226,
  "Ġbead": 6227,
  "Ġwandering": 6228,
  "Jen": 6229,
  "Ġpaying": 6230,
  "Ġarguing": 6231,
  "Ġcolours": 6232,
  "Ġwondering": 6233,
  "Ġcomplained": 6234,
  "Ġsnakes": 6235,
  "Ġcott": 6236,
  "Ġsadness": 6237,
  "ĠToto": 6238,
  "opper": 6239,
  "Ġavoid": 6240,
  "Ġblooming": 6241,
  "ĠSuzy": 6242,
  "Ġbodies": 6243,
  "fied": 6244,
  "Ġconsequences": 6245,
  "avi": 6246,
  "Ġunited": 6247,
  "bbled": 6248,
  "Ġmatters": 6249,
  "Ġcomm": 6250,
  "uctantly": 6251,
  "Ġsmiley": 6252,
  "Ġproject": 6253,
  "Ġcrackers": 6254,
  "ops": 6255,
  "Ġsteep": 6256,
  "oor": 6257,
  "!'": 6258,
  "mel": 6259,
  "Ġstretching": 6260,
  "Ġfault": 6261,
  "Ġsides": 6262,
  "Ġhugging": 6263,
  "Ġdecorating": 6264,
  "Ġeats": 6265,
  "ĠHappy": 6266,
  "Ġimproved": 6267,
  "ĠAb": 6268,
  "bage": 6269,
  "Ġpenguins": 6270,
  "Mandy": 6271,
  "Ġpatience": 6272,
  "!\",": 6273,
  "chy": 6274,
  "Ġadult": 6275,
  "ners": 6276,
  "Ġgarbage": 6277,
  "Ġraindrops": 6278,
  "ĠStar": 6279,
  "Ġtemperature": 6280,
  "Red": 6281,
  "Ġquacked": 6282,
  "ĠJul": 6283,
  "lowers": 6284,
  "ept": 6285,
  "Ġmushrooms": 6286,
  "Ġchallenge": 6287,
  "ĠBoth": 6288,
  "een": 6289,
  "ĠSomething": 6290,
  "Cl": 6291,
  "ĠOink": 6292,
  "ann": 6293,
  "Ġwiggled": 6294,
  "Ġmane": 6295,
  "Ġheroes": 6296,
  "idnight": 6297,
  "Ġribbons": 6298,
  "Ġpots": 6299,
  "ĠClara": 6300,
  "atty": 6301,
  "Ġadding": 6302,
  "Ġobe": 6303,
  "neath": 6304,
  "Ġovercome": 6305,
  "Mrs": 6306,
  "ĠNot": 6307,
  "Ġfilling": 6308,
  "avid": 6309,
  "omas": 6310,
  "Ġswept": 6311,
  "ĠSlowly": 6312,
  "Ġwadd": 6313,
  "go": 6314,
  "ĠWater": 6315,
  "Ġreluctantly": 6316,
  "Ġrecording": 6317,
  "atie": 6318,
  "Ġvillag": 6319,
  "Ġprettier": 6320,
  "ĠChicky": 6321,
  "Ġcough": 6322,
  "Ġdarker": 6323,
  "Ġsparkling": 6324,
  "ĠJames": 6325,
  "Ġdipped": 6326,
  "Ġpeeking": 6327,
  "Ġstem": 6328,
  "Always": 6329,
  "Ġfinishing": 6330,
  "Ġflown": 6331,
  "Ġdads": 6332,
  "Ġscored": 6333,
  "Ġclearing": 6334,
  "Ġchat": 6335,
  "Ġwaits": 6336,
  "Ġbottles": 6337,
  "Ġdiving": 6338,
  "ĠSky": 6339,
  "Ġlamb": 6340,
  "Ġresponsib": 6341,
  "Ġwond": 6342,
  "Ġsuffering": 6343,
  "rincess": 6344,
  "Ġsings": 6345,
  "ĠMon": 6346,
  "Ġfab": 6347,
  "Ġfabric": 6348,
  "Ġtim": 6349,
  "bers": 6350,
  "Ġreminder": 6351,
  "Ġcreating": 6352,
  "Ġdelivering": 6353,
  "Ġobey": 6354,
  "oline": 6355,
  "Ġbeads": 6356,
  "Ġwatering": 6357,
  "Ġstung": 6358,
  "Ġscrewd": 6359,
  "Ġreun": 6360,
  "crow": 6361,
  "Ġtugged": 6362,
  "Ġperformed": 6363,
  "allowed": 6364,
  "Ġsports": 6365,
  "Ġswallowed": 6366,
  "hive": 6367,
  "Freddy": 6368,
  "Ġgears": 6369,
  "Ġpumpkins": 6370,
  "Ġbeehive": 6371,
  "ĠBirdie": 6372,
  "Ġdreamt": 6373,
  "Ġtiss": 6374,
  "ĠGreen": 6375,
  "Ġcousin": 6376,
  "Ġquarreling": 6377,
  "ason": 6378,
  "Ġawake": 6379,
  "Ġrocking": 6380,
  "Ġflavors": 6381,
  "Ġpaddled": 6382,
  "Ġinviting": 6383,
  "Ġscrewdriver": 6384,
  "umm": 6385,
  "Ġseparated": 6386,
  "Buzz": 6387,
  "eeling": 6388,
  "shm": 6389,
  "Ġvillagers": 6390,
  "Ġshivered": 6391,
  "Ġrust": 6392,
  "shmallow": 6393,
  "stick": 6394,
  "Br": 6395,
  "Ġrocked": 6396,
  "Momo": 6397,
  "Ġproper": 6398,
  "Ġglasses": 6399,
  "Ella": 6400,
  "ashed": 6401,
  "Ġhelpers": 6402,
  "Ġshirts": 6403,
  "Choo": 6404,
  "Ġprovided": 6405,
  "Ġcheering": 6406,
  "ĠEl": 6407,
  "Ġsneaked": 6408,
  "Tr": 6409,
  "Ġcuriosity": 6410,
  "igail": 6411,
  "Ġchip": 6412,
  "Ġcoc": 6413,
  "Ġgenie": 6414,
  "icky": 6415,
  "First": 6416,
  "Ġvalued": 6417,
  "Ġsneezing": 6418,
  "itches": 6419,
  "Ġmarshmallow": 6420,
  "ĠMidnight": 6421,
  "hind": 6422,
  "Ġroses": 6423,
  "Ġsewed": 6424,
  "ĠZiggy": 6425,
  "However": 6426,
  "Ġwonders": 6427,
  "Ġcond": 6428,
  "Ġboom": 6429,
  "achel": 6430,
  "Ġawe": 6431,
  "ĠZigzag": 6432,
  "Ġforgetting": 6433,
  "Ġpennies": 6434,
  "'.": 6435,
  "Ġhissed": 6436,
  "ĠFriends": 6437,
  "Ġbasement": 6438,
  "Ġsnowmen": 6439,
  "Ġflames": 6440,
  "plash": 6441,
  "itted": 6442,
  "Ġbalanced": 6443,
  "Ġremem": 6444,
  "Jake": 6445,
  "ambi": 6446,
  "Ġremembers": 6447,
  "Ġscarecrow": 6448,
  "Ġmillion": 6449,
  "Ġlogs": 6450,
  "Ġcolored": 6451,
  "anging": 6452,
  "Ġwound": 6453,
  "Ġthro": 6454,
  "oh": 6455,
  "Ġmeals": 6456,
  "Ġroaring": 6457,
  "Ġthroat": 6458,
  "Ġgrinned": 6459,
  "weed": 6460,
  "Ġfeast": 6461,
  "Ġscales": 6462,
  "inkled": 6463,
  "alloween": 6464,
  "Ġmission": 6465,
  "Ġais": 6466,
  "Ġrockets": 6467,
  "Ġreunited": 6468,
  "Ġseaweed": 6469,
  "Ġdrums": 6470,
  "Ġcuddly": 6471,
  "ĠBunBun": 6472,
  "ĠHalloween": 6473,
  "Ġsurroundings": 6474,
  "Ġsled": 6475,
  "Ġrestored": 6476,
  "Ġunderneath": 6477,
  "Ġsupplies": 6478,
  "Ah": 6479,
  "Ġbare": 6480,
  "Ġimagining": 6481,
  "Ġsuperheroes": 6482,
  "Ġtasks": 6483,
  "Ġsale": 6484,
  "Ġaud": 6485,
  "Ġkeeper": 6486,
  "Ġcowb": 6487,
  "ivery": 6488,
  "ĠWatch": 6489,
  "bbing": 6490,
  "Ġrefle": 6491,
  "Ġpicnics": 6492,
  "zes": 6493,
  "iles": 6494,
  "Ġinsist": 6495,
  "Ġneedles": 6496,
  "Ġsway": 6497,
  "ĠFoxy": 6498,
  "ĠThanks": 6499,
  "Ġthird": 6500,
  "ĠPeppa": 6501,
  "Achoo": 6502,
  "ĠLike": 6503,
  "Ġkites": 6504,
  "Ġbehavi": 6505,
  "Ġexh": 6506,
  "Or": 6507,
  "Ġast": 6508,
  "Ġtissue": 6509,
  "bur": 6510,
  "Afterwards": 6511,
  "Ġpaddle": 6512,
  "Ġgross": 6513,
  "ĠBouncy": 6514,
  "Oops": 6515,
  "Ġtramp": 6516,
  "ĠCar": 6517,
  "ĠCr": 6518,
  "Ġexplorer": 6519,
  "Ġpeacefully": 6520,
  "sty": 6521,
  "chievous": 6522,
  "Ġmischievous": 6523,
  "Ġcomplaining": 6524,
  "Ġplenty": 6525,
  "Ġtipto": 6526,
  "Ġindeed": 6527,
  "Pete": 6528,
  "vant": 6529,
  "ĠRud": 6530,
  ".'": 6531,
  "Ġcopy": 6532,
  "Ġgems": 6533,
  "Ġvanilla": 6534,
  "ĠLion": 6535,
  "Polly": 6536,
  "ĠHope": 6537,
  "ĠPin": 6538,
  "ĠRudolph": 6539,
  "Ġwires": 6540,
  "Ġwins": 6541,
  "Ġcrowd": 6542,
  "Ġgrandd": 6543,
  "Ġbuckets": 6544,
  "ĠUnfortunately": 6545,
  "Ġfeeding": 6546,
  "Ġroads": 6547,
  "Ġcrossing": 6548,
  "ĠStop": 6549,
  "Ġtrampoline": 6550,
  "opsy": 6551,
  "elvet": 6552,
  "Ro": 6553,
  "Ġsplashes": 6554,
  "Ġripe": 6555,
  "Ġdirection": 6556,
  "Ġaudience": 6557,
  "Ġhandsome": 6558,
  "Ġuntie": 6559,
  "Ġrefuse": 6560,
  "Ġsatis": 6561,
  "Bunny": 6562,
  "Ġhonk": 6563,
  "racted": 6564,
  "Ġsweat": 6565,
  "Ġtails": 6566,
  "Ġmints": 6567,
  "ĠPrincess": 6568,
  "ĠBirthday": 6569,
  "ody": 6570,
  "Cat": 6571,
  "Ġcobwebs": 6572,
  "Ġpointy": 6573,
  "Rex": 6574,
  "Ġmer": 6575,
  "Ġfaced": 6576,
  "Ġminerals": 6577,
  "Ġtickled": 6578,
  "ĠPl": 6579,
  "Ġstumble": 6580,
  "Ġmuscle": 6581,
  "Ġpurr": 6582,
  "utious": 6583,
  "Ġgranddaughter": 6584,
  "isdom": 6585,
  "Watch": 6586,
  "Ġremote": 6587,
  "igning": 6588,
  "per": 6589,
  "Ġwinked": 6590,
  "ledge": 6591,
  "Ġreaching": 6592,
  "Ġrainy": 6593,
  "Ġrising": 6594,
  "Ġdelivery": 6595,
  "ĠSparkles": 6596,
  "Ġknowledge": 6597,
  "Ġfroze": 6598,
  "Ġplanting": 6599,
  "cers": 6600,
  "wh": 6601,
  "Ġfirefighter": 6602,
  "ushing": 6603,
  "Silly": 6604,
  "Ġsewing": 6605,
  "Ġarrows": 6606,
  "Ġdraws": 6607,
  "Ġtimer": 6608,
  "ĠChickie": 6609,
  "Ġtractor": 6610,
  "Feeling": 6611,
  "Ġmes": 6612,
  "ogo": 6613,
  "Ġhearing": 6614,
  "Ġwindy": 6615,
  "Rosie": 6616,
  "ĠOur": 6617,
  "Ġborrowed": 6618,
  "ĠBeep": 6619,
  "Ġsquares": 6620,
  "Ġjoking": 6621,
  "njoy": 6622,
  "ĠBeing": 6623,
  "Ġvegg": 6624,
  "Ġmarshmallows": 6625,
  "ĠBambi": 6626,
  "Ġcautious": 6627,
  "Ġdrown": 6628,
  "umper": 6629,
  "Ġsteady": 6630,
  "Those": 6631,
  "Ġfluttering": 6632,
  "Ġexplo": 6633,
  "Ġsadder": 6634,
  "Ġleading": 6635,
  "Ġunpacked": 6636,
  "Ġmasks": 6637,
  "Ġleaning": 6638,
  "Ġdecides": 6639,
  "ĠCla": 6640,
  "ĠDuck": 6641,
  "Ġpout": 6642,
  "Ġpatted": 6643,
  "Ġguests": 6644,
  "Ġzebras": 6645,
  "Ġresponsibility": 6646,
  "Ġobjects": 6647,
  "Ġforgiven": 6648,
  "Ġmagnets": 6649,
  "aterial": 6650,
  "Some": 6651,
  "Ġmaterial": 6652,
  "Ġtraded": 6653,
  "Ġperforming": 6654,
  "ument": 6655,
  "Ġdiscovering": 6656,
  "Ġfreed": 6657,
  "Ġsights": 6658,
  "Ġflags": 6659,
  "tle": 6660,
  "Ġchanging": 6661,
  "band": 6662,
  "Ġhike": 6663,
  "Ġuntied": 6664,
  "Betsy": 6665,
  "Ġscur": 6666,
  "Ġveggies": 6667,
  "Ġdirect": 6668,
  "ĠChoo": 6669,
  "Ġcausing": 6670,
  "Ġforks": 6671,
  "ĠZoe": 6672,
  "Ġmeatball": 6673,
  "uing": 6674,
  "Ġcelebrating": 6675,
  "Fo": 6676,
  "itcase": 6677,
  "Ġflight": 6678,
  "Ġcreativity": 6679,
  "Ġsurv": 6680,
  "Ġsuitcase": 6681,
  "Ġclaps": 6682,
  "ĠOl": 6683,
  "Ġrule": 6684,
  "ĠX": 6685,
  "Ġshrug": 6686,
  "Ġscurried": 6687,
  "Ġbirdhouse": 6688,
  "Ġden": 6689,
  "Ġpuppies": 6690,
  "ĠRay": 6691,
  "Ġspikes": 6692,
  "Ġburnt": 6693,
  "Ġspeaking": 6694,
  "Ġwidened": 6695,
  "ĠVelvet": 6696,
  "Ġtables": 6697,
  "Even": 6698,
  "Goodnight": 6699,
  "atul": 6700,
  "Ġhelmets": 6701,
  "Ġdeal": 6702,
  "Ġcans": 6703,
  "Pe": 6704,
  "Ġloading": 6705,
  "Ġwrites": 6706,
  "Ġchoo": 6707,
  "Ġsurfing": 6708,
  "otten": 6709,
  "Ġcompletely": 6710,
  "Stay": 6711,
  "ans": 6712,
  "Ġmailed": 6713,
  "ades": 6714,
  "uly": 6715,
  "angles": 6716,
  "Ġchuck": 6717,
  "Ġtricky": 6718,
  "Ġrotten": 6719,
  "att": 6720,
  "aut": 6721,
  "Unfortunately": 6722,
  "Ġdrives": 6723,
  "Ġtunnels": 6724,
  "ena": 6725,
  "Ġdresser": 6726,
  "Ġstacked": 6727,
  "Ġsunflowers": 6728,
  "ĠSteve": 6729,
  "Ġbows": 6730,
  "Ġrepa": 6731,
  "Ġcatches": 6732,
  "Ġbowls": 6733,
  "Ġdamage": 6734,
  "Ġplayers": 6735,
  "uke": 6736,
  "Ba": 6737,
  "Ġbiting": 6738,
  "iar": 6739,
  "Ġwritten": 6740,
  "Ġdistracted": 6741,
  "Ġworries": 6742,
  "annah": 6743,
  "Joey": 6744,
  "Ġsweeties": 6745,
  "Rob": 6746,
  "Ġshoo": 6747,
  "Ġrings": 6748,
  "fl": 6749,
  "Ġrepaired": 6750,
  "Ġnapkins": 6751,
  "Ġconvers": 6752,
  "pare": 6753,
  "Susie": 6754,
  "Sn": 6755,
  "Ġmeatballs": 6756,
  "lings": 6757,
  "Brown": 6758,
  "Ġbegin": 6759,
  "Ġsnuggle": 6760,
  "Ġrumble": 6761,
  "Ġgreet": 6762,
  "Ġhaven": 6763,
  "ĠMaggie": 6764,
  "akes": 6765,
  "Ġpigeons": 6766,
  "Ġdesigned": 6767,
  "Ġwasted": 6768,
  "Ġpolar": 6769,
  "Ġmoo": 6770,
  "Ġlending": 6771,
  "Ġcountryside": 6772,
  "...": 6773,
  "Ġjud": 6774,
  "Ġpeas": 6775,
  "ĠPinchy": 6776,
  "Ġsan": 6777,
  "ĠThomas": 6778,
  "Ġprinting": 6779,
  "Ġknocking": 6780,
  "Ġinterested": 6781,
  "Ġincreased": 6782,
  "Ġwishing": 6783,
  "ana": 6784,
  "Ġscraped": 6785,
  "Ġrisks": 6786,
  "Ġbarely": 6787,
  "ounced": 6788,
  "ĠStitch": 6789,
  "ĠFrosty": 6790,
  "ĠFreddie": 6791,
  "attered": 6792,
  "Time": 6793,
  "Ġlifting": 6794,
  "Ġdropping": 6795,
  "Ġbehaving": 6796,
  "ĠBree": 6797,
  "Ġpecked": 6798,
  "Ġdirections": 6799,
  "ĠBye": 6800,
  "Ġpeered": 6801,
  "Ġoutdo": 6802,
  "Ġtwirling": 6803,
  "ĠPippa": 6804,
  "free": 6805,
  "amie": 6806,
  "ĠRachel": 6807,
  "irm": 6808,
  "Ġsank": 6809,
  "ern": 6810,
  "Ġsurfboard": 6811,
  "Ġwaddled": 6812,
  "Ġbackwards": 6813,
  "Ġperformance": 6814,
  "Ġdep": 6815,
  "ĠBecause": 6816,
  "eds": 6817,
  "ably": 6818,
  "ĠDavid": 6819,
  "Ġty": 6820,
  "Ġrushing": 6821,
  "ĠMoo": 6822,
  "ĠFrank": 6823,
  "Ġgrandpare": 6824,
  "Ġwiping": 6825,
  "step": 6826,
  "An": 6827,
  "ĠSpring": 6828,
  "Ġwobb": 6829,
  "ler": 6830,
  "Ġtoaster": 6831,
  "ĠJoy": 6832,
  "ĠLove": 6833,
  "Ġrobb": 6834,
  "ĠAlly": 6835,
  "screen": 6836,
  "Ġpops": 6837,
  "Ġdiscussed": 6838,
  "Ġwhose": 6839,
  "Ġchuckled": 6840,
  "Ġchases": 6841,
  "Ġspong": 6842,
  "Ġteaches": 6843,
  "Ġreflection": 6844,
  "atur": 6845,
  "ĠFlopsy": 6846,
  "Ġtires": 6847,
  "Ġpolitely": 6848,
  "Ġaimed": 6849,
  "Ġrotting": 6850,
  "Ġgri": 6851,
  "Ġbeloved": 6852,
  "Ġbehavior": 6853,
  "Ġstays": 6854,
  "Ġsunscreen": 6855,
  "Ġwilling": 6856,
  "Ġslither": 6857,
  "Ġrip": 6858,
  "Ġwee": 6859,
  "Ġcrept": 6860,
  "Ġattacked": 6861,
  "artment": 6862,
  "ĠTwinkle": 6863,
  "Ġcharacters": 6864,
  "int": 6865,
  "Ġoffic": 6866,
  "Ġastron": 6867,
  "Ġcuts": 6868,
  "Ġafar": 6869,
  "Ġlighter": 6870,
  "Brownie": 6871,
  "Ġspreading": 6872,
  "Ġdragged": 6873,
  "Ġcotton": 6874,
  "Ġsalty": 6875,
  "ĠMilly": 6876,
  "Ġpleasure": 6877,
  "Ġastronaut": 6878,
  "Ġtriangles": 6879,
  "Ġfits": 6880,
  "Ġtruly": 6881,
  "Ġbeneath": 6882,
  "Ġwatermel": 6883,
  "ongr": 6884,
  "iled": 6885,
  "Ġglued": 6886,
  "ĠThumper": 6887,
  "Ġsurrendered": 6888,
  "ĠLeave": 6889,
  "ĠGogo": 6890,
  "ole": 6891,
  "loe": 6892,
  "iding": 6893,
  "George": 6894,
  "Ġsailors": 6895,
  "ongratul": 6896,
  "ude": 6897,
  "cl": 6898,
  "Ġheavier": 6899,
  "Ġgrows": 6900,
  "ĠAbigail": 6901,
  "Ġplayroom": 6902,
  "Ġthrown": 6903,
  "Ġitems": 6904,
  "Ġaccomplish": 6905,
  "Ġsurvive": 6906,
  "Ġpeck": 6907,
  "Ġrustling": 6908,
  "ĠMouse": 6909,
  "Ġuses": 6910,
  "Ġfarther": 6911,
  "aws": 6912,
  "Ġcovers": 6913,
  "Ġvines": 6914,
  "Ġsponge": 6915,
  "Ġflapping": 6916,
  "Ġscient": 6917,
  "you": 6918,
  "ccoon": 6919,
  "cher": 6920,
  "Ġraccoon": 6921,
  "ĠYesterday": 6922,
  "Ġmunch": 6923,
  "ĠEnjoy": 6924,
  "Ġscientist": 6925,
  "cope": 6926,
  "ives": 6927,
  "ira": 6928,
  "Ġbracelets": 6929,
  "Ġaisle": 6930,
  "Ġcent": 6931,
  "Ġteamwork": 6932,
  "Ġneither": 6933,
  "Ġowners": 6934,
  "Ġmerma": 6935,
  "atches": 6936,
  "elace": 6937,
  "Ġshoelace": 6938,
  "Ġamount": 6939,
  "Ġprick": 6940,
  "ĠSc": 6941,
  "Ġdisturbing": 6942,
  "Ġwatermelon": 6943,
  "ĠPut": 6944,
  "ĠBug": 6945,
  "ĠZero": 6946,
  "ĠJu": 6947,
  "Ġplain": 6948,
  "Ġlearns": 6949,
  "Ġjackets": 6950,
  "ĠSplash": 6951,
  "Tiny": 6952,
  "ĠDare": 6953,
  "Ġpans": 6954,
  "Ġblown": 6955,
  "Ġdancers": 6956,
  "Ġlaying": 6957,
  "Ġdollars": 6958,
  "ĠJess": 6959,
  "Ġballer": 6960,
  "Ġnood": 6961,
  "ĠWisdom": 6962,
  "Ġburger": 6963,
  "rance": 6964,
  "onies": 6965,
  "Ġsighs": 6966,
  "Ġspeeding": 6967,
  "Ġdeserve": 6968,
  "ĠKatie": 6969,
  "ica": 6970,
  "nytime": 6971,
  "Ġconn": 6972,
  "Ġhonked": 6973,
  "Ġropes": 6974,
  "Ġhumans": 6975,
  "ĠBiggie": 6976,
  "Ġwobbled": 6977,
  "Ġplans": 6978,
  "Ġgrandparents": 6979,
  "Ġdetermination": 6980,
  "Ġmosquitoes": 6981,
  "esome": 6982,
  "ĠOlly": 6983,
  "Luna": 6984,
  "boat": 6985,
  "Ġdelayed": 6986,
  "Ġgardener": 6987,
  "Ġfact": 6988,
  "Ġbully": 6989,
  "Ġburst": 6990,
  "Instead": 6991,
  "Ġrusty": 6992,
  "rup": 6993,
  "ĠCindy": 6994,
  "Ġpuppet": 6995,
  "Ġsatisfied": 6996,
  "Ġpretends": 6997,
  "Ġhaird": 6998,
  "Ġsuffered": 6999,
  "ĠJe": 7000,
  "itched": 7001,
  "Ġoutdoors": 7002,
  "gets": 7003,
  "Bad": 7004,
  "ĠAva": 7005,
  "ĠBehind": 7006,
  "Ġstrongest": 7007,
  "Ġonwards": 7008,
  "Ġofficers": 7009,
  "ĠWelcome": 7010,
  "Miss": 7011,
  "Ġaeroplanes": 7012,
  "ĠBy": 7013,
  "Ġdie": 7014,
  "Our": 7015,
  "Ġcalmed": 7016,
  "Ġawesome": 7017,
  "Ġseven": 7018,
  "Ġdrowned": 7019,
  "Ġlungs": 7020,
  "bie": 7021,
  "Ġfilms": 7022,
  "Ġwiggly": 7023,
  "Ġunfortunately": 7024,
  "ĠEveryday": 7025,
  "Ġponies": 7026,
  "hee": 7027,
  "âĢĿ.": 7028,
  "Ġballerina": 7029,
  "Ġpaintbrush": 7030,
  "Ġreason": 7031,
  "Ġquestioned": 7032,
  "Ġpermitted": 7033,
  "ĠSun": 7034,
  "Ġfleas": 7035,
  "ition": 7036,
  "Ġstool": 7037,
  "Ġslowed": 7038,
  "llen": 7039,
  "armer": 7040,
  "ker": 7041,
  "Ġsending": 7042,
  "Ab": 7043,
  "Mar": 7044,
  "Ġpassports": 7045,
  "lled": 7046,
  "Ġruining": 7047,
  "kend": 7048,
  "ĠWant": 7049,
  "Chirpy": 7050,
  "ĠFlutter": 7051,
  "Ġmonth": 7052,
  "ĠGrumpy": 7053,
  "Ġweekend": 7054,
  "Ġstorekeeper": 7055,
  "Ġshrunk": 7056,
  "Ġraces": 7057,
  "Ġbirdy": 7058,
  "dam": 7059,
  "ĠRe": 7060,
  "ousy": 7061,
  "Ġsteer": 7062,
  "but": 7063,
  "Ġage": 7064,
  "ĠStri": 7065,
  "Ġcocoon": 7066,
  "Ġforehead": 7067,
  "form": 7068,
  "ĠJones": 7069,
  "Ġships": 7070,
  "ilo": 7071,
  "arter": 7072,
  "Ġdryer": 7073,
  "ĠRatty": 7074,
  "Ġdots": 7075,
  "Ġconversation": 7076,
  "Ġguessing": 7077,
  "Ġbravest": 7078,
  "Ġ10": 7079,
  "inda": 7080,
  "ĠOnce": 7081,
  "Ġfires": 7082,
  "Ġunf": 7083,
  "Ġentrance": 7084,
  "Ġnoses": 7085,
  "Ġtwinkle": 7086,
  "Ġshrinking": 7087,
  "Ġbadge": 7088,
  "hog": 7089,
  "Ġsmarter": 7090,
  "ooky": 7091,
  "ighty": 7092,
  "Ġcolder": 7093,
  "Ġrains": 7094,
  "aped": 7095,
  "Ġspice": 7096,
  "Ġmeowing": 7097,
  "Ġstarfish": 7098,
  "Ġcelebration": 7099,
  "Ġnecklaces": 7100,
  "Ġservant": 7101,
  "Ġblows": 7102,
  "oni": 7103,
  "Ġhus": 7104,
  "ĠBlink": 7105,
  "Ġafterwards": 7106,
  "ky": 7107,
  "Hold": 7108,
  "Ġswimsuit": 7109,
  "Ġwobble": 7110,
  "Ġdrawn": 7111,
  "itude": 7112,
  "Zoom": 7113,
  "Ġknees": 7114,
  "Ġwarmer": 7115,
  "Ġwindowsill": 7116,
  "ĠHopper": 7117,
  "Ġsense": 7118,
  "Ġswans": 7119,
  "Ġbothering": 7120,
  "ĠNice": 7121,
  "Ġopp": 7122,
  "Ġneatly": 7123,
  "Doggy": 7124,
  "Ġsib": 7125,
  "Ġforgiving": 7126,
  "Ġcrew": 7127,
  "Ġpens": 7128,
  "Ġcowboy": 7129,
  "Ġcloudy": 7130,
  "Ġslam": 7131,
  "rint": 7132,
  "Ġconduct": 7133,
  "ĠLou": 7134,
  "Ġhedgehog": 7135,
  "ĠSorry": 7136,
  "amboo": 7137,
  "Ġmermaid": 7138,
  "Ġhairdress": 7139,
  "rious": 7140,
  "ears": 7141,
  "ĠCatty": 7142,
  "inkling": 7143,
  "Ġslower": 7144,
  "Poppy": 7145,
  "Ġpins": 7146,
  "ĠHippy": 7147,
  "Ġoysters": 7148,
  "Ġexploded": 7149,
  "Ġconductor": 7150,
  "Ġbrushing": 7151,
  "Ġhusband": 7152,
  "Ġswords": 7153,
  "Fine": 7154,
  "Ġcoug": 7155,
  "Ġinj": 7156,
  "ĠPoor": 7157,
  "Ġhairdresser": 7158,
  "Ġvehicles": 7159,
  "Ġcreations": 7160,
  "Ġpuck": 7161,
  "Ġforgiveness": 7162,
  "Ġmagazines": 7163,
  "Ġresisted": 7164,
  "Ġrout": 7165,
  "Ġbuzzed": 7166,
  "Ġblocked": 7167,
  "Ġaliens": 7168,
  "Ġstitches": 7169,
  "ĠYes": 7170,
  "Ġlistens": 7171,
  "yes": 7172,
  "Ġfirm": 7173,
  "Ġsquishy": 7174,
  "Ġfuzzy": 7175,
  "Ġbamboo": 7176,
  "Ġbumps": 7177,
  "ĠBop": 7178,
  "Ġsolving": 7179,
  "Ġburying": 7180,
  "ĠCuddles": 7181,
  "Ġposter": 7182,
  "Ġyielded": 7183,
  "Ġgracefully": 7184,
  "Ġagrees": 7185,
  "Ġscratching": 7186,
  "Ġshaped": 7187,
  "airy": 7188,
  "Ġsurprising": 7189,
  "Ġmelons": 7190,
  "ider": 7191,
  "Ġworrying": 7192,
  "Ġnests": 7193,
  "Run": 7194,
  "usan": 7195,
  "Listen": 7196,
  "Ġpoliceman": 7197,
  "Ġbreathed": 7198,
  "Ġpassen": 7199,
  "Ġmaster": 7200,
  "ddie": 7201,
  "Ġstern": 7202,
  "Ġwobbly": 7203,
  "Ġcloses": 7204,
  "Ġplanning": 7205,
  "ossible": 7206,
  "Ġdepartment": 7207,
  "no": 7208,
  "Ġspooky": 7209,
  "ĠGet": 7210,
  "athy": 7211,
  "une": 7212,
  "Harry": 7213,
  "Ġpreparing": 7214,
  "Ġrelief": 7215,
  "Ġsupported": 7216,
  "Ġprickly": 7217,
  "Ġmisses": 7218,
  "bably": 7219,
  "ĠWil": 7220,
  "Ġimpossible": 7221,
  "ĠSure": 7222,
  "Ġprobably": 7223,
  "True": 7224,
  "apt": 7225,
  "Ġfrowning": 7226,
  "Ġcoral": 7227,
  "ading": 7228,
  "Ġkittens": 7229,
  "Ġdet": 7230,
  "ĠStay": 7231,
  "Ġdefeated": 7232,
  "Ġrubs": 7233,
  "ĠFarmer": 7234,
  "ĠAuntie": 7235,
  "bbie": 7236,
  "Dave": 7237,
  "ironment": 7238,
  "ĠThose": 7239,
  "Ġkit": 7240,
  "Ġreass": 7241,
  "Ġenvironment": 7242,
  "Ġwrinkled": 7243,
  "Ġyounger": 7244,
  "pite": 7245,
  "ouch": 7246,
  "Ġamong": 7247,
  "bell": 7248,
  "Ġfloors": 7249,
  "ĠMousy": 7250,
  "Ġfishy": 7251,
  "Ġhanding": 7252,
  "ĠChew": 7253,
  "Ġaware": 7254,
  "Mike": 7255,
  "Ġfoc": 7256,
  "Ġfocused": 7257,
  "ĠJan": 7258,
  "ĠCrusty": 7259,
  "Ġtapped": 7260,
  "Ġnoodles": 7261,
  "Follow": 7262,
  "Ġdisplayed": 7263,
  "Ġbelongings": 7264,
  "Ġrolls": 7265,
  "fall": 7266,
  "Ġhunters": 7267,
  "fire": 7268,
  "Ġuns": 7269,
  "Ġairplanes": 7270,
  "ection": 7271,
  "idents": 7272,
  "ĠJulie": 7273,
  "Ġtiptoed": 7274,
  "Ġtying": 7275,
  "Ġstartled": 7276,
  "Ġsoaking": 7277,
  "Ġfocus": 7278,
  "Ġvent": 7279,
  "ĠTwo": 7280,
  "lephant": 7281,
  "Ġscrews": 7282,
  "ĠAbby": 7283,
  "Ġthoughts": 7284,
  "Ġcraft": 7285,
  "Shh": 7286,
  "Ġspoonful": 7287,
  "Ġmanag": 7288,
  "Ġlower": 7289,
  "Ġentire": 7290,
  "Ġscarves": 7291,
  "oke": 7292,
  "ayla": 7293,
  "Ġannoy": 7294,
  "Ġtar": 7295,
  "ĠFire": 7296,
  "Charlie": 7297,
  "ĠPing": 7298,
  "Ġconvin": 7299,
  "istle": 7300,
  "Ġdrifted": 7301,
  "Ġsailboat": 7302,
  "Ġund": 7303,
  "Ġlent": 7304,
  "ĠCrab": 7305,
  "Ġflas": 7306,
  "ido": 7307,
  "ccidents": 7308,
  "Ġoverhe": 7309,
  "Ġclues": 7310,
  "Ġcheeks": 7311,
  "ĠKids": 7312,
  "Ġliqu": 7313,
  "Ġhesitated": 7314,
  "ĠRover": 7315,
  "Ġdamaged": 7316,
  "though": 7317,
  "Lola": 7318,
  "uments": 7319,
  "Ġcommun": 7320,
  "Ġfloats": 7321,
  "Ġactiv": 7322,
  "Ġmerry": 7323,
  "Ġfins": 7324,
  "Ġreapp": 7325,
  "Ġbreathing": 7326,
  "ĠBeth": 7327,
  "erg": 7328,
  "Ġlicking": 7329,
  "ĠPuddles": 7330,
  "Ġwaking": 7331,
  "Ġgrabbing": 7332,
  "ĠFu": 7333,
  "Ġwept": 7334,
  "Ġsiblings": 7335,
  "ected": 7336,
  "ĠGoodbye": 7337,
  "rrr": 7338,
  "Ġtipped": 7339,
  "ibbit": 7340,
  "Ġwears": 7341,
  "Ġsprout": 7342,
  "Ġstopping": 7343,
  "Ġdances": 7344,
  "Paul": 7345,
  "...\"": 7346,
  "Ġflipped": 7347,
  "Ġsweetest": 7348,
  "Ġluckily": 7349,
  "Ġrobots": 7350,
  "Ġhider": 7351,
  "ĠOliver": 7352,
  "ĠDot": 7353,
  "Ġblinking": 7354,
  "Ġsheets": 7355,
  "acles": 7356,
  "yond": 7357,
  "Ġbeyond": 7358,
  "Ġstomped": 7359,
  "Ġseeker": 7360,
  "Ġtwisting": 7361,
  "Ġthud": 7362,
  "Ġguide": 7363,
  "Ġyelp": 7364,
  "storm": 7365,
  "Henry": 7366,
  "Ġplayd": 7367,
  "Excitedly": 7368,
  "Ġsharks": 7369,
  "Ġconvince": 7370,
  "Ġaction": 7371,
  "Ġtwinkling": 7372,
  "ĠMighty": 7373,
  "Ġshoelaces": 7374,
  "Ġclick": 7375,
  "Ġcust": 7376,
  "ĠFor": 7377,
  "Ġdived": 7378,
  "Ġtoss": 7379,
  "Ġpostman": 7380,
  "Ġscratches": 7381,
  "Ġrescuing": 7382,
  "Ġfigured": 7383,
  "Ġjoked": 7384,
  "Ġdar": 7385,
  "Ġbacked": 7386,
  "Ġbitten": 7387,
  "Ġserving": 7388,
  "kelly": 7389,
  "Ġgrip": 7390,
  "Ġsprinkled": 7391,
  "Ġfigures": 7392,
  "rect": 7393,
  "Ġignoring": 7394,
  "Rose": 7395,
  "Ġeveryday": 7396,
  "ĠPr": 7397,
  "Sunny": 7398,
  "Ġcustom": 7399,
  "Ġreminding": 7400,
  "iment": 7401,
  "Ġnotes": 7402,
  "Ġstreamers": 7403,
  "Ġpouted": 7404,
  "Ġactivities": 7405,
  "zie": 7406,
  "Ġimages": 7407,
  "Ġoverheard": 7408,
  "acob": 7409,
  "Ġcleaner": 7410,
  "Ġpackages": 7411,
  "Ġsobbed": 7412,
  "Dog": 7413,
  "shaped": 7414,
  "hew": 7415,
  "ĠJilly": 7416,
  "Ġsnowfl": 7417,
  "Ġneighbourhood": 7418,
  "Tw": 7419,
  "ne": 7420,
  "Ġseconds": 7421,
  "Ġknots": 7422,
  "Ġdressing": 7423,
  "Snow": 7424,
  "Ġhandful": 7425,
  "ĠSw": 7426,
  "Ġjobs": 7427,
  "Ġencourag": 7428,
  "Ġcorrect": 7429,
  "Ġsecure": 7430,
  "Ġnibble": 7431,
  "Ġlipstick": 7432,
  "Bubbles": 7433,
  "Ġtwice": 7434,
  "Ġlessons": 7435,
  "Ġtreated": 7436,
  "ĠQuick": 7437,
  "Ġdarkness": 7438,
  "Ġdecoration": 7439,
  "Ġweeds": 7440,
  "ĠSparkle": 7441,
  "Ġmattered": 7442,
  "Ġworn": 7443,
  "Roar": 7444,
  "Ġsmoking": 7445,
  "Ġsofter": 7446,
  "Ġnine": 7447,
  "Ġtrans": 7448,
  "Ġgroups": 7449,
  "arky": 7450,
  "Ġunw": 7451,
  "print": 7452,
  "Ġyourselves": 7453,
  "agic": 7454,
  "Ġexplorers": 7455,
  "Ġjars": 7456,
  "ĠTree": 7457,
  "Ġreversed": 7458,
  "Ġconvinced": 7459,
  "Ġsituations": 7460,
  "ĠButter": 7461,
  "Ġsyrup": 7462,
  "Ġaside": 7463,
  "umbling": 7464,
  "Ġfamiliar": 7465,
  "Ġease": 7466,
  "Ġbusiness": 7467,
  "fly": 7468,
  "ifully": 7469,
  "ĠHenny": 7470,
  "Ġkicks": 7471,
  "rier": 7472,
  "Ġknives": 7473,
  "Que": 7474,
  "Ġtalents": 7475,
  "ppies": 7476,
  "Ġdoorbell": 7477,
  "Ġencouragement": 7478,
  "ĠRain": 7479,
  "Ġhallway": 7480,
  "ĠAnt": 7481,
  "Ġstudents": 7482,
  "Queen": 7483,
  "aying": 7484,
  "Ġbeautifully": 7485,
  "Ġteapot": 7486,
  "Ġsilent": 7487,
  "Ġallerg": 7488,
  "Ġramp": 7489,
  "Ġstreets": 7490,
  "ĠJamie": 7491,
  "ĠChloe": 7492,
  "Ġpupils": 7493,
  "James": 7494,
  "Ġslices": 7495,
  "Ġhaircuts": 7496,
  "Ġargument": 7497,
  "ĠJosh": 7498,
  "obody": 7499,
  "ipes": 7500,
  "Ġplot": 7501,
  "ĠElephant": 7502,
  "ora": 7503,
  "Ġearn": 7504,
  "Ġbathing": 7505,
  "sm": 7506,
  "Ġsweep": 7507,
  "ĠDizzy": 7508,
  "Grace": 7509,
  "vroom": 7510,
  "Ġtested": 7511,
  "Ġrewarded": 7512,
  "Ġliquid": 7513,
  "Ġev": 7514,
  "ĠSkelly": 7515,
  "ĠMix": 7516,
  "child": 7517,
  "Danny": 7518,
  "Ġbeeped": 7519,
  "pen": 7520,
  "shions": 7521,
  "urious": 7522,
  "iece": 7523,
  "Ġsprang": 7524,
  "Ġwow": 7525,
  "ĠClau": 7526,
  "Ġspells": 7527,
  "Ġjets": 7528,
  "Ġinstruments": 7529,
  "ĠClaus": 7530,
  "cept": 7531,
  "Ġreads": 7532,
  "Ġangels": 7533,
  "Ġhowever": 7534,
  "ĠĠ": 7535,
  "Tina": 7536,
  "Ġartwork": 7537,
  "Ġlabels": 7538,
  "Ġtransform": 7539,
  "rink": 7540,
  "Ġcounts": 7541,
  "ĠRolly": 7542,
  "aret": 7543,
  "Ġslipping": 7544,
  "Ġshines": 7545,
  "Ġrefreshing": 7546,
  "Ġrivers": 7547,
  "Annie": 7548,
  "Ġrecess": 7549,
  "Ġhotter": 7550,
  "Whee": 7551,
  "Ġnug": 7552,
  "ĠPeep": 7553,
  "Ġwaterfall": 7554,
  "wk": 7555,
  "Ġcovering": 7556,
  "Ġrather": 7557,
  "Ġcenter": 7558,
  "Lilly": 7559,
  "Ġappreciated": 7560,
  "Pip": 7561,
  "Toby": 7562,
  "ĠEddie": 7563,
  "Ġgrandchild": 7564,
  "Ġcupcake": 7565,
  "Ġheight": 7566,
  "Ġtoolbox": 7567,
  "line": 7568,
  "Ġencouraging": 7569,
  "eese": 7570,
  "Ġmaker": 7571,
  "Ġwipes": 7572,
  "Ġpartic": 7573,
  "lling": 7574,
  "Ġmanners": 7575,
  "Ġghosts": 7576,
  "Dolly": 7577,
  "Ġquarreled": 7578,
  "Ġcrashing": 7579,
  "Ġdot": 7580,
  "Ġbeam": 7581,
  "oring": 7582,
  "ĠPaws": 7583,
  "ĠAnne": 7584,
  "Ġwisely": 7585,
  "Sophie": 7586,
  "Ġpoppies": 7587,
  "belt": 7588,
  "Ġcampfire": 7589,
  "Ġpanicked": 7590,
  "ĠWilbur": 7591,
  "ĠAsh": 7592,
  "ware": 7593,
  "Ġvowed": 7594,
  "ĠFido": 7595,
  "Ġseatbelt": 7596,
  "Ġposit": 7597,
  "Ġsquished": 7598,
  "Ġpopsic": 7599,
  "Ġdesigning": 7600,
  "Ġcombed": 7601,
  "cycles": 7602,
  "Ġcreamy": 7603,
  "ĠWhistle": 7604,
  "ounce": 7605,
  "Ġshin": 7606,
  "Ġmac": 7607,
  "Ġcushions": 7608,
  "ĠPatch": 7609,
  "Ġheading": 7610,
  "Ġyells": 7611,
  "Ġtighter": 7612,
  "Ġpound": 7613,
  "Ġinsp": 7614,
  "ĠMilo": 7615,
  "Ġgreeted": 7616,
  "Big": 7617,
  "mates": 7618,
  "Ġshattered": 7619,
  "abra": 7620,
  "Nutty": 7621,
  "Ġdef": 7622,
  "issy": 7623,
  "ĠMonkey": 7624,
  "Ġ2": 7625,
  "Ru": 7626,
  "Ġcautiously": 7627,
  "For": 7628,
  "Ġprevented": 7629,
  "ĠOther": 7630,
  "eal": 7631,
  "Ġhawk": 7632,
  "Ġhides": 7633,
  "orter": 7634,
  "Ġthorns": 7635,
  "Ġknocks": 7636,
  "Ġtrembled": 7637,
  "Ġpedaled": 7638,
  "Ġloops": 7639,
  "Ġfart": 7640,
  "Ġseagulls": 7641,
  "Ġnuggets": 7642,
  "Ġroutine": 7643,
  "ĠSusan": 7644,
  "Ġslammed": 7645,
  "Ġbuddy": 7646,
  "Ġimaginary": 7647,
  "Ġbatch": 7648,
  "Ġtossed": 7649,
  "Ġsqueal": 7650,
  "Maggie": 7651,
  "Ġswimmer": 7652,
  "ĠDodo": 7653,
  "Ġbeaver": 7654,
  "ĠLots": 7655,
  "bit": 7656,
  "Ġmixture": 7657,
  "Ġties": 7658,
  "ĠJeff": 7659,
  "immer": 7660,
  "asm": 7661,
  "Ġpoisonous": 7662,
  "Ġgeese": 7663,
  "Ġpaths": 7664,
  "Ġreassured": 7665,
  "Ġexhau": 7666,
  "Ġtricycle": 7667,
  "ĠFish": 7668,
  "Ġchefs": 7669,
  "Ġventured": 7670,
  "Ġblast": 7671,
  "aven": 7672,
  "worm": 7673,
  "Ġscen": 7674,
  "Ġappearance": 7675,
  "Dear": 7676,
  "ĠMatt": 7677,
  "ĠDara": 7678,
  "Ġroast": 7679,
  "Ġraking": 7680,
  "Ġmotorcycles": 7681,
  "Ġevil": 7682,
  "Ġretri": 7683,
  "Ġsoundly": 7684,
  "ĠStripe": 7685,
  "Ġlanguages": 7686,
  "Ġspices": 7687,
  "ĠWink": 7688,
  "ĠDee": 7689,
  "Out": 7690,
  "Ġweapons": 7691,
  "Ġbulbs": 7692,
  "Ġdistract": 7693,
  "abel": 7694,
  "?\",": 7695,
  "Ġtesting": 7696,
  "Ġfarthest": 7697,
  "ĠAlong": 7698,
  "ats": 7699,
  "Ġsmelling": 7700,
  "Ġdangers": 7701,
  "Ġhealthier": 7702,
  "ms": 7703,
  "Ġpuff": 7704,
  "unched": 7705,
  "ments": 7706,
  "Ġdestroying": 7707,
  "ĠAccidents": 7708,
  "ĠCopper": 7709,
  "ummies": 7710,
  "Ġunsure": 7711,
  "Ġself": 7712,
  "ĠQueen": 7713,
  "Ġnur": 7714,
  "Ġplumber": 7715,
  "Ġpays": 7716,
  "Ġjudges": 7717,
  "ĠTry": 7718,
  "Ġburgers": 7719,
  "Ġanger": 7720,
  "May": 7721,
  "Ġleads": 7722,
  "Ġtuck": 7723,
  "Ġocc": 7724,
  "Ġcharge": 7725,
  "rig": 7726,
  "Ġends": 7727,
  "Ġtummies": 7728,
  "bbling": 7729,
  "Ġfries": 7730,
  "Ġtempt": 7731,
  "Ġcrops": 7732,
  "Ġkings": 7733,
  "Ġshown": 7734,
  "Years": 7735,
  "Ġtweet": 7736,
  "Ġsymbols": 7737,
  "Alex": 7738,
  "Ġdesigns": 7739,
  "cts": 7740,
  "ĠChirp": 7741,
  "Ġdefeat": 7742,
  "Ġmaterials": 7743,
  "Ġhatched": 7744,
  "Ġallowance": 7745,
  "Ġsniffing": 7746,
  "Ġexercises": 7747,
  "ĠWithout": 7748,
  "Ġopinions": 7749,
  "Ġhatch": 7750,
  "Ġallergic": 7751,
  "ĠListen": 7752,
  "romise": 7753,
  "Ġdou": 7754,
  "cho": 7755,
  "Ġmesses": 7756,
  "Ġacts": 7757,
  "Ġunpacking": 7758,
  "Ġhopeful": 7759,
  "Ġhabit": 7760,
  "isions": 7761,
  "quet": 7762,
  "Ġpancake": 7763,
  "Ġtalks": 7764,
  "ulp": 7765,
  "Ġdeed": 7766,
  "Ġgrandson": 7767,
  "Ġfluttered": 7768,
  "uess": 7769,
  "Ġcoup": 7770,
  "ĠClaire": 7771,
  "ĠLaser": 7772,
  "ĠJenna": 7773,
  "ĠNothing": 7774,
  "ĠBall": 7775,
  "Beep": 7776,
  "Ġecho": 7777,
  "Ġger": 7778,
  "ophia": 7779,
  "Ġquieter": 7780,
  "ĠCathy": 7781,
  "Ġoverhead": 7782,
  "ĠLuke": 7783,
  "ĠLinda": 7784,
  "Ġpurpose": 7785,
  "Ġgaz": 7786,
  "Ġdrawers": 7787,
  "Ġforgets": 7788,
  "Ġbuses": 7789,
  "Ġdisob": 7790,
  "mies": 7791,
  "Ġexch": 7792,
  "ĠChuck": 7793,
  "Ġbeginning": 7794,
  "Ġbou": 7795,
  "Ġbouquet": 7796,
  "osen": 7797,
  "Ġmagically": 7798,
  "Ġguarding": 7799,
  "Ġchosen": 7800,
  "ĠSkip": 7801,
  "ĠRudy": 7802,
  "ĠFairy": 7803,
  "Ġcorrectly": 7804,
  "uzz": 7805,
  "Ġsails": 7806,
  "Ġpassengers": 7807,
  "Ġexhausted": 7808,
  "ĠPeanut": 7809,
  "otch": 7810,
  "Ġchocolates": 7811,
  "Ġturtles": 7812,
  "Ġflashing": 7813,
  "Ġwraps": 7814,
  "Ġunicorns": 7815,
  "Ġplaydate": 7816,
  "ĠLena": 7817,
  "ĠHold": 7818,
  "Ġscattering": 7819,
  "Ġexcept": 7820,
  "Ġsqueezing": 7821,
  "Ġcoach": 7822,
  "ĠWo": 7823,
  "Ġleaking": 7824,
  "ĠSundays": 7825,
  "Ġswirl": 7826,
  "Ġvisitors": 7827,
  "Ġtraveling": 7828,
  "Ġdecisions": 7829,
  "Ġbru": 7830,
  "Anytime": 7831,
  "Moo": 7832,
  "Le": 7833,
  "Ġrats": 7834,
  "Ġdod": 7835,
  "Ġcorners": 7836,
  "Ġsource": 7837,
  "Ġgrowls": 7838,
  "Ġbraver": 7839,
  "ĠFuzzy": 7840,
  "Ġexpress": 7841,
  "Ġinstin": 7842,
  "Ġborn": 7843,
  "izzie": 7844,
  "Ġhonesty": 7845,
  "Ġbreaths": 7846,
  "Ġannounced": 7847,
  "ĠWilly": 7848,
  "Take": 7849,
  "Spike": 7850,
  "Ġunwra": 7851,
  "Ġmanager": 7852,
  "Ġgest": 7853,
  "uppy": 7854,
  "Ġdarling": 7855,
  "ĠAdam": 7856,
  "sol": 7857,
  "ĠNobody": 7858,
  "?'": 7859,
  "ĠTake": 7860,
  "lt": 7861,
  "Co": 7862,
  "Ġcons": 7863,
  "Ġplayhouse": 7864,
  "Ġinchworm": 7865,
  "Bear": 7866,
  "Ġhangers": 7867,
  "Ġbicycles": 7868,
  "Ġscooters": 7869,
  "Ġsalon": 7870,
  "ĠJessie": 7871,
  "Ġfreezing": 7872,
  "ĠMikey": 7873,
  "ĠFishy": 7874,
  "Ġstorms": 7875,
  "Ġreturning": 7876,
  "ĠNana": 7877,
  "Fro": 7878,
  "Ġparticular": 7879,
  "Ġcig": 7880,
  "ĠSqueak": 7881,
  "whe": 7882,
  "Sque": 7883,
  "Ġstroked": 7884,
  "ĠTurt": 7885,
  "Under": 7886,
  "ĠGray": 7887,
  "ighing": 7888,
  "Ġstored": 7889,
  "Ġvisitor": 7890,
  "Ġdrivers": 7891,
  "bird": 7892,
  "Ġsingers": 7893,
  "Ġseller": 7894,
  "Jump": 7895,
  "Ġrewards": 7896,
  "Ġchilly": 7897,
  "Ġforce": 7898,
  "Ġcalmly": 7899,
  "Ġhops": 7900,
  "Ġsparks": 7901,
  "Ġcollap": 7902,
  "ĠOh": 7903,
  "Ġgrassy": 7904,
  "Gr": 7905,
  "Ġcigaret": 7906,
  "ĠĊĠ": 7907,
  "the": 7908,
  "Ġinstincts": 7909,
  "Ġflip": 7910,
  "Ġflooded": 7911,
  "Ġshave": 7912,
  "Ġbandages": 7913,
  "adabra": 7914,
  "Ġhealing": 7915,
  "Ġcouple": 7916,
  "Ġshady": 7917,
  "Ġblushed": 7918,
  "Ġmonths": 7919,
  "Ġshops": 7920,
  "prints": 7921,
  "lee": 7922,
  "Ġrowed": 7923,
  "Ġclosing": 7924,
  "Ġheaven": 7925,
  "Ġbattle": 7926,
  "ĠPup": 7927,
  "cadabra": 7928,
  "ĠHannah": 7929,
  "Bless": 7930,
  "Ġthanking": 7931,
  "Ġsweaty": 7932,
  "ibit": 7933,
  "Ġspare": 7934,
  "Ted": 7935,
  "Ġcoolest": 7936,
  "ĠSnap": 7937,
  "Ġbackward": 7938,
  "ĠMad": 7939,
  "Ġpantry": 7940,
  "Zip": 7941,
  "Ġteles": 7942,
  "Ġmunching": 7943,
  "Ġgobbled": 7944,
  "ĠOstrich": 7945,
  "Ġrobber": 7946,
  "Ġdripping": 7947,
  "sa": 7948,
  "Ġtouches": 7949,
  "Ġmate": 7950,
  "Ġcontainer": 7951,
  "Pandy": 7952,
  "Ġyelped": 7953,
  "Ġwhoever": 7954,
  "Ġwakes": 7955,
  "Ġsometime": 7956,
  "ertain": 7957,
  "Ġuntangled": 7958,
  "lied": 7959,
  "ĠSnowman": 7960,
  "stand": 7961,
  "Pipp": 7962,
  "Ġbells": 7963,
  "ĠCara": 7964,
  "Ġneare": 7965,
  "Ġpeeled": 7966,
  "ĠOnly": 7967,
  "Ġtelescope": 7968,
  "Ġhoops": 7969,
  "Ġaccomplished": 7970,
  "Ġhour": 7971,
  "Hoppy": 7972,
  "Ġupside": 7973,
  "alph": 7974,
  "icate": 7975,
  "Ġdaring": 7976,
  "ĠSuzie": 7977,
  "ĠDuring": 7978,
  "ĠBones": 7979,
  "ammy": 7980,
  "Pl": 7981,
  "ĠOuch": 7982,
  "Ġsped": 7983,
  "Ġpandas": 7984,
  "Ġnightmares": 7985,
  "ĠPingu": 7986,
  "Ġfriendships": 7987,
  "Ġseals": 7988,
  "stalk": 7989,
  "Ġpotty": 7990,
  "Ġchopped": 7991,
  "Ġexhibit": 7992,
  "cat": 7993,
  "Get": 7994,
  "Ġactive": 7995,
  "ĠSl": 7996,
  "Ġrespected": 7997,
  "Ġzipping": 7998,
  "ĠGold": 7999,
  "Ġseasons": 8000,
  "Ġspins": 8001,
  "Ġrespond": 8002,
  "Ġgazing": 8003,
  "Ġgesture": 8004,
  "bel": 8005,
  "Ġprove": 8006,
  "Ġpositive": 8007,
  "ĠGina": 8008,
  "Boys": 8009,
  "Ġgoo": 8010,
  "ĠCow": 8011,
  "Gigi": 8012,
  "Ġcrystals": 8013,
  "Put": 8014,
  "Ġsquealed": 8015,
  "ĠTrust": 8016,
  "ĠMel": 8017,
  "Ġtraps": 8018,
  "vered": 8019,
  "Ġshorter": 8020,
  "Ġgerms": 8021,
  "Sandy": 8022,
  "Car": 8023,
  "Ġ5": 8024,
  "iving": 8025,
  "Ġactor": 8026,
  "Ġexperiences": 8027,
  "Ġdump": 8028,
  "ĠBloom": 8029,
  "Ġrunner": 8030,
  "Ġoffering": 8031,
  "cky": 8032,
  "Ġtarget": 8033,
  "Ġbeanstalk": 8034,
  "ĠRobo": 8035,
  "acle": 8036,
  "Ġstores": 8037,
  "ĠMa": 8038,
  "onse": 8039,
  "ĠRich": 8040,
  "ĠJacob": 8041,
  "ĠWoof": 8042,
  "ĠWell": 8043,
  "ĠMira": 8044,
  "Ġresponse": 8045,
  "Ġqueens": 8046,
  "Ġoccas": 8047,
  "Ġfootprints": 8048,
  "Ġbelts": 8049,
  "ongratulations": 8050,
  "Ġuntangle": 8051,
  "Ġdisappoint": 8052,
  "ĠJessica": 8053,
  "Ġtapping": 8054,
  "retch": 8055,
  "Ġsomebody": 8056,
  "ingo": 8057,
  "Ġposes": 8058,
  "ĠSof": 8059,
  "Ġreminds": 8060,
  "Ġchecking": 8061,
  "lers": 8062,
  "Ġscurry": 8063,
  "Ġswallow": 8064,
  "Ġwhispers": 8065,
  "Ġdip": 8066,
  "Ġcheaper": 8067,
  "ĠLarry": 8068,
  "aura": 8069,
  "Ġtentacles": 8070,
  "Ġshovels": 8071,
  "ĠZee": 8072,
  "Ġhoriz": 8073,
  "Ġstudent": 8074,
  "Ġsingle": 8075,
  "ilted": 8076,
  "Ġstatues": 8077,
  "Millie": 8078,
  "Ġpills": 8079,
  "Ġdiamonds": 8080,
  "ris": 8081,
  "endy": 8082,
  "Ġmesmer": 8083,
  "Ġclassmates": 8084,
  "ĠUp": 8085,
  "tock": 8086,
  "Ġhorizon": 8087,
  "ĠRaven": 8088,
  "ĠNina": 8089,
  "Ġchanges": 8090,
  "Ġbeating": 8091,
  "Ġnuzz": 8092,
  "over": 8093,
  "Guess": 8094,
  "Ġachieved": 8095,
  "Baa": 8096,
  "Ġmoat": 8097,
  "aby": 8098,
  "ilities": 8099,
  "Ġencount": 8100,
  "ĠSatur": 8101,
  "Ġrepairman": 8102,
  "ĠIsn": 8103,
  "Uncle": 8104,
  "Mine": 8105,
  "Ġslips": 8106,
  "Ġbelieving": 8107,
  "ĠJon": 8108,
  "Ġnurses": 8109,
  "Ġinvitations": 8110,
  "ĠTurtle": 8111,
  "Ġforts": 8112,
  "sitter": 8113,
  "ha": 8114,
  "Dan": 8115,
  "Ġtearing": 8116,
  "ĠJump": 8117,
  "aren": 8118,
  "Ġscri": 8119,
  "steps": 8120,
  "rigued": 8121,
  "cessary": 8122,
  "Which": 8123,
  "Ġcleared": 8124,
  "Ġstacking": 8125,
  "Ġlifts": 8126,
  "Ġjourneys": 8127,
  "Ġlongest": 8128,
  "Ġinspired": 8129,
  "che": 8130,
  "Ġrely": 8131,
  "Ġhunting": 8132,
  "Ġstands": 8133,
  "Ġwasting": 8134,
  "Ġsuits": 8135,
  "Ġfootsteps": 8136,
  "yan": 8137,
  "Hop": 8138,
  "Ġincreasing": 8139,
  "âĢĶ": 8140,
  "Ġbabysitter": 8141,
  "upt": 8142,
  "Ġaccomplishment": 8143,
  "ollen": 8144,
  "Ġtaped": 8145,
  "Wake": 8146,
  "Ġspills": 8147,
  "Vroom": 8148,
  "Ġweighs": 8149,
  "Ġteams": 8150,
  "Ġswollen": 8151,
  "Ġspilling": 8152,
  "ĠOt": 8153,
  "ĠâĢĺ": 8154,
  "Ġdollar": 8155,
  "Ġweaker": 8156,
  "Ġcoughing": 8157,
  "orse": 8158,
  "Ġinter": 8159,
  "rigg": 8160,
  "oard": 8161,
  "iggles": 8162,
  "Ġfreedom": 8163,
  "Ġeverybody": 8164,
  "Ġslithered": 8165,
  "ĠRollie": 8166,
  "Ġsou": 8167,
  "Ġappreciation": 8168,
  "ĠJay": 8169,
  "iversity": 8170,
  "Ġaddress": 8171,
  "jo": 8172,
  "Keep": 8173,
  "Binky": 8174,
  "rum": 8175,
  "Ġaboard": 8176,
  "ighting": 8177,
  "Kate": 8178,
  "Ġsuggestion": 8179,
  "idence": 8180,
  "Ġstomp": 8181,
  "Ġhoo": 8182,
  "Ġedges": 8183,
  "Ġobst": 8184,
  "Ġarr": 8185,
  "iciest": 8186,
  "Hurry": 8187,
  "Ġminds": 8188,
  "Ġcheckout": 8189,
  "Ġjoining": 8190,
  "Ruby": 8191,
  "Ġpopsicle": 8192,
  "Ġexercising": 8193,
  "Ġauntie": 8194,
  "Ġcrowns": 8195,
  "ĠMoon": 8196,
  "Ġwhipped": 8197,
  "Ġsnowflakes": 8198,
  "da": 8199,
  "Ġmember": 8200,
  "Ġbothered": 8201,
  "ĠTara": 8202,
  "Ġicing": 8203,
  "ippers": 8204,
  "Snowy": 8205,
  "Ġsqueak": 8206,
  "Nice": 8207,
  "ĠSleep": 8208,
  "Someone": 8209,
  "Ġpunishment": 8210,
  "ĠKayla": 8211,
  "Ġbolt": 8212,
  "Ġpresses": 8213,
  "iti": 8214,
  "ael": 8215,
  "Ġcuriously": 8216,
  "Mickey": 8217,
  "Ġrin": 8218,
  "Ġkayaking": 8219,
  "Ġwrigg": 8220,
  "ĠOak": 8221,
  "?!\"": 8222,
  "ĠEx": 8223,
  "bee": 8224,
  "Ġbuckled": 8225,
  "imon": 8226,
  "Ġlanding": 8227,
  "Ġspat": 8228,
  "Ġcommunicate": 8229,
  "ĠAm": 8230,
  "lo": 8231,
  "Ġprizes": 8232,
  "under": 8233,
  "Ġfailed": 8234,
  "Ġskate": 8235,
  "Ġflick": 8236,
  "iter": 8237,
  "Ġcompliment": 8238,
  "ĠTig": 8239,
  "Ġtant": 8240,
  "Ġlace": 8241,
  "ĠJulia": 8242,
  "Ġsill": 8243,
  "retty": 8244,
  "Eww": 8245,
  "Ġgrumbled": 8246,
  "wise": 8247,
  "ĠPiggy": 8248,
  "guard": 8249,
  "arable": 8250,
  "Ġnovels": 8251,
  "Ġlava": 8252,
  "ĠGerry": 8253,
  "Finn": 8254,
  "Ġdisobey": 8255,
  "Ġtours": 8256,
  "dding": 8257,
  "Bang": 8258,
  "Ġtantrum": 8259,
  "Ġanswering": 8260,
  "orking": 8261,
  "innie": 8262,
  "Ġengines": 8263,
  "Ġconnected": 8264,
  "ĠSpirit": 8265,
  "hi": 8266,
  "Ġunz": 8267,
  "Ġtopp": 8268,
  "Ġpinching": 8269,
  "Ġerase": 8270,
  "Ġtubes": 8271,
  "Ġstinky": 8272,
  "Floppy": 8273,
  "Ġswitched": 8274,
  "Ġstepping": 8275,
  "Ġdouble": 8276,
  "ugging": 8277,
  "Open": 8278,
  "Ġpetting": 8279,
  "Ġmooed": 8280,
  "Ġank": 8281,
  "Milly": 8282,
  "Ġyum": 8283,
  "Ġass": 8284,
  "Ġhonking": 8285,
  "Ġspringing": 8286,
  "Ġrepeating": 8287,
  "Ġelect": 8288,
  "Ġexamining": 8289,
  "Ġdonkey": 8290,
  "Ġadults": 8291,
  "ichael": 8292,
  "Ġcamel": 8293,
  "Ġfireflies": 8294,
  "Ġnibbled": 8295,
  "ĠPiggie": 8296,
  "Baby": 8297,
  "Ġfights": 8298,
  "Ribbit": 8299,
  "Ġconsider": 8300,
  "'.\"": 8301,
  "Ġsniffs": 8302,
  "Ġrelaxing": 8303,
  "Ġorders": 8304,
  "Ġyawning": 8305,
  "val": 8306,
  "rew": 8307,
  "Ġstroll": 8308,
  "Ġclue": 8309,
  "Carl": 8310,
  "Ġcheat": 8311,
  "Ġcertain": 8312,
  "otion": 8313,
  "Like": 8314,
  "Ġlistener": 8315,
  "Ġsupplied": 8316,
  "opes": 8317,
  "col": 8318,
  "Ġshorts": 8319,
  "Buzzy": 8320,
  "ĠSaturday": 8321,
  "Ġcosts": 8322,
  "Ġbirdies": 8323,
  "ĠMissy": 8324,
  "ently": 8325,
  "ĠCro": 8326,
  "Ġnatur": 8327,
  "Ġinsep": 8328,
  "ĠWise": 8329,
  "aptain": 8330,
  "Ġtype": 8331,
  "Ġlies": 8332,
  "Ġsigning": 8333,
  "Ġinseparable": 8334,
  "Ġwhispering": 8335,
  "Ġtutu": 8336,
  "Ġclearly": 8337,
  "Ġspringtime": 8338,
  "Ġenthusi": 8339,
  "Very": 8340,
  "Ġgrat": 8341,
  "Ġroars": 8342,
  "Bill": 8343,
  "Ġpours": 8344,
  "Ġenthusiasm": 8345,
  "Ġdoorstep": 8346,
  "Ġborrowing": 8347,
  "Ġuniforms": 8348,
  "Nina": 8349,
  "Ġgratitude": 8350,
  "ĠDove": 8351,
  "str": 8352,
  "Ġsquir": 8353,
  "Ġsquaw": 8354,
  "site": 8355,
  "Ġpipes": 8356,
  "ĠDoctor": 8357,
  "Ġsipped": 8358,
  "Ġminded": 8359,
  "Ġcollapsed": 8360,
  "ĠSophia": 8361,
  "racadabra": 8362,
  "Ġshinier": 8363,
  "Ġcoop": 8364,
  "ĠAng": 8365,
  "Lulu": 8366,
  "freeze": 8367,
  "Ġnervously": 8368,
  "Ġclip": 8369,
  "Ġclicked": 8370,
  "ĠGary": 8371,
  "Ġprayers": 8372,
  "Ġbits": 8373,
  "scotch": 8374,
  "ĠClaw": 8375,
  "Ġlifeguard": 8376,
  "Ġhelicopters": 8377,
  "ĠIzzy": 8378,
  "Does": 8379,
  "rench": 8380,
  "ien": 8381,
  "ortun": 8382,
  "Ġchoosing": 8383,
  "Ġbud": 8384,
  "Ġopportun": 8385,
  "Ġbaskets": 8386,
  "Ġearned": 8387,
  "Free": 8388,
  "Congratulations": 8389,
  "Ġmessed": 8390,
  "ĠStripey": 8391,
  "Ġlunchtime": 8392,
  "Ġstroke": 8393,
  "Ġankle": 8394,
  "water": 8395,
  "isc": 8396,
  "Ġresults": 8397,
  "Ġbride": 8398,
  "Ġthunderstorm": 8399,
  "Ġfirmly": 8400,
  "father": 8401,
  "Ġechoed": 8402,
  "ĠToot": 8403,
  "Ġcherish": 8404,
  "Ġwhales": 8405,
  "Ġglee": 8406,
  "ĠStella": 8407,
  "Ġpepperoni": 8408,
  "Ġwithin": 8409,
  "Ġtransformed": 8410,
  "Ġgiggles": 8411,
  "Ġcal": 8412,
  "ĠPam": 8413,
  "Ġwolves": 8414,
  "Ġsupporting": 8415,
  "adie": 8416,
  "ĠPrince": 8417,
  "Ġnodding": 8418,
  "cri": 8419,
  "Squeaky": 8420,
  "Ġwealth": 8421,
  "Ġtwists": 8422,
  "Ġfoggy": 8423,
  "Ġelf": 8424,
  "ĠZippy": 8425,
  "ĠSe": 8426,
  "Ġnoticing": 8427,
  "ĠRobert": 8428,
  "Ġmood": 8429,
  "Ġconfidence": 8430,
  "ĠLizzie": 8431,
  "while": 8432,
  "Ġkneeling": 8433,
  "ĠBeaky": 8434,
  "Ġthicker": 8435,
  "Ġelectric": 8436,
  "ĠMake": 8437,
  "llas": 8438,
  "Ġyumm": 8439,
  "Ġcells": 8440,
  "Ġnapped": 8441,
  "rob": 8442,
  "Clara": 8443,
  "Ġflowing": 8444,
  "Ġelbow": 8445,
  "aty": 8446,
  "Ġunst": 8447,
  "aint": 8448,
  "Ġmommies": 8449,
  "Ġtasting": 8450,
  "Ġflips": 8451,
  "Ġumbrellas": 8452,
  "Ġfoxes": 8453,
  "Ġdriveway": 8454,
  "Ġhopscotch": 8455,
  "Ġmiles": 8456,
  "Ġbenches": 8457,
  "Ġsandy": 8458,
  "Ġproviding": 8459,
  "Ġmicrow": 8460,
  "ĠJune": 8461,
  "order": 8462,
  "oey": 8463,
  "Ġinsisting": 8464,
  "Ġdiscussing": 8465,
  "Ġcottage": 8466,
  "Ġmicrowave": 8467,
  "Ġwider": 8468,
  "Ġcongratul": 8469,
  "ĠQuacky": 8470,
  "arrow": 8471,
  "Ġscent": 8472,
  "Ġmagnif": 8473,
  "Maria": 8474,
  "Ġtrusting": 8475,
  "Ġstrum": 8476,
  "mag": 8477,
  "Ġreappeared": 8478,
  "Ġpreschool": 8479,
  "ĠCle": 8480,
  "ĠTiti": 8481,
  "bu": 8482,
  "Ġwrecked": 8483,
  "Ġintrigued": 8484,
  "undred": 8485,
  "Ġjuiciest": 8486,
  "Ġcampsite": 8487,
  "espite": 8488,
  "Su": 8489,
  "Ġchopping": 8490,
  "ĠShelly": 8491,
  "Ġsirens": 8492,
  "ĠYet": 8493,
  "Ġgoats": 8494,
  "Bessie": 8495,
  "Ġmomma": 8496,
  "Ġtests": 8497,
  "Ġpounced": 8498,
  "Abracadabra": 8499,
  "Ġsection": 8500,
  "Hmm": 8501,
  "Ġcurre": 8502,
  "Lucky": 8503,
  "!âĢĿ.": 8504,
  "Ġtorto": 8505,
  "ĠTia": 8506,
  "Ġtoothbrush": 8507,
  "erk": 8508,
  "awn": 8509,
  "Ġtemptation": 8510,
  "ĠWolf": 8511,
  "oga": 8512,
  "aker": 8513,
  "Penny": 8514,
  "Ġtortoise": 8515,
  "jack": 8516,
  "Granny": 8517,
  "Ġlunchbox": 8518,
  "Ġemerged": 8519,
  "Ġwiggling": 8520,
  "ulpture": 8521,
  "Ġscurrying": 8522,
  "Ġsculpture": 8523,
  "Ġtidying": 8524,
  "vin": 8525,
  "ĠFighting": 8526,
  "uction": 8527,
  "Betty": 8528,
  "Ġgummy": 8529,
  "ĠWhoever": 8530,
  "ĠStretch": 8531,
  "ĠLenny": 8532,
  "ĠKit": 8533,
  "ĠAnother": 8534,
  "ĠAbbie": 8535,
  "Jul": 8536,
  "Ġobserving": 8537,
  "ĠMic": 8538,
  "Frank": 8539,
  "ĠRon": 8540,
  "Ġrobbers": 8541,
  "Ġmassages": 8542,
  "uses": 8543,
  "iley": 8544,
  "anwhile": 8545,
  "Ġshowers": 8546,
  "ĠSuper": 8547,
  "book": 8548,
  "Ġfrowns": 8549,
  "Ġbackpacks": 8550,
  "acock": 8551,
  "Ġcustomers": 8552,
  "Ġsneezes": 8553,
  "Ġshortcut": 8554,
  "Ġapplauding": 8555,
  "Ġtoppings": 8556,
  "Ġlull": 8557,
  "ails": 8558,
  "Ġmarking": 8559,
  "Ġnewspapers": 8560,
  "Ġheadache": 8561,
  "Ġcheated": 8562,
  "ĠBarky": 8563,
  "onna": 8564,
  "Ġnatural": 8565,
  "Ġmatey": 8566,
  "ĠLight": 8567,
  "Ġjuggling": 8568,
  "Ġnearest": 8569,
  "Ġcomforting": 8570,
  "Ġbeetles": 8571,
  "Ġannoyed": 8572,
  "Ġbellies": 8573,
  "Ġhundred": 8574,
  "Ġdrying": 8575,
  "magine": 8576,
  "Aunt": 8577,
  "Ġrows": 8578,
  "Ġcrafts": 8579,
  "Ġexchange": 8580,
  "ĠEmmy": 8581,
  "Pippin": 8582,
  "Ġreact": 8583,
  "Ġrepairing": 8584,
  "ĠBlack": 8585,
  "Pat": 8586,
  "Ġlocks": 8587,
  "Ġpeacock": 8588,
  "Ġfreely": 8589,
  "Coco": 8590,
  "Ġscares": 8591,
  "Ġdemanding": 8592,
  "ĠSweet": 8593,
  "ĠRyan": 8594,
  "urrender": 8595,
  "ĠGoldie": 8596,
  "sie": 8597,
  "Pinky": 8598,
  "Ġbacks": 8599,
  "Ġapproach": 8600,
  "Leave": 8601,
  "Ġtravels": 8602,
  "Ġsmoothly": 8603,
  "Ġscrub": 8604,
  "Ġenvelopes": 8605,
  "Ġcountries": 8606,
  "ĠZog": 8607,
  "flow": 8608,
  "Ġlowered": 8609,
  "Ġtwinkled": 8610,
  "ĠShow": 8611,
  "Ġswat": 8612,
  "Ġlumberjack": 8613,
  "Ġhooks": 8614,
  "Ġtodd": 8615,
  "Ġtickling": 8616,
  "Ġslapping": 8617,
  "ĠHoney": 8618,
  "Ġcracks": 8619,
  "Ġraising": 8620,
  "ĠNick": 8621,
  "ĠLaura": 8622,
  "Ġloses": 8623,
  "Ġefforts": 8624,
  "Ġcaterpillars": 8625,
  "Ġoverflow": 8626,
  "Ġmoderation": 8627,
  "Ġmodels": 8628,
  "Mon": 8629,
  "Ġwhimp": 8630,
  "Ġcurrent": 8631,
  "Ġaim": 8632,
  "Ġdrift": 8633,
  "ĠMan": 8634,
  "Ġprank": 8635,
  "Ġconc": 8636,
  "Ġcoloured": 8637,
  "Ġjoyful": 8638,
  "Ġangrier": 8639,
  "Zoomy": 8640,
  "Ġautomobiles": 8641,
  "Ġclerk": 8642,
  "Ġcigarette": 8643,
  "Ġstur": 8644,
  "Ġscratchy": 8645,
  "Ġlitter": 8646,
  "Ġdisc": 8647,
  "Try": 8648,
  "ĠCaptain": 8649,
  "Ġweighing": 8650,
  "Ġhood": 8651,
  "Ġcooled": 8652,
  "Ġcompleting": 8653,
  "Ġsnowy": 8654,
  "Ġinches": 8655,
  "ĠPuppy": 8656,
  "iona": 8657,
  "Ġwhined": 8658,
  "Ġwrench": 8659,
  "pit": 8660,
  "ĠChess": 8661,
  "Alright": 8662,
  "Ġunstuck": 8663,
  "ethos": 8664,
  "antha": 8665,
  "Ġstethos": 8666,
  "ĠPen": 8667,
  "iscuit": 8668,
  "ĠRoo": 8669,
  "Ġsmartest": 8670,
  "Sharing": 8671,
  "ĠRalph": 8672,
  "Ġplucked": 8673,
  "Ġbushy": 8674,
  "Ġtrusty": 8675,
  "ĠNear": 8676,
  "Ġsens": 8677,
  "Ġgenerosity": 8678,
  "Ġattitude": 8679,
  "Ġantlers": 8680,
  "ĠUniversity": 8681,
  "Kim": 8682,
  "Ġshrank": 8683,
  "Ġcongratulated": 8684,
  "Ġfills": 8685,
  "ĠTe": 8686,
  "immering": 8687,
  "Ġwounds": 8688,
  "Ġsqueaked": 8689,
  "orth": 8690,
  "Ġstuffing": 8691,
  "Ġspits": 8692,
  "Ġneighbours": 8693,
  "Kiki": 8694,
  "piece": 8695,
  "Ġlullaby": 8696,
  "Ġyoun": 8697,
  "Ġexperien": 8698,
  "Ġyoungest": 8699,
  "arlings": 8700,
  "Katie": 8701,
  "Ġdarlings": 8702,
  "ĠChris": 8703,
  "zoom": 8704,
  "des": 8705,
  "beh": 8706,
  "iky": 8707,
  "Ġform": 8708,
  "urity": 8709,
  "onut": 8710,
  "Ġsets": 8711,
  "endant": 8712,
  "Ġfiles": 8713,
  "beep": 8714,
  "Ġhiss": 8715,
  "Ġcuddles": 8716,
  "Ġcreams": 8717,
  "Ġscoops": 8718,
  "Ġstethoscope": 8719,
  "Ġmesmerized": 8720,
  "Ġfacing": 8721,
  "Ġpounds": 8722,
  "Ġcutter": 8723,
  "tha": 8724,
  "Ġsweeter": 8725,
  "Ġcoconut": 8726,
  "asty": 8727,
  "Ġunderstands": 8728,
  "Ġsicker": 8729,
  "Ġotters": 8730,
  "ĠTooth": 8731,
  "Ġgrandfather": 8732,
  "ĠNut": 8733,
  "Bee": 8734,
  "ancy": 8735,
  "Ġgrassh": 8736,
  "ĠDra": 8737,
  "Jazz": 8738,
  "Ġnuzzled": 8739,
  "Ġsweaters": 8740,
  "ntil": 8741,
  "Ġcares": 8742,
  "Ġwrapper": 8743,
  "ĠOkay": 8744,
  "Ġteachers": 8745,
  "Ġtripping": 8746,
  "found": 8747,
  "Ġpopping": 8748,
  "ĠBruce": 8749,
  "boards": 8750,
  "Yesterday": 8751,
  "Hoot": 8752,
  "Ġrebu": 8753,
  "Ġoutfits": 8754,
  "Ġchatted": 8755,
  "Ġpaddling": 8756,
  "ĠRobbie": 8757,
  "Ġsecurity": 8758,
  "ĠRaz": 8759,
  "seed": 8760,
  "cup": 8761,
  "Ġpleaded": 8762,
  "ĠShadow": 8763,
  "cal": 8764,
  "Ġfaded": 8765,
  "ĠHolly": 8766,
  "Ġalley": 8767,
  "ĠJolly": 8768,
  "Ġplugged": 8769,
  "Ġactivity": 8770,
  "Ġrealizing": 8771,
  "Ġcondition": 8772,
  "Ġbanged": 8773,
  "anna": 8774,
  "Ġwarri": 8775,
  "Ġrays": 8776,
  "Ġforests": 8777,
  "Ġbirdseed": 8778,
  "perate": 8779,
  "yl": 8780,
  "Slow": 8781,
  "Ġtidied": 8782,
  "Ġscrape": 8783,
  "Two": 8784,
  "Ġswaying": 8785,
  "Ġlookout": 8786,
  "Ġhomeless": 8787,
  "Ġplug": 8788,
  "Ġconsiderate": 8789,
  "Ġcrickets": 8790,
  "Kids": 8791,
  "Ġsturdy": 8792,
  "ĠZoey": 8793,
  "ĠPlaying": 8794,
  "ilda": 8795,
  "Ġundone": 8796,
  "ĠMaya": 8797,
  "inema": 8798,
  "Ġthroughout": 8799,
  "Ġpickles": 8800,
  "Ġlimp": 8801,
  "Ġdeserved": 8802,
  "Ġunable": 8803,
  "Ġtrading": 8804,
  "ĠWin": 8805,
  "melia": 8806,
  "entr": 8807,
  "uffin": 8808,
  "ening": 8809,
  "Ġwinners": 8810,
  "Ġtastiest": 8811,
  "Ġill": 8812,
  "Spe": 8813,
  "Ġwiser": 8814,
  "Ġgrasshopper": 8815,
  "Ġgroom": 8816,
  "Ġcourt": 8817,
  "Ġcinema": 8818,
  "ĠTime": 8819,
  "Ġsmashed": 8820,
  "Ġpuzzled": 8821,
  "etchup": 8822,
  "Ġterrified": 8823,
  "Ġsprinkle": 8824,
  "Ġscamp": 8825,
  "Ġgardens": 8826,
  "Ġsooner": 8827,
  "Ġdespite": 8828,
  "ĠBally": 8829,
  "of": 8830,
  "Ġdial": 8831,
  "Ġconcentr": 8832,
  "Ġspies": 8833,
  "Ġsly": 8834,
  "Ġfashionable": 8835,
  "ĠCD": 8836,
  "Ġtypes": 8837,
  "Ġhudd": 8838,
  "Ġgonna": 8839,
  "Ġcheating": 8840,
  "war": 8841,
  "uel": 8842,
  "bank": 8843,
  "Ġminding": 8844,
  "Ġkilled": 8845,
  "ĠShark": 8846,
  "lish": 8847,
  "Ġcages": 8848,
  "ca": 8849,
  "Ġnecks": 8850,
  "Ġgroan": 8851,
  "Ġmunched": 8852,
  "Ġanyways": 8853,
  "Ġspelling": 8854,
  "Ġsacks": 8855,
  "ĠToys": 8856,
  "mbur": 8857,
  "Ġswayed": 8858,
  "Ġdisappearing": 8859,
  "Ġstyles": 8860,
  "Ġstamped": 8861,
  "Ġmessages": 8862,
  "Ġburns": 8863,
  "Ġantic": 8864,
  "Ġhambur": 8865,
  "Ġduckie": 8866,
  "--": 8867,
  "Ġcrocodiles": 8868,
  "ĠBugs": 8869,
  "Ġketchup": 8870,
  "Ġactors": 8871,
  "Ġmiller": 8872,
  "Ġastronauts": 8873,
  "ĠMartha": 8874,
  "onnie": 8875,
  "Ġstructures": 8876,
  "Bl": 8877,
  "Ġkinder": 8878,
  "emies": 8879,
  "Ġenemies": 8880,
  "Ġcursed": 8881,
  "ita": 8882,
  "Cra": 8883,
  "Beware": 8884,
  "Ġtravelled": 8885,
  "Ġencountered": 8886,
  "Ġcharm": 8887,
  "Ġrecommendation": 8888,
  "Ġguards": 8889,
  "Ġexpert": 8890,
  "Ġoppos": 8891,
  "Ġmasterpiece": 8892,
  "Ġdifferently": 8893,
  "rey": 8894,
  "Ġcowboys": 8895,
  "Zara": 8896,
  "Ġtumbled": 8897,
  "By": 8898,
  "Ġwelcoming": 8899,
  "Ġdock": 8900,
  "ĠMixy": 8901,
  "Ġstretches": 8902,
  "Ġexperienced": 8903,
  "Ġcrowded": 8904,
  "Ġdetect": 8905,
  "Ġcarn": 8906,
  "Ġblades": 8907,
  "ĠThunder": 8908,
  "Bluey": 8909,
  "Ġtoward": 8910,
  "Ġelectricity": 8911,
  "Ġcomputers": 8912,
  "Ġstubbed": 8913,
  "ĠWiggles": 8914,
  "Ġwarmly": 8915,
  "Ġsunbur": 8916,
  "Ġability": 8917,
  "Ġnewfound": 8918,
  "Ġhamm": 8919,
  "Ġting": 8920,
  "Ġopposite": 8921,
  "ĠPh": 8922,
  "Ġwaitress": 8923,
  "Ġspoiling": 8924,
  "Ġshooed": 8925,
  "ĠChewy": 8926,
  "Ġtiptoes": 8927,
  "ĠNavy": 8928,
  "David": 8929,
  "Ġrecorder": 8930,
  "Ġinstrument": 8931,
  "ĠWendy": 8932,
  "Ġdolly": 8933,
  "Ġexpecting": 8934,
  "ĠBang": 8935,
  "ellow": 8936,
  "Ġrowing": 8937,
  "icking": 8938,
  "Bow": 8939,
  "Ġhind": 8940,
  "Ġchallenged": 8941,
  "Ġpose": 8942,
  "Ġsuck": 8943,
  "Ġdecl": 8944,
  "Ġcheers": 8945,
  "five": 8946,
  "Ġendings": 8947,
  "Ġcurl": 8948,
  "Ġthrone": 8949,
  "Ġroo": 8950,
  "Ġpinec": 8951,
  "mbers": 8952,
  "Ġmembers": 8953,
  "ĠSimon": 8954,
  "Ġtanks": 8955,
  "ĠWait": 8956,
  "ĠHelping": 8957,
  "off": 8958,
  "fus": 8959,
  "Ġtoddler": 8960,
  "venir": 8961,
  "Ġdodged": 8962,
  "Ġcarnival": 8963,
  "Ġsouvenir": 8964,
  "Ġconqu": 8965,
  "ĠMint": 8966,
  "Behind": 8967,
  "Ġspy": 8968,
  "Ġsinking": 8969,
  "ĠKip": 8970,
  "Ġnightstand": 8971,
  "Ġbecomes": 8972,
  "ĠSay": 8973,
  "Ġsoapy": 8974,
  "inite": 8975,
  "Danger": 8976,
  "Ġnightlight": 8977,
  "Ġretrie": 8978,
  "ĠGus": 8979,
  "rons": 8980,
  "ieve": 8981,
  "anish": 8982,
  "Ġunlo": 8983,
  "Ġobeyed": 8984,
  "Ġstrips": 8985,
  "ĠJudge": 8986,
  "Ġspears": 8987,
  "ĠTiger": 8988,
  "Ġunwrapped": 8989,
  "Ġpecking": 8990,
  "omb": 8991,
  "Ġspiky": 8992,
  "ĠTess": 8993,
  "ĠBad": 8994,
  "organ": 8995,
  "Ġhuddled": 8996,
  "Ġaprons": 8997,
  "Ġwhistles": 8998,
  "Ġregularly": 8999,
  "Ġduckies": 9000,
  "ĠAbi": 9001,
  "scar": 9002,
  "isbee": 9003,
  "Tony": 9004,
  "ĠBra": 9005,
  "initely": 9006,
  "Ġexams": 9007,
  "Ġbrains": 9008,
  "Ġmashed": 9009,
  "Ġjoins": 9010,
  "ĠIce": 9011,
  "etah": 9012,
  "Back": 9013,
  "ĠAna": 9014,
  "Birdy": 9015,
  "ĠDoes": 9016,
  "Too": 9017,
  "Ġretrieved": 9018,
  "Ġarre": 9019,
  "ĠLia": 9020,
  "urn": 9021,
  "acy": 9022,
  "Ġposters": 9023,
  "Ġenjoyable": 9024,
  "verse": 9025,
  "Ġyummiest": 9026,
  "ended": 9027,
  "Ġcheetah": 9028,
  "Ġcaf": 9029,
  "Magic": 9030,
  "gger": 9031,
  "anda": 9032,
  "Ġcompromise": 9033,
  "ĠAnytime": 9034,
  "years": 9035,
  "Ġcaps": 9036,
  "Ġnights": 9037,
  "uries": 9038,
  "Ġriverbank": 9039,
  "Ġdoorway": 9040,
  "Ġmugs": 9041,
  "ĠYoga": 9042,
  "ĠJojo": 9043,
  "Brrr": 9044,
  "Ġrebuild": 9045,
  "Ġcoughed": 9046,
  "Ġcanv": 9047,
  "Ġwebs": 9048,
  "Ġtrot": 9049,
  "Ġheavily": 9050,
  "Ġcomets": 9051,
  "ĠSte": 9052,
  "Ġtrigger": 9053,
  "Ġannoying": 9054,
  "Ġperformers": 9055,
  "Ġcarve": 9056,
  "Ġsternly": 9057,
  "Ġstall": 9058,
  "Ġmelody": 9059,
  "Ġboil": 9060,
  "Ġtilted": 9061,
  "otte": 9062,
  "Ġrumbling": 9063,
  "ĠJudy": 9064,
  "reverse": 9065,
  "Ġsurfed": 9066,
  "Ġroller": 9067,
  "ĠHerb": 9068,
  "oosh": 9069,
  "acing": 9070,
  "Ġknit": 9071,
  "Ġformed": 9072,
  "ĠUntil": 9073,
  "Tilly": 9074,
  "Ġsimply": 9075,
  "Ġsneaking": 9076,
  "Ġquacking": 9077,
  "Ġfloppy": 9078,
  "Ġbeaks": 9079,
  "welcome": 9080,
  "jest": 9081,
  "Rock": 9082,
  "Ra": 9083,
  "Ġgap": 9084,
  "Ġservice": 9085,
  "ĠTri": 9086,
  "ĠMarie": 9087,
  "ĠAlthough": 9088,
  "colored": 9089,
  "Ġweights": 9090,
  "Ġmold": 9091,
  "ocular": 9092,
  "iel": 9093,
  "ĠSadie": 9094,
  "arlotte": 9095,
  "Ġexplains": 9096,
  "Ġbinocular": 9097,
  "ĠBlinky": 9098,
  "ili": 9099,
  "Ġvisits": 9100,
  "Ġreappear": 9101,
  "Ġhunger": 9102,
  "ecca": 9103,
  "Ġcanvas": 9104,
  "Ġdev": 9105,
  "Ġopportunity": 9106,
  "ĠAli": 9107,
  "udged": 9108,
  "arted": 9109,
  "Ġsquish": 9110,
  "Ġfunn": 9111,
  "Ġdescri": 9112,
  "People": 9113,
  "ĠAngel": 9114,
  "Being": 9115,
  "ĠRainbow": 9116,
  "Ġscenery": 9117,
  "bbly": 9118,
  "Ġgod": 9119,
  "Ġbuilder": 9120,
  "Thomas": 9121,
  "Ġquarre": 9122,
  "Ġexplaining": 9123,
  "Arrr": 9124,
  "Ġdifferences": 9125,
  "Ġtroubles": 9126,
  "Ġcompete": 9127,
  "ĠTaking": 9128,
  "abby": 9129,
  "Ġgooey": 9130,
  "Ġcommotion": 9131,
  "Ġscampered": 9132,
  "Ġdiscoveries": 9133,
  "ĠLi": 9134,
  ".'\"": 9135,
  "Ġsickness": 9136,
  "Ġmailing": 9137,
  "ĠOtto": 9138,
  "ĠBub": 9139,
  "rily": 9140,
  "ivia": 9141,
  "Ġharmful": 9142,
  "ĠMabel": 9143,
  "good": 9144,
  "Ġrails": 9145,
  "Ġdefinitely": 9146,
  "Ġbrightest": 9147,
  "Ġmovements": 9148,
  "Ġscaredy": 9149,
  "Ġmeows": 9150,
  "Ġsteering": 9151,
  "Ġpasses": 9152,
  "Ġfishes": 9153,
  "ĠRazor": 9154,
  "flies": 9155,
  "ĠEverybody": 9156,
  "Mira": 9157,
  "Ġfanc": 9158,
  "Ġcomplimented": 9159,
  "ĠMust": 9160,
  "ĠJanie": 9161,
  "Ġonward": 9162,
  "Ġloudest": 9163,
  "Ġarranged": 9164,
  "Ġowning": 9165,
  "Ġflaps": 9166,
  "ending": 9167,
  "Ġzooms": 9168,
  "Ġapologised": 9169,
  "Ġrewarding": 9170,
  "ĠMoley": 9171,
  "Ġpurrs": 9172,
  "Ġfrisbee": 9173,
  "Ġbooth": 9174,
  "ĠMuffin": 9175,
  "inny": 9176,
  "Ġfaint": 9177,
  "ĠLoop": 9178,
  "ative": 9179,
  "Ġwarmed": 9180,
  "Ġexpression": 9181,
  "Ġcrushed": 9182,
  "Ã©": 9183,
  "Ġcops": 9184,
  "ĠBiggy": 9185,
  "shadow": 9186,
  "Ġoccasion": 9187,
  "Ġlur": 9188,
  "Ġinterest": 9189,
  "ĠTuesdays": 9190,
  "Ġrunny": 9191,
  "Ġparted": 9192,
  "ĠShare": 9193,
  "BC": 9194,
  "Ġskirts": 9195,
  "Ġbinoculars": 9196,
  "Ġphones": 9197,
  "Ġbond": 9198,
  "ĠMonster": 9199,
  "Ġjuggle": 9200,
  "ĠJelly": 9201,
  "just": 9202,
  "Ġriddle": 9203,
  "Ġdesserts": 9204,
  "Ġhumming": 9205,
  "Ġcarries": 9206,
  "ĠABC": 9207,
  "Che": 9208,
  "Bubba": 9209,
  "Ġpressing": 9210,
  "ĠMichael": 9211,
  "Ġresponded": 9212,
  "Ġobediently": 9213,
  "Ġfinal": 9214,
  "elling": 9215,
  "Ġalligators": 9216,
  "ĠBumpy": 9217,
  "Olive": 9218,
  "Ġnasty": 9219,
  "Ġmeaning": 9220,
  "Ġbadger": 9221,
  "what": 9222,
  "rough": 9223,
  "ering": 9224,
  "Ġtro": 9225,
  "Ġgoodness": 9226,
  "Ġticking": 9227,
  "Ġswap": 9228,
  "ĠBess": 9229,
  "omp": 9230,
  "iments": 9231,
  "Ġcustomer": 9232,
  "Ġreaction": 9233,
  "ĠBel": 9234,
  "hole": 9235,
  "Poor": 9236,
  "Ġsever": 9237,
  "ĠLightning": 9238,
  "Ġflashed": 9239,
  "asers": 9240,
  "Shrink": 9241,
  "Ġseveral": 9242,
  "Ġexamp": 9243,
  "Ġboiling": 9244,
  "Ġtops": 9245,
  "Ġbomb": 9246,
  "Ġconstr": 9247,
  "ĠRuff": 9248,
  "how": 9249,
  "Ġconnect": 9250,
  "ĠNe": 9251,
  "ĠMustache": 9252,
  "Ġbounces": 9253,
  "ĠReady": 9254,
  "pect": 9255,
  "Liz": 9256,
  "Ġwrink": 9257,
  "Ġcrawls": 9258,
  "ĠBarry": 9259,
  "ĠAr": 9260,
  "ĠMeg": 9261,
  "uum": 9262,
  "Ġgasp": 9263,
  "ĠDespite": 9264,
  "Abigail": 9265,
  "Ġsnaps": 9266,
  "ĠTodd": 9267,
  "Ġvacuum": 9268,
  "Ġimproving": 9269,
  "Ġaffect": 9270,
  "ĠRusty": 9271,
  "evin": 9272,
  "Ġsmoothie": 9273,
  "ĠCurious": 9274,
  "ĠVroom": 9275,
  "working": 9276,
  "Ġpouch": 9277,
  "Ġhoot": 9278,
  "Ġaid": 9279,
  "Ġordering": 9280,
  "Ġlizards": 9281,
  "ĠFlick": 9282,
  "Ġreel": 9283,
  "Ġdragonfly": 9284,
  "Ġcafe": 9285,
  "ĠMinnie": 9286,
  "Ġtickles": 9287,
  "Ġscolds": 9288,
  "Lena": 9289,
  "Ġsoot": 9290,
  "Ġcrisp": 9291,
  "ĠMindy": 9292,
  "ĠPig": 9293,
  "Ġanticip": 9294,
  "oison": 9295,
  "sse": 9296,
  "Steve": 9297,
  "ĠTruck": 9298,
  "Ġwhether": 9299,
  "Ġpresented": 9300,
  "ĠMs": 9301,
  "ashes": 9302,
  "antern": 9303,
  "Adam": 9304,
  "Ġrightful": 9305,
  "Ġleap": 9306,
  "Ġdevast": 9307,
  "Ġspaces": 9308,
  "Ġresol": 9309,
  "Ġattem": 9310,
  "ordinary": 9311,
  "Ġcaw": 9312,
  "ĠExcited": 9313,
  "Ġrooster": 9314,
  "Ġdrip": 9315,
  "Ġerasers": 9316,
  "Ġcuc": 9317,
  "Ġbumping": 9318,
  "Ġappl": 9319,
  "vy": 9320,
  "Fire": 9321,
  "Speedy": 9322,
  "Ġmysteries": 9323,
  "Ġfoam": 9324,
  "ĠWhich": 9325,
  "ĠMole": 9326,
  "ĠDina": 9327,
  "aroni": 9328,
  "anie": 9329,
  "Ġexample": 9330,
  "ĠRicky": 9331,
  "Meanwhile": 9332,
  "Ġpilots": 9333,
  "Ġdevastated": 9334,
  "Looks": 9335,
  "Ġjumper": 9336,
  "Ġchalks": 9337,
  "bl": 9338,
  "ssss": 9339,
  "Squ": 9340,
  "Ġstains": 9341,
  "ĠTre": 9342,
  "ophone": 9343,
  "Finny": 9344,
  "Ġerupt": 9345,
  "ĠPine": 9346,
  "ula": 9347,
  "izzes": 9348,
  "Ġsprays": 9349,
  "ĠSwim": 9350,
  "Cindy": 9351,
  "Ġshallow": 9352,
  "Ġironing": 9353,
  "Ġchallenges": 9354,
  "Hannah": 9355,
  "Ġbathed": 9356,
  "byes": 9357,
  "Friends": 9358,
  "Ġpollen": 9359,
  "ibi": 9360,
  "Ġmacaroni": 9361,
  "ĠPretty": 9362,
  "Ġgrump": 9363,
  "ĠFiona": 9364,
  "yd": 9365,
  "Ġmagnifying": 9366,
  "Ġleapt": 9367,
  "Ġkangaroos": 9368,
  "Ġgroaned": 9369,
  "ĠOscar": 9370,
  "emon": 9371,
  "Ġunco": 9372,
  "Ġembarrassing": 9373,
  "Ġchecks": 9374,
  "Ġgoodbyes": 9375,
  "Ġbroomstick": 9376,
  "ĠBirds": 9377,
  "erris": 9378,
  "Phew": 9379,
  "Ġmindful": 9380,
  "Ġimaginations": 9381,
  "Jamie": 9382,
  "Ġnibbling": 9383,
  "sers": 9384,
  "Mad": 9385,
  "Ġtips": 9386,
  "Ġtwenty": 9387,
  "Ġrumbled": 9388,
  "artled": 9389,
  "Butter": 9390,
  "cloth": 9391,
  "Ġchatting": 9392,
  "ĠMagic": 9393,
  "zo": 9394,
  "Ġmoons": 9395,
  "Ġflowed": 9396,
  "ĠKaren": 9397,
  "Ġdears": 9398,
  "Ġcompared": 9399,
  "ĠJackie": 9400,
  "Imagine": 9401,
  "althy": 9402,
  "Ġoutsm": 9403,
  "Ġquizzes": 9404,
  "Ġlaces": 9405,
  "Ġinjuries": 9406,
  "Ġwarrior": 9407,
  "Ġarmy": 9408,
  "inner": 9409,
  "Ġsax": 9410,
  "Ġpriv": 9411,
  "Ġposse": 9412,
  "Ġlurking": 9413,
  "Ġsurely": 9414,
  "Ġcompan": 9415,
  "Ġcharged": 9416,
  "ĠRino": 9417,
  "ĠPop": 9418,
  "Ġstroller": 9419,
  "Ġprotection": 9420,
  "Ġpointer": 9421,
  "Ġapology": 9422,
  "Trust": 9423,
  "Robby": 9424,
  "cutter": 9425,
  "Ġnearly": 9426,
  "Ġlapt": 9427,
  "Ġdetails": 9428,
  "ivi": 9429,
  "Ġfans": 9430,
  "Ġbubbly": 9431,
  "ĠJacky": 9432,
  "Ġanticipation": 9433,
  "Ġdeclared": 9434,
  "ĠRoger": 9435,
  "Ġrods": 9436,
  "ĠRibbit": 9437,
  "Ġ9": 9438,
  "Find": 9439,
  "Ġadds": 9440,
  "ĠRia": 9441,
  "',": 9442,
  "Ġtaco": 9443,
  "Ġalthough": 9444,
  "ĠRh": 9445,
  "its": 9446,
  "icious": 9447,
  "Ġthreads": 9448,
  "Ġtin": 9449,
  "Ġmedals": 9450,
  "Ġhooves": 9451,
  "Ġglows": 9452,
  "Ġowns": 9453,
  "Ġmusicians": 9454,
  "Ġforgives": 9455,
  "Ġadmiration": 9456,
  "ĠRufus": 9457,
  "rap": 9458,
  "Ġpossess": 9459,
  "Ġpinecone": 9460,
  "Ġallowing": 9461,
  "Ġrevealing": 9462,
  "ĠFly": 9463,
  "Ġharvest": 9464,
  "ooking": 9465,
  "Ġwoodcutter": 9466,
  "Ġsandpit": 9467,
  "Ġnewly": 9468,
  "ĠDavey": 9469,
  "ics": 9470,
  "ĠFlappy": 9471,
  "Ġraked": 9472,
  "Ġonline": 9473,
  "Ġdesks": 9474,
  "Ġobstacle": 9475,
  "Ġconstruction": 9476,
  "Ġchains": 9477,
  "ieves": 9478,
  "Ġshall": 9479,
  "uster": 9480,
  "Ġadventurer": 9481,
  "Ġsniffled": 9482,
  "Ġprocess": 9483,
  "Ġfarmers": 9484,
  "ĠRel": 9485,
  "ousel": 9486,
  "Ġlaptop": 9487,
  "Mouse": 9488,
  "Ġwhine": 9489,
  "striches": 9490,
  "ooks": 9491,
  "giving": 9492,
  "ĠDragon": 9493,
  "ĠAmelia": 9494,
  "rian": 9495,
  "Ahoy": 9496,
  "Ġtraining": 9497,
  "Ġjing": 9498,
  "Ġcousins": 9499,
  "Ġcarousel": 9500,
  "ĠHug": 9501,
  "issa": 9502,
  "Outside": 9503,
  "Ġhandy": 9504,
  "Ġextraordinary": 9505,
  "Ġdripped": 9506,
  "Isn": 9507,
  "Ġowls": 9508,
  "Ġfail": 9509,
  "Ġding": 9510,
  "Ġaisles": 9511,
  "Ġinjured": 9512,
  "Ġincludes": 9513,
  "Rain": 9514,
  "Ġthieves": 9515,
  "Ġraincoats": 9516,
  "mo": 9517,
  "Ball": 9518,
  "Ġinvites": 9519,
  "ĠZipper": 9520,
  "illas": 9521,
  "Never": 9522,
  "keepers": 9523,
  "Ġcheerfully": 9524,
  "Ġwriter": 9525,
  "ĠYellow": 9526,
  "ĠJumpy": 9527,
  "rope": 9528,
  "Curious": 9529,
  "shop": 9530,
  "Ġcommon": 9531,
  "Ġchin": 9532,
  "ĠEliz": 9533,
  "ĠCrocod": 9534,
  "ĠCari": 9535,
  "Ġfaith": 9536,
  "Make": 9537,
  "Ġhardest": 9538,
  "Ġspelled": 9539,
  "Ġapplause": 9540,
  "ĠSpeed": 9541,
  "Bo": 9542,
  "Ġdisagreement": 9543,
  "ĠStan": 9544,
  "Ġprotector": 9545,
  "Ġchili": 9546,
  "Cla": 9547,
  "Ġunfair": 9548,
  "Ġblond": 9549,
  "El": 9550,
  "Ġsoda": 9551,
  "Ġslithering": 9552,
  "Ġdisagreeing": 9553,
  "Ġbats": 9554,
  "Ġthumbs": 9555,
  "ĠcafÃ©": 9556,
  "inger": 9557,
  "Ġpoop": 9558,
  "ality": 9559,
  "Ġnets": 9560,
  "iri": 9561,
  "bbles": 9562,
  "ĠNever": 9563,
  "Ġcompanion": 9564,
  "Ġtightrope": 9565,
  "Ġholidays": 9566,
  "Ġclubs": 9567,
  "Ġacrob": 9568,
  "ĠFurry": 9569,
  "raged": 9570,
  "Ġpatches": 9571,
  "Ġcleans": 9572,
  "Ġadmit": 9573,
  "lor": 9574,
  "Ġsignal": 9575,
  "Ġsaxophone": 9576,
  "Ġmoonlight": 9577,
  "inted": 9578,
  "Ġtextures": 9579,
  "Ġbait": 9580,
  "utions": 9581,
  "illiam": 9582,
  "Playing": 9583,
  "Only": 9584,
  "Bounce": 9585,
  "Ġdia": 9586,
  "Ġbirthdays": 9587,
  "Ġstriking": 9588,
  "Ġpainful": 9589,
  "ĠCandy": 9590,
  "Ġsolutions": 9591,
  "itcher": 9592,
  "Ġunderwater": 9593,
  "Ġretrieve": 9594,
  "ĠNurse": 9595,
  "Spidey": 9596,
  "Ġbruises": 9597,
  "Ġattempt": 9598,
  "Ġspeaker": 9599,
  "Ġflyer": 9600,
  "owing": 9601,
  "munk": 9602,
  "dog": 9603,
  "Lizzy": 9604,
  "Ġrider": 9605,
  "Ġdoves": 9606,
  "iolet": 9607,
  "Elly": 9608,
  "Ġstew": 9609,
  "Ġchugged": 9610,
  "Honey": 9611,
  "Ġheels": 9612,
  "Ġequally": 9613,
  "ĠSamantha": 9614,
  "Ġshares": 9615,
  "field": 9616,
  "Ġunlocking": 9617,
  "Ġguitars": 9618,
  "ĠSmoke": 9619,
  "ĠHello": 9620,
  "check": 9621,
  "Ġodd": 9622,
  "Ġworkshop": 9623,
  "Ġopt": 9624,
  "Ġboards": 9625,
  "ĠDay": 9626,
  "pan": 9627,
  "Ġzookeepers": 9628,
  "Ġpanicking": 9629,
  "Ġpitcher": 9630,
  "cie": 9631,
  "Should": 9632,
  "Ġwig": 9633,
  "Ġsensation": 9634,
  "ĠBibi": 9635,
  "ĠAchoo": 9636,
  "pr": 9637,
  "antastic": 9638,
  "Ġunne": 9639,
  "Ġdeck": 9640,
  "match": 9641,
  "Ġseriously": 9642,
  "ĠMaddie": 9643,
  "ĠâĢĶ": 9644,
  "ĠRuth": 9645,
  "Ġskinny": 9646,
  "ĠApp": 9647,
  "Ġsincere": 9648,
  "Ġaccepting": 9649,
  "ĠUse": 9650,
  "ĠABCs": 9651,
  "Near": 9652,
  "Both": 9653,
  "Ġmats": 9654,
  "Ġdate": 9655,
  "ĠFel": 9656,
  "ae": 9657,
  "ĠDe": 9658,
  "isible": 9659,
  "Ġwashes": 9660,
  "ĠVivi": 9661,
  "manda": 9662,
  "Ġunnecessary": 9663,
  "Ġscience": 9664,
  "Ġcance": 9665,
  "ouraged": 9666,
  "Chloe": 9667,
  "Ġadop": 9668,
  "ĠPink": 9669,
  "ĠOlivia": 9670,
  "owers": 9671,
  "Ġinvisible": 9672,
  "shirt": 9673,
  "mill": 9674,
  "Ġtrotted": 9675,
  "Ġrealizes": 9676,
  "Ġevents": 9677,
  "ĠPlus": 9678,
  "isher": 9679,
  "Sun": 9680,
  "Ġinjury": 9681,
  "Ġemb": 9682,
  "ĠFle": 9683,
  "cr": 9684,
  "Ġvibr": 9685,
  "Ġtran": 9686,
  "Ġsnapping": 9687,
  "Ġneighed": 9688,
  "ĠOff": 9689,
  "Ġmayor": 9690,
  "Ġcontinuing": 9691,
  "Jess": 9692,
  "Ġpads": 9693,
  "Ġawful": 9694,
  "getic": 9695,
  "Ġstorybook": 9696,
  "Ġdeserves": 9697,
  "uno": 9698,
  "rand": 9699,
  "Ġscram": 9700,
  "ĠMore": 9701,
  "Ġpromising": 9702,
  "ĠRita": 9703,
  "eat": 9704,
  "Ġresolved": 9705,
  "Ġdusted": 9706,
  "ĠSofty": 9707,
  "Grow": 9708,
  "Ġproperty": 9709,
  "Ġintelligence": 9710,
  "Ġboarded": 9711,
  "ĠMine": 9712,
  "Josh": 9713,
  "Ġtowns": 9714,
  "Ġcombing": 9715,
  "Rabbit": 9716,
  "Ġknitting": 9717,
  "Ġchipmunk": 9718,
  "Since": 9719,
  "ĠYawn": 9720,
  "bun": 9721,
  "sn": 9722,
  "Ġinform": 9723,
  "Ġgorillas": 9724,
  "Ġforeshadow": 9725,
  "ĠThanksgiving": 9726,
  "Ġ4": 9727,
  "ushes": 9728,
  "meow": 9729,
  "Tree": 9730,
  "Ġlectures": 9731,
  "ĠMegan": 9732,
  "ĠDotty": 9733,
  "Tuna": 9734,
  "Ġlevel": 9735,
  "Ġbowing": 9736,
  "ĠWednesdays": 9737,
  "ĠPuffy": 9738,
  "ĠMina": 9739,
  "ĠCook": 9740,
  "idy": 9741,
  "ĠTomorrow": 9742,
  "asha": 9743,
  "Chick": 9744,
  "Ġrack": 9745,
  "ĠEva": 9746,
  "ĠEating": 9747,
  "ĠAny": 9748,
  "ĠSofia": 9749,
  "ĠLouise": 9750,
  "ĠFlo": 9751,
  "mate": 9752,
  "gr": 9753,
  "Froggy": 9754,
  "Dr": 9755,
  "Ġjudged": 9756,
  "Ġfrustration": 9757,
  "Ġcosy": 9758,
  "ĠJet": 9759,
  "Ġlim": 9760,
  "Ġlil": 9761,
  "Ġbeaming": 9762,
  "rit": 9763,
  "ĠClucky": 9764,
  "ĠClown": 9765,
  "Ġcapture": 9766,
  "ĠBar": 9767,
  "Ġscene": 9768,
  "Ġfantastic": 9769,
  "ĠToo": 9770,
  "iant": 9771,
  "Ġtrim": 9772,
  "Ġsleigh": 9773,
  "horse": 9774,
  "Nothing": 9775,
  "Ġruled": 9776,
  "Ġroyal": 9777,
  "Ġsuccessfully": 9778,
  "hand": 9779,
  ",'": 9780,
  "Ġbased": 9781,
  "ĠSal": 9782,
  "made": 9783,
  "Twinkle": 9784,
  "Ġclothesline": 9785,
  "ĠMother": 9786,
  "OO": 9787,
  "Ġwhimpered": 9788,
  "Ġunless": 9789,
  "Ġtroll": 9790,
  "Ġpudding": 9791,
  "gery": 9792,
  "Ġtravelling": 9793,
  "Ġostriches": 9794,
  "ĠMissile": 9795,
  "ici": 9796,
  "Ġroasted": 9797,
  "ĠClose": 9798,
  "Ġprod": 9799,
  "Ġshots": 9800,
  "Ġseparating": 9801,
  "Ġpeep": 9802,
  "Ġawoke": 9803,
  "gain": 9804,
  "Ġwinding": 9805,
  "Ġinstantly": 9806,
  "Ġcarefree": 9807,
  "ĠPatty": 9808,
  "bec": 9809,
  "Ġscrambled": 9810,
  "Ġpapa": 9811,
  "ĠElle": 9812,
  "Ġstained": 9813,
  "Ġparades": 9814,
  "Ġdisappointment": 9815,
  "ching": 9816,
  "Whenever": 9817,
  "Ġvests": 9818,
  "Ġknobs": 9819,
  "Ġhissing": 9820,
  "Ġris": 9821,
  "Ġparking": 9822,
  "Ġlighting": 9823,
  "Ġhost": 9824,
  "Ġbrakes": 9825,
  "ĠBonnie": 9826,
  "emma": 9827,
  "Ġsunburn": 9828,
  "Ġbas": 9829,
  "ĠCharlotte": 9830,
  "Ġsite": 9831,
  "Ġcrispy": 9832,
  "ĠBozo": 9833,
  "Splash": 9834,
  "Ġsus": 9835,
  "Ġmarve": 9836,
  "Ġhamster": 9837,
  "Ġfinishes": 9838,
  "Ġcarts": 9839,
  "ĠMaisy": 9840,
  "awk": 9841,
  "Ġthump": 9842,
  "Ġsurgery": 9843,
  "ĠOtherwise": 9844,
  "Rachel": 9845,
  "Ġintroducing": 9846,
  "Ġboiled": 9847,
  "sorry": 9848,
  "ebecca": 9849,
  "Ġdoggie": 9850,
  "Ġnecessary": 9851,
  "rick": 9852,
  "izza": 9853,
  "Ġfade": 9854,
  "ĠSil": 9855,
  "Ġouch": 9856,
  "yler": 9857,
  "Ġwoken": 9858,
  "Ġsqueaky": 9859,
  "Ġservants": 9860,
  "Ġscribbled": 9861,
  "Ġhippos": 9862,
  "Ġfeathered": 9863,
  "vere": 9864,
  "Ġworst": 9865,
  "Ġbarbec": 9866,
  "elope": 9867,
  "Close": 9868,
  "Ġreversing": 9869,
  "athan": 9870,
  "aids": 9871,
  "Ġexperiment": 9872,
  "Ġbending": 9873,
  "ĠSpider": 9874,
  "ĠHi": 9875,
  "edic": 9876,
  "Ġsleeps": 9877,
  "Ġpedaling": 9878,
  "ĠJax": 9879,
  "Mother": 9880,
  "Ġlilies": 9881,
  "Ġcords": 9882,
  "Ġashes": 9883,
  "Ġangrily": 9884,
  "ĠCloud": 9885,
  "Ġsharpen": 9886,
  "Ġchoke": 9887,
  "Ġnarrow": 9888,
  "Ġdiscouraged": 9889,
  "Ġblush": 9890,
  "ĠBingo": 9891,
  "Ġsupplying": 9892,
  "Ġfet": 9893,
  "Ġcalf": 9894,
  "ĠAnimal": 9895,
  "Aw": 9896,
  "Ġtents": 9897,
  "that": 9898,
  "Suzy": 9899,
  "Julie": 9900,
  "Ġsnowflake": 9901,
  "Ġbends": 9902,
  "ettle": 9903,
  "Ġlevers": 9904,
  "Ġclim": 9905,
  "ĠElsa": 9906,
  "Owl": 9907,
  "Ġportal": 9908,
  "Ġenemy": 9909,
  "Ġdirtier": 9910,
  "comb": 9911,
  "Je": 9912,
  "Ġsav": 9913,
  "ĠKaty": 9914,
  "Ġhoneycomb": 9915,
  "ĠLife": 9916,
  "gar": 9917,
  "Ġcracker": 9918,
  "Ġchill": 9919,
  "Ġcaution": 9920,
  "ĠSnake": 9921,
  "ĠCars": 9922,
  "Ġpizzas": 9923,
  "iraffe": 9924,
  "udy": 9925,
  "Beth": 9926,
  "Ġassist": 9927,
  "ĠZack": 9928,
  "Ġoceans": 9929,
  "Ġmelts": 9930,
  "Ġducklings": 9931,
  "ĠVicky": 9932,
  "Woo": 9933,
  "Ġtrusts": 9934,
  "Ġtippy": 9935,
  "Ġfif": 9936,
  "Ġexperiments": 9937,
  "Ġrecipes": 9938,
  "Ġluckiest": 9939,
  "Ġcarton": 9940,
  "ĠCrocodile": 9941,
  "Ġarrested": 9942,
  "ĠKevin": 9943,
  "bed": 9944,
  "Ġskateboard": 9945,
  "ĠBuster": 9946,
  "iara": 9947,
  "Ġcuddling": 9948,
  "ssy": 9949,
  "Ġwaters": 9950,
  "Ġdisobeyed": 9951,
  "ĠSpanish": 9952,
  "ĠRobin": 9953,
  "orky": 9954,
  "Ġquarrelling": 9955,
  "Ġbarbecue": 9956,
  "ĠSing": 9957,
  "Ġseeking": 9958,
  "Ġhalfway": 9959,
  "Ġdetective": 9960,
  "ĠDuke": 9961,
  "rie": 9962,
  "Ġsnowing": 9963,
  "Ġscientists": 9964,
  "Ġmushy": 9965,
  "Ġconflicts": 9966,
  "ĠLuc": 9967,
  "osure": 9968,
  "Papa": 9969,
  "Ġtablecloth": 9970,
  "Ġpearls": 9971,
  "Ġkeyhole": 9972,
  "Ġhisses": 9973,
  "smelling": 9974,
  "pop": 9975,
  "amil": 9976,
  "Ġspeedy": 9977,
  "Ġmisty": 9978,
  "Ġfreeing": 9979,
  "Ġcroaked": 9980,
  "ĠPick": 9981,
  "Ġstitched": 9982,
  "Ġsleeve": 9983,
  "Ġbless": 9984,
  "Ġbandaid": 9985,
  "berry": 9986,
  "Ray": 9987,
  "Ġshaker": 9988,
  "Ġclimber": 9989,
  "ĠJoke": 9990,
  "Ġsnug": 9991,
  "Ġpistols": 9992,
  "ĠMath": 9993,
  "Abby": 9994,
  "Ġperformer": 9995,
  "Ġlar": 9996,
  "ĠMoppy": 9997,
  "Eat": 9998,
  "Ġtempted": 9999
}